<unk>	0
<CLS>	0
<SEP>	0
▁the	-2.8306
,	-3.24697
.	-3.48876
▁of	-3.5387
▁a	-3.61042
▁to	-3.96988
▁and	-3.98627
▁in	-4.34114
▁is	-4.35253
-	-4.6011
▁(	-4.83341
▁or	-4.9246
▁be	-4.95075
▁The	-4.98469
▁	-5.02667
▁an	-5.11065
▁for	-5.12238
▁,	-5.1323
s	-5.15123
)	-5.2267
▁with	-5.30117
▁as	-5.30197
▁may	-5.30426
▁that	-5.33971
▁by	-5.34745
▁.	-5.35451
▁are	-5.52359
▁1	-5.5433
▁from	-5.55944
▁at	-5.62757
▁on	-5.70165
▁one	-5.72595
▁In	-5.72827
▁2	-5.73606
▁FIG	-5.75676
;	-5.75853
▁first	-5.77181
▁can	-5.84206
▁which	-5.86676
/	-5.90953
▁second	-5.95925
▁device	-6.00544
▁A	-6.07874
▁data	-6.09463
▁3	-6.18436
▁example	-6.18762
▁such	-6.21502
▁invention	-6.25511
:	-6.31181
▁wherein	-6.32024
▁system	-6.33013
▁embodiment	-6.35588
▁more	-6.39819
▁other	-6.4102
▁present	-6.42116
e	-6.44918
▁not	-6.45518
),	-6.47412
▁each	-6.48929
▁4	-6.51913
▁method	-6.52453
g	-6.52922
▁C	-6.54003
▁used	-6.54333
▁layer	-6.56043
▁portion	-6.57416
▁least	-6.57494
▁signal	-6.60555
▁between	-6.62775
▁information	-6.62966
or	-6.63578
▁claim	-6.63795
▁said	-6.64663
▁this	-6.65925
▁unit	-6.66104
▁5	-6.6675
▁10	-6.67289
▁embodiments	-6.69536
▁surface	-6.70603
▁user	-6.70689
▁)	-6.70771
▁according	-6.7168
▁has	-6.75181
▁control	-6.75329
▁“	-6.77194
▁was	-6.77316
▁it	-6.78944
H	-6.79014
▁6	-6.81734
▁image	-6.84611
▁include	-6.84847
▁described	-6.85123
A	-6.85506
▁shown	-6.85679
▁when	-6.85887
▁into	-6.87725
▁includes	-6.89236
▁also	-6.89316
▁time	-6.89703
▁having	-6.91549
▁than	-6.92434
C	-6.94009
▁using	-6.96302
”	-6.96567
▁about	-6.96735
▁through	-6.97245
(	-6.97336
▁light	-7.01326
▁further	-7.02643
).	-7.04948
▁end	-7.05442
▁For	-7.07121
▁R	-7.07225
▁comprising	-7.07659
▁any	-7.07726
▁material	-7.07748
▁12	-7.09472
▁above	-7.12204
▁will	-7.12606
▁some	-7.13126
▁7	-7.1321
▁two	-7.13504
▁have	-7.13935
▁plurality	-7.14836
▁process	-7.15721
▁S	-7.16077
▁value	-7.17071
▁side	-7.17107
▁provided	-7.17251
▁formed	-7.18493
S	-7.18619
▁8	-7.18874
▁B	-7.18954
▁apparatus	-7.19188
▁As	-7.20114
ing	-7.20842
▁group	-7.21229
▁20	-7.23032
▁power	-7.23488
▁position	-7.23667
▁step	-7.24115
▁memory	-7.24313
d	-7.24331
▁within	-7.25855
▁set	-7.25992
▁network	-7.26467
▁circuit	-7.26553
▁acid	-7.27901
▁comprises	-7.28371
▁processing	-7.28499
▁display	-7.29434
▁direction	-7.2971
B	-7.30862
▁member	-7.31225
▁number	-7.3127
▁b	-7.32724
▁another	-7.3333
▁configured	-7.34313
▁reference	-7.34429
▁11	-7.3452
▁based	-7.34809
▁-	-7.34989
▁so	-7.35128
m	-7.35958
▁element	-7.36202
▁100	-7.36252
▁being	-7.36852
▁application	-7.38054
▁substrate	-7.38902
▁output	-7.39885
▁input	-7.41104
▁including	-7.4119
_	-7.42039
▁computer	-7.42493
▁14	-7.42889
▁different	-7.42906
2	-7.43823
▁same	-7.43876
▁then	-7.44119
▁herein	-7.44621
▁storage	-7.4468
▁operation	-7.44806
1	-7.44886
▁This	-7.45149
▁part	-7.45713
▁line	-7.45927
▁where	-7.47434
▁structure	-7.47535
▁body	-7.47738
▁view	-7.47995
▁9	-7.49467
▁voltage	-7.49522
▁region	-7.49659
▁communication	-7.50452
▁use	-7.50655
▁H	-7.50967
▁—	-7.50969
▁cell	-7.51693
▁form	-7.51974
▁N	-7.52264
▁connected	-7.5248
ed	-7.53912
▁current	-7.54109
▁temperature	-7.54358
▁selected	-7.54535
a	-7.55035
▁non	-7.56226
▁high	-7.5649
▁corresponding	-7.57145
▁devices	-7.5733
▁module	-7.5736
▁source	-7.5742
▁16	-7.57773
▁means	-7.57812
▁if	-7.57836
▁area	-7.5969
▁block	-7.59892
▁electrode	-7.60124
▁been	-7.60235
▁case	-7.61832
▁associated	-7.63022
▁section	-7.63247
▁30	-7.63654
▁but	-7.64497
▁state	-7.65104
▁preferably	-7.65901
▁flow	-7.66003
▁over	-7.66073
▁provide	-7.66173
▁optical	-7.66943
▁FIGS	-7.67062
▁were	-7.67099
▁all	-7.67377
▁13	-7.67397
&#39;	-7.67656
▁film	-7.67719
▁base	-7.6851
▁component	-7.68584
▁15	-7.68662
▁e	-7.69866
▁0	-7.70357
▁various	-7.70374
▁sensor	-7.70385
▁pressure	-7.7067
▁lower	-7.71059
▁via	-7.71938
▁particular	-7.72167
i	-7.72534
▁P	-7.72594
O	-7.7307
▁assembly	-7.74798
▁terminal	-7.7482
▁amount	-7.74934
▁thereof	-7.75331
▁D	-7.7566
▁interface	-7.75814
▁third	-7.76299
▁cells	-7.76633
▁type	-7.76802
R	-7.77332
▁T	-7.77624
▁its	-7.7808
▁It	-7.79703
D	-7.80368
▁22	-7.8146
▁content	-7.8225
▁only	-7.82425
▁water	-7.82527
▁contact	-7.82594
▁elements	-7.826
▁sequence	-7.82721
▁channel	-7.83268
▁18	-7.83873
▁frame	-7.84369
▁plate	-7.84731
▁server	-7.84975
▁M	-7.85221
N	-7.85798
▁L	-7.85848
▁semiconductor	-7.862
▁components	-7.86439
▁order	-7.86537
▁like	-7.86594
▁after	-7.86684
▁during	-7.86813
▁c	-7.876
▁liquid	-7.87614
▁compound	-7.87857
▁level	-7.87915
▁ID	-7.88014
▁metal	-7.88138
▁access	-7.88146
]	-7.88661
▁these	-7.88984
▁object	-7.89095
▁transmission	-7.89609
▁range	-7.89775
▁g	-7.90064
▁point	-7.90445
▁U	-7.91465
▁performed	-7.91837
▁50	-7.92514
▁following	-7.92714
▁support	-7.92802
▁made	-7.93081
▁illustrated	-7.94407
▁composition	-7.9493
▁solution	-7.95158
▁No	-7.95312
▁frequency	-7.95609
▁J	-7.95652
▁out	-7.95892
▁processor	-7.96173
▁controller	-7.96526
▁less	-7.96572
▁configuration	-7.96798
▁110	-7.96932
▁n	-7.97092
▁vehicle	-7.9718
▁upper	-7.97188
▁accordance	-7.97282
▁shows	-7.97667
▁both	-7.97756
▁target	-7.97774
yl	-7.97925
▁signals	-7.98119
▁received	-7.98424
▁gas	-7.98826
▁function	-7.9904
▁I	-7.99055
▁24	-7.99131
▁art	-7.99207
▁connection	-7.99886
▁fluid	-7.99922
▁addition	-8.00445
3	-8.00752
▁Example	-8.00945
▁).	-8.0188
▁low	-8.01978
▁along	-8.02106
▁V	-8.02703
▁field	-8.02769
b	-8.02862
▁coupled	-8.02979
▁determined	-8.03349
▁receiving	-8.03395
▁single	-8.03646
▁weight	-8.03685
▁obtained	-8.03739
ly	-8.03839
▁m	-8.03858
▁stored	-8.03874
▁location	-8.03978
▁medium	-8.03979
▁there	-8.04432
▁specific	-8.04513
▁without	-8.04882
▁mode	-8.05252
▁40	-8.05362
▁i	-8.05668
▁air	-8.05701
▁limited	-8.05753
▁When	-8.0624
▁well	-8.06728
▁21	-8.07069
▁while	-8.07381
▁response	-8.0773
in	-8.07906
▁result	-8.08054
▁heat	-8.08129
M	-8.08224
▁exemplary	-8.08998
▁An	-8.091
▁program	-8.09135
▁applied	-8.09271
▁d	-8.09415
▁outer	-8.09561
▁diagram	-8.0985
▁methods	-8.1034
▁forming	-8.10371
▁F	-8.10909
▁below	-8.11152
▁If	-8.11183
▁predetermined	-8.1126
▁possible	-8.11606
▁102	-8.11999
▁disposed	-8.12089
▁disclosure	-8.12154
▁200	-8.12542
▁mobile	-8.12702
▁electronic	-8.1321
▁those	-8.13559
4	-8.13779
▁housing	-8.14303
▁provides	-8.1457
▁gate	-8.15642
▁17	-8.15926
▁under	-8.16041
▁X	-8.16677
▁top	-8.16972
▁μ	-8.17025
▁known	-8.17181
c	-8.17228
t	-8.17442
▁media	-8.17817
▁O	-8.18458
▁120	-8.18682
▁rate	-8.18849
▁no	-8.18953
▁service	-8.19258
▁cross	-8.1932
▁length	-8.19412
▁phase	-8.19696
▁product	-8.19834
▁preferred	-8.19874
▁values	-8.19998
▁portions	-8.20094
▁size	-8.20161
▁wall	-8.2034
▁p	-8.20389
▁substantially	-8.20616
▁reaction	-8.20657
▁axis	-8.20793
▁comprise	-8.21393
n	-8.21609
▁detection	-8.21935
▁message	-8.2196
▁NO	-8.22353
▁defined	-8.22417
▁suitable	-8.22682
▁multiple	-8.23194
▁magnetic	-8.23461
▁three	-8.23611
▁G	-8.23768
▁chamber	-8.24403
▁relative	-8.24453
▁32	-8.24529
▁code	-8.24684
▁generated	-8.24843
▁wireless	-8.24931
▁inner	-8.2506
▁drive	-8.25085
▁whether	-8.25144
▁E	-8.26469
▁request	-8.26794
▁pattern	-8.26899
—	-8.27656
▁added	-8.27662
▁opening	-8.28018
▁OF	-8.28023
▁systems	-8.28121
▁main	-8.28648
▁filter	-8.28662
▁valve	-8.28675
▁respective	-8.28691
▁etc	-8.28736
▁combination	-8.2889
▁mixture	-8.29106
E	-8.29232
▁front	-8.29356
▁agent	-8.29423
▁desired	-8.29527
▁node	-8.29615
er	-8.30005
▁arranged	-8.30132
▁illustrates	-8.30219
▁Thus	-8.30315
▁supply	-8.30435
▁sub	-8.30517
▁amino	-8.30627
▁path	-8.30898
▁conductive	-8.30934
▁26	-8.3096
▁determine	-8.30996
r	-8.31054
▁+	-8.31627
▁aspect	-8.31676
▁active	-8.31761
l	-8.31765
▁However	-8.31791
▁their	-8.31957
▁should	-8.32247
▁electrical	-8.32772
▁respectively	-8.33414
▁containing	-8.33964
▁shape	-8.34038
▁switch	-8.34208
▁up	-8.34241
▁25	-8.34428
▁video	-8.34646
▁manner	-8.34898
▁et	-8.35069
▁edge	-8.35412
▁period	-8.35455
▁al	-8.35526
▁mg	-8.3577
▁change	-8.35825
▁panel	-8.36106
▁certain	-8.36304
▁computing	-8.37083
▁generally	-8.37208
L	-8.37316
▁sample	-8.37482
▁greater	-8.37489
▁transfer	-8.37783
▁104	-8.38
▁head	-8.38006
P	-8.38239
▁60	-8.3877
▁resin	-8.39098
▁pixel	-8.39145
▁similar	-8.3918
▁digital	-8.39874
F	-8.39885
▁t	-8.40103
y	-8.40257
▁test	-8.40449
▁determining	-8.4047
▁engine	-8.40478
▁located	-8.40563
▁mechanism	-8.40603
▁receive	-8.40677
▁distance	-8.40763
▁=	-8.40801
▁energy	-8.40823
▁THE	-8.4099
▁treatment	-8.41102
▁respect	-8.41305
▁23	-8.42045
▁beam	-8.42304
▁operating	-8.42445
▁providing	-8.42488
▁oxide	-8.42525
▁sheet	-8.42538
▁additional	-8.42942
▁protein	-8.43072
▁thus	-8.432
▁space	-8.43449
▁19	-8.43452
▁software	-8.43568
▁alkyl	-8.43617
▁bottom	-8.44042
▁Further	-8.44216
▁lines	-8.44372
I	-8.44607
▁table	-8.44629
▁motor	-8.44886
▁description	-8.44913
▁transistor	-8.45283
▁layers	-8.45576
▁way	-8.45583
▁polymer	-8.45864
▁angle	-8.46193
▁external	-8.46922
▁back	-8.47252
▁28	-8.47642
methyl	-8.47763
▁),	-8.48005
▁thickness	-8.48175
▁cover	-8.48195
▁machine	-8.48324
▁examples	-8.48398
▁carbon	-8.48782
▁ring	-8.48976
▁thereby	-8.48993
▁ratio	-8.49147
▁According	-8.4938
▁shaft	-8.49759
▁re	-8.50006
▁instructions	-8.50364
▁steps	-8.50415
▁speed	-8.50657
▁port	-8.50769
▁array	-8.50905
▁showing	-8.50934
▁materials	-8.51108
▁results	-8.51116
▁300	-8.51188
▁address	-8.51541
▁attached	-8.51858
▁threshold	-8.5198
▁does	-8.52067
▁groups	-8.52148
▁features	-8.52201
gt	-8.52393
CH	-8.52514
▁[	-8.52768
▁K	-8.52833
6	-8.52915
▁At	-8.52954
▁substituted	-8.53218
▁force	-8.53318
▁lens	-8.53374
▁s	-8.5351
▁screen	-8.53587
-1	-8.54223
▁upon	-8.54603
▁conditions	-8.54631
▁disclosed	-8.54704
▁	-8.54761
▁compounds	-8.54981
lt	-8.54998
▁battery	-8.55219
T	-8.55464
▁client	-8.5553
▁Hz	-8.55786
▁subject	-8.56034
▁carrier	-8.56082
+	-8.56086
▁&	-8.5617
▁higher	-8.56424
▁available	-8.5651
▁either	-8.56814
▁W	-8.56999
▁would	-8.5772
G	-8.5791
▁SEQ	-8.58307
▁color	-8.58327
▁organic	-8.58383
▁130	-8.58918
▁given	-8.58933
▁adjacent	-8.5907
5	-8.59169
▁file	-8.59262
▁illustrating	-8.59726
▁station	-8.59961
▁31	-8.60045
▁perform	-8.60295
▁tube	-8.60375
▁required	-8.60638
▁patient	-8.60962
▁42	-8.60993
▁center	-8.61252
V	-8.61326
▁internal	-8.61346
▁management	-8.61472
▁volume	-8.61617
▁34	-8.61709
▁solid	-8.62273
▁bit	-8.62475
p	-8.62583
x	-8.63204
▁(1	-8.63546
▁transmitted	-8.63668
▁guide	-8.63769
▁key	-8.63844
▁included	-8.63969
▁positioned	-8.64
▁new	-8.64029
▁event	-8.64061
▁container	-8.64064
▁fuel	-8.64076
▁measurement	-8.64377
▁read	-8.64726
▁coating	-8.6481
▁reduced	-8.6501
▁106	-8.65348
▁fixed	-8.65593
▁driving	-8.65653
▁laser	-8.65904
▁Y	-8.6618
▁112	-8.66357
▁x	-8.66379
▁physical	-8.66385
▁diameter	-8.66796
al	-8.67101
▁To	-8.6757
▁pre	-8.67572
▁activity	-8.67631
▁condition	-8.67689
▁generate	-8.67741
▁equal	-8.67905
based	-8.68023
▁database	-8.68534
▁particles	-8.68542
▁silicon	-8.6865
▁parts	-8.68669
▁measured	-8.68684
▁per	-8.6871
▁These	-8.68794
▁core	-8.68888
▁even	-8.69052
▁optionally	-8.69168
);	-8.69221
▁movement	-8.69246
-2-	-8.69269
▁units	-8.6956
▁pair	-8.69659
▁mm	-8.69701
▁small	-8.6971
▁insulating	-8.69733
▁host	-8.70237
▁electric	-8.70266
▁detected	-8.70298
▁36	-8.70649
▁virtual	-8.70835
▁resistance	-8.70902
▁packet	-8.71056
▁f	-8.71312
▁operations	-8.7146
▁particularly	-8.71487
▁width	-8.71634
to	-8.71888
▁total	-8.72094
▁mounted	-8.72313
▁effect	-8.7239
▁load	-8.72797
▁scope	-8.72943
▁parallel	-8.7307
▁tool	-8.73312
▁Therefore	-8.73972
▁before	-8.74037
▁they	-8.74277
▁face	-8.74293
▁recording	-8.74488
▁applications	-8.74526
▁prior	-8.74544
▁due	-8.74738
▁could	-8.74996
▁crystal	-8.75047
▁rotation	-8.75063
▁general	-8.7538
▁images	-8.75401
▁model	-8.75414
▁types	-8.7547
&	-8.75498
▁mL	-8.7565
▁tissue	-8.75735
▁large	-8.75794
▁together	-8.76126
▁capable	-8.76336
▁generating	-8.76401
▁analysis	-8.76601
▁incorporated	-8.76792
▁210	-8.77019
▁audio	-8.77241
▁nm	-8.77317
▁Each	-8.77348
▁extending	-8.77395
▁claims	-8.77439
▁formula	-8.77487
▁regions	-8.77521
▁multi	-8.77595
▁fourth	-8.77671
▁parameters	-8.77677
▁term	-8.7792
▁mmol	-8.77944
▁DESCRIPTION	-8.78399
▁oil	-8.78432
▁individual	-8.78476
▁fiber	-8.78543
▁increase	-8.78717
▁left	-8.7874
X	-8.78833
▁understood	-8.7904
▁implemented	-8.79252
▁70	-8.79282
type	-8.79295
▁150	-8.79535
able	-8.79723
▁typically	-8.79749
▁allow	-8.80185
▁central	-8.802
▁concentration	-8.80239
▁DNA	-8.8026
▁conventional	-8.80833
=	-8.80876
▁electrodes	-8.80902
▁hydrogen	-8.8093
▁human	-8.81133
▁command	-8.81283
▁pump	-8.81284
▁buffer	-8.81413
▁radio	-8.81529
▁right	-8.81686
▁difference	-8.81708
▁mass	-8.81728
▁clock	-8.81769
▁functions	-8.81943
▁performance	-8.81989
▁stream	-8.82012
▁Accordingly	-8.82184
▁displayed	-8.82335
▁link	-8.82382
▁Such	-8.82797
▁referred	-8.82828
▁hole	-8.82928
▁108	-8.82957
▁k	-8.83194
▁primary	-8.83232
▁integrated	-8.8338
▁expression	-8.83509
f	-8.83765
▁related	-8.84038
▁After	-8.84169
▁;	-8.84268
▁consisting	-8.84474
▁characteristics	-8.84503
▁antenna	-8.84564
▁removed	-8.84666
▁need	-8.84754
▁52	-8.84831
▁open	-8.84979
▁plane	-8.85031
▁electrically	-8.85377
▁vertical	-8.85462
▁coupling	-8.85615
▁members	-8.85763
▁common	-8.85909
▁rear	-8.86143
▁detecting	-8.86418
not	-8.86683
▁101	-8.86688
▁because	-8.86807
▁logic	-8.8697
▁44	-8.87098
▁times	-8.87204
▁27	-8.87278
▁schematic	-8.87711
▁connector	-8.87817
▁intended	-8.88075
▁selection	-8.88193
▁most	-8.88234
▁secondary	-8.88234
▁35	-8.88315
▁anti	-8.88392
▁local	-8.88557
▁directly	-8.88587
▁detail	-8.88703
▁400	-8.88974
▁changes	-8.89104
▁nucleic	-8.89174
K	-8.89276
▁receiver	-8.89437
▁surfaces	-8.89744
▁140	-8.89766
▁arrangement	-8.90191
▁environment	-8.90246
▁four	-8.90384
▁placed	-8.90431
▁produced	-8.90443
7	-8.90696
▁Examples	-8.90824
▁arm	-8.90861
▁Referring	-8.9104
▁touch	-8.91086
▁list	-8.91122
▁off	-8.9165
▁transmitting	-8.91799
▁prepared	-8.92061
▁resulting	-8.92526
▁appropriate	-8.92657
▁heating	-8.92747
▁points	-8.92802
8	-8.92842
▁maximum	-8.92976
ic	-8.93036
▁202	-8.93154
▁33	-8.93166
▁relates	-8.93224
▁column	-8.93332
phenyl	-8.93348
▁store	-8.93381
▁around	-8.93395
▁stage	-8.93786
▁processes	-8.94074
▁spring	-8.9415
▁Pat	-8.94206
▁500	-8.94244
▁web	-8.943
▁motion	-8.94402
▁chain	-8.94422
▁gene	-8.94485
▁against	-8.94556
▁INVENTION	-8.94599
▁standard	-8.94601
▁allows	-8.94845
es	-8.94971
▁drawings	-8.95001
▁hand	-8.95206
▁setting	-8.95315
▁communications	-8.95322
▁connecting	-8.95393
on	-8.954
▁dielectric	-8.95576
▁profile	-8.9558
▁camera	-8.95583
▁41	-8.95613
▁average	-8.95661
▁structures	-8.95785
▁board	-8.95953
▁switching	-8.96091
▁38	-8.96099
▁hardware	-8.96107
▁intermediate	-8.96159
▁Z	-8.96206
▁claimed	-8.96347
▁forms	-8.96418
▁indicated	-8.96555
▁transmit	-8.96645
▁aspects	-8.96706
▁h	-8.96723
▁increased	-8.96741
▁mounting	-8.96913
▁feature	-8.96915
▁driver	-8.97025
▁onto	-8.97158
▁114	-8.9721
▁error	-8.97256
▁80	-8.97302
▁disk	-8.97481
▁performing	-8.97536
▁receives	-8.97717
▁imaging	-8.97803
▁antibody	-8.97818
▁identified	-8.97877
▁glass	-8.97925
▁%	-8.98278
▁acids	-8.98667
▁thermal	-8.98826
▁gear	-8.98852
▁ink	-8.98983
▁matrix	-8.99026
▁since	-8.99203
▁vector	-8.99216
▁card	-8.99221
▁opposite	-8.99236
▁therefore	-8.99263
▁determination	-8.99286
▁distribution	-8.99323
▁instance	-8.99404
z	-8.99424
▁techniques	-8.99469
▁wire	-8.99618
▁Alternatively	-8.99755
▁Furthermore	-8.9998
▁modified	-9.00103
▁cause	-9.00145
▁skilled	-9.00257
▁binding	-9.0037
▁many	-9.00504
the	-9.00638
▁poly	-9.00645
▁solvent	-9.01009
▁un	-9.01022
▁moving	-9.01061
▁pulse	-9.01098
▁long	-9.01291
▁inside	-9.01684
▁compared	-9.01717
▁approximately	-9.0177
▁now	-9.01794
▁sequences	-9.01869
▁′	-9.01926
▁formation	-9.01945
▁agents	-9.02349
▁chip	-9.02466
▁charge	-9.02835
▁represents	-9.0284
▁determines	-9.03111
▁One	-9.03391
▁By	-9.03612
v	-9.03828
▁page	-9.03861
▁controlled	-9.04123
▁index	-9.04407
▁perspective	-9.04499
▁distal	-9.04553
▁segment	-9.04628
▁produce	-9.04909
▁potential	-9.04929
▁carried	-9.05016
o	-9.05241
▁found	-9.0596
▁presence	-9.05977
▁variable	-9.06005
9	-9.06212
▁parameter	-9.06356
▁conversion	-9.06657
▁effective	-9.06751
.","	-9.06835
▁Also	-9.07161
▁radiation	-9.07254
▁blocks	-9.07377
▁resource	-9.07551
▁remote	-9.0756
▁54	-9.07584
▁otherwise	-9.07635
▁Q	-9.07644
0	-9.07718
▁objects	-9.07767
▁polypeptide	-9.07935
▁design	-9.07985
▁search	-9.08082
▁detector	-9.08087
w	-9.08204
▁separate	-9.08222
▁specifically	-9.08266
▁discussed	-9.08358
▁calculated	-9.08386
▁properties	-9.08473
U	-9.08558
▁obtain	-9.08807
▁manufacturing	-9.08817
▁document	-9.09013
▁flexible	-9.09265
▁220	-9.09278
▁roller	-9.09287
▁site	-9.09288
▁necessary	-9.09308
▁46	-9.09443
▁hours	-9.0978
▁outside	-9.09974
▁48	-9.10153
▁reduce	-9.10199
▁still	-9.10479
▁122	-9.10515
▁game	-9.10519
▁coil	-9.10523
▁UE	-9.10659
▁cable	-9.10736
▁positive	-9.10839
▁window	-9.1093
▁equipment	-9.11014
▁monitoring	-9.11081
▁terms	-9.11158
▁Table	-9.11191
▁identifier	-9.11243
▁procedure	-9.11292
▁CH	-9.11372
▁cooling	-9.11375
▁ends	-9.1155
▁taken	-9.11672
▁users	-9.11841
▁filed	-9.11955
▁positions	-9.11973
▁contains	-9.1198
▁domain	-9.12011
▁thin	-9.12129
)-	-9.12179
▁among	-9.12385
▁atoms	-9.124
▁bus	-9.12501
▁90	-9.12535
-3-	-9.1266
▁adapted	-9.12667
▁ground	-9.12744
▁−	-9.12909
▁executed	-9.12983
▁62	-9.13104
side	-9.13142
▁Ser	-9.1317
▁longitudinal	-9.13358
▁29	-9.13534
▁horizontal	-9.13565
▁sensors	-9.13796
▁combined	-9.1395
▁free	-9.14196
▁indicating	-9.14348
▁generator	-9.14507
▁generation	-9.14568
▁extends	-9.14582
-2	-9.14614
▁band	-9.14723
▁inserted	-9.14764
▁select	-9.14828
▁production	-9.14949
▁smaller	-9.15
▁indicates	-9.15005
▁levels	-9.15028
▁larger	-9.15054
▁relatively	-9.15065
▁item	-9.15315
▁blood	-9.1556
sectional	-9.15566
▁down	-9.15661
▁encoding	-9.15718
-4-	-9.15776
▁specified	-9.15842
▁105	-9.15855
▁limit	-9.15875
▁controlling	-9.15929
▁variety	-9.16032
▁work	-9.1609
▁supplied	-9.16797
▁With	-9.16867
▁channels	-9.16898
h	-9.16981
▁sodium	-9.1705
▁until	-9.17099
up	-9.17109
▁independently	-9.17128
▁toward	-9.17214
▁represented	-9.17277
▁previously	-9.17296
▁initial	-9.17351
▁series	-9.17382
▁0.5	-9.17387
▁alternative	-9.17489
▁0.1	-9.17551
▁linear	-9.17556
▁catalyst	-9.17644
▁however	-9.17693
▁204	-9.1772
▁do	-9.17753
▁circuitry	-9.17769
▁pixels	-9.17914
k	-9.17927
▁Step	-9.1813
▁compositions	-9.18208
▁negative	-9.18337
▁release	-9.18509
▁y	-9.1871
▁timing	-9.18766
shaped	-9.18859
▁de	-9.18928
▁116	-9.18974
one	-9.18984
▁closed	-9.19289
▁contain	-9.1935
▁sensing	-9.19418
▁constant	-9.19476
▁minutes	-9.19495
▁Then	-9.19668
▁delay	-9.19813
W	-9.20014
▁wavelength	-9.2012
▁prevent	-9.20123
▁refers	-9.20307
▁next	-9.20501
▁pin	-9.20509
▁delivery	-9.20648
▁inlet	-9.2102
▁several	-9.21086
▁ml	-9.21102
▁normal	-9.21238
▁noted	-9.2128
▁particle	-9.21306
▁quality	-9.21441
▁injection	-9.21694
▁seal	-9.21734
▁storing	-9.21861
▁discharge	-9.21861
▁actuator	-9.21899
′	-9.21906
▁probe	-9.22093
[	-9.22101
▁capacitor	-9.22511
-1-	-9.22583
▁partially	-9.22921
▁direct	-9.22968
ation	-9.22971
▁place	-9.23266
▁cavity	-9.23306
▁Patent	-9.23473
▁instruction	-9.23511
▁make	-9.23524
▁employed	-9.2353
▁lead	-9.23549
and	-9.23604
▁64	-9.23618
▁identification	-9.2375
▁bits	-9.23851
▁products	-9.2391
▁feed	-9.23979
▁noise	-9.23985
▁characteristic	-9.24011
▁measuring	-9.24062
▁45	-9.24246
▁310	-9.24266
▁entire	-9.24336
see	-9.24403
▁aqueous	-9.24501
▁forth	-9.24762
▁room	-9.24805
▁chemical	-9.254
▁RF	-9.25418
▁cycle	-9.25519
▁51	-9.25654
▁plant	-9.25761
▁short	-9.25851
amino	-9.25908
▁functional	-9.25931
▁move	-9.26334
▁plasma	-9.26484
Y	-9.26615
▁modules	-9.26749
▁very	-9.26939
▁words	-9.26952
ED	-9.27053
▁printing	-9.27129
▁cylinder	-9.27139
▁print	-9.27184
▁density	-9.27285
▁nozzle	-9.27392
at	-9.27547
▁peripheral	-9.27597
▁Moreover	-9.27619
▁status	-9.27714
▁wheel	-9.27822
▁protocol	-9.27865
▁drain	-9.27882
▁enable	-9.27883
▁height	-9.27886
▁Other	-9.2789
▁#	-9.2794
▁corresponds	-9.27982
▁wafer	-9.28095
th	-9.28387
▁seat	-9.28447
▁wt	-9.2863
▁wave	-9.2876
▁micro	-9.28775
▁emitting	-9.29011
▁adhesive	-9.29018
▁action	-9.29049
▁That	-9.29147
▁(2	-9.29248
▁groove	-9.29467
▁loop	-9.29721
▁strength	-9.29755
▁paper	-9.30103
▁call	-9.30195
▁outlet	-9.30399
▁start	-9.30673
▁103	-9.30683
for	-9.30843
▁r	-9.30962
▁useful	-9.31107
▁di	-9.31114
▁56	-9.31229
▁ion	-9.31252
▁passage	-9.31277
▁salt	-9.31328
▁membrane	-9.31374
▁cases	-9.31446
▁word	-9.31609
▁becomes	-9.31764
▁vacuum	-9.31784
▁factor	-9.31832
▁complex	-9.31927
▁across	-9.31941
▁Application	-9.31952
▁scanning	-9.32095
▁identify	-9.32158
▁real	-9.32209
▁format	-9.32287
▁sent	-9.32458
▁intensity	-9.32497
▁pipe	-9.32508
▁transport	-9.32514
▁depending	-9.3257
▁mask	-9.32696
▁areas	-9.32874
▁rod	-9.32959
▁disease	-9.32978
▁On	-9.33096
▁medical	-9.33324
▁row	-9.33563
▁sound	-9.33593
▁improved	-9.33687
▁near	-9.33886
▁show	-9.3398
▁cancer	-9.34238
step	-9.34273
▁degree	-9.34373
▁basis	-9.34456
▁growth	-9.3456
▁indicate	-9.34574
▁pH	-9.34604
▁72	-9.34634
▁must	-9.3467
▁execution	-9.34728
butyl	-9.34816
▁oxygen	-9.34919
▁extend	-9.35178
▁locking	-9.35302
▁name	-9.35363
an	-9.35431
▁security	-9.35489
▁handle	-9.35508
▁designed	-9.35603
▁counter	-9.35695
▁CPU	-9.35769
▁orientation	-9.35812
▁terminals	-9.3588
▁detailed	-9.35911
▁platform	-9.36066
FIG	-9.36142
▁package	-9.36269
dimensional	-9.36503
▁CD	-9.36645
▁correction	-9.36715
▁methyl	-9.36778
▁purpose	-9.36822
▁sets	-9.36899
▁therein	-9.36934
▁nodes	-9.36938
▁cost	-9.37185
▁vessel	-9.37259
▁combinations	-9.37397
▁authentication	-9.37453
▁zone	-9.37485
▁write	-9.37539
▁modifications	-9.37732
▁able	-9.37772
▁sufficient	-9.37918
▁Although	-9.37925
▁utilized	-9.37979
▁302	-9.38006
▁peptide	-9.3812
▁detect	-9.38129
▁Preferably	-9.38335
▁slot	-9.38478
▁HS	-9.38514
▁context	-9.3857
▁button	-9.38725
▁interior	-9.38778
▁entity	-9.38812
▁die	-9.38859
▁attachment	-9.38927
▁holes	-9.38987
▁rotating	-9.3907
▁37	-9.39205
▁contained	-9.39237
▁piece	-9.39321
▁2-	-9.39334
▁reduction	-9.39426
▁molecular	-9.39445
▁powder	-9.39482
▁160	-9.39729
▁124	-9.39854
▁cap	-9.39868
▁mechanical	-9.39899
▁min	-9.40087
▁applying	-9.40235
▁supporting	-9.40236
▁holding	-9.40275
▁pad	-9.4048
▁sections	-9.40508
▁implementation	-9.40512
▁molecule	-9.40543
▁gap	-9.40741
▁transparent	-9.40812
▁uses	-9.40916
▁exposed	-9.41036
▁43	-9.41154
▁identifying	-9.41336
▁61	-9.41396
as	-9.41416
▁Next	-9.41526
▁inter	-9.41536
▁samples	-9.41666
▁/	-9.41684
▁bar	-9.41737
▁person	-9.4182
▁forward	-9.4186
▁conductor	-9.41893
▁services	-9.41903
▁occur	-9.42229
▁sides	-9.4225
▁resources	-9.42284
▁Additionally	-9.42297
▁cutting	-9.42357
”,	-9.42371
▁sealing	-9.42404
▁patent	-9.42476
▁alignment	-9.42581
▁While	-9.42653
▁mirror	-9.42729
▁proteins	-9.42737
▁230	-9.42819
▁items	-9.42846
▁depicted	-9.4292
▁easily	-9.42937
▁circuits	-9.42949
▁relationship	-9.43014
▁automatically	-9.43172
▁interest	-9.4344
▁changed	-9.43514
▁traffic	-9.43584
10	-9.43616
▁feedback	-9.43626
▁separated	-9.43761
▁making	-9.43765
▁atom	-9.43791
▁BRIEF	-9.44377
▁movable	-9.4458
▁cylindrical	-9.44727
▁illustrative	-9.44836
▁outputs	-9.44893
▁scan	-9.44961
▁turn	-9.45155
▁250	-9.45232
▁amplifier	-9.45304
▁flowchart	-9.45309
▁generates	-9.45385
▁bearing	-9.45436
▁efficiency	-9.4556
▁text	-9.45669
▁composite	-9.45675
▁performs	-9.45912
▁pass	-9.46008
▁full	-9.46088
▁reducing	-9.46124
▁212	-9.46349
▁58	-9.46354
,”	-9.46413
▁comparison	-9.46554
▁acceptable	-9.46646
▁plug	-9.46668
▁selecting	-9.46732
▁post	-9.46812
▁positioning	-9.46974
▁increases	-9.47301
▁mixed	-9.47418
▁molecules	-9.47475
▁appreciated	-9.47483
−	-9.47538
▁become	-9.47568
SEQ	-9.47613
▁player	-9.47654
▁contents	-9.47668
▁transmitter	-9.47805
▁axial	-9.47901
▁tank	-9.47918
Z	-9.48011
▁transition	-9.48113
▁[0	-9.48118
▁rotor	-9.48159
▁stack	-9.48271
▁600	-9.48273
▁toner	-9.48329
."	-9.48369
▁minimum	-9.48377
▁torque	-9.48391
▁customer	-9.48553
▁apparent	-9.48625
▁seen	-9.4874
▁gain	-9.48754
▁derived	-9.48794
▁More	-9.48853
▁partial	-9.4894
▁specification	-9.4895
▁111	-9.49004
▁operator	-9.49031
▁stop	-9.49053
▁yet	-9.49121
▁cut	-9.49177
▁directed	-9.4922
▁co	-9.49265
▁MHz	-9.49275
▁controls	-9.49292
▁achieved	-9.49297
▁account	-9.49331
▁register	-9.49345
▁ethyl	-9.49375
▁reading	-9.49434
▁track	-9.49591
▁proximal	-9.49689
▁technique	-9.49729
▁transaction	-9.49792
▁processed	-9.50034
▁monitor	-9.50089
▁purposes	-9.50096
▁treated	-9.50122
▁adjustment	-9.50213
di	-9.50296
-3	-9.50312
▁subsequent	-9.50482
▁exposure	-9.50537
▁causes	-9.50608
▁118	-9.5061
▁shift	-9.50638
▁increasing	-9.50672
▁206	-9.50712
▁degrees	-9.50825
alkyl	-9.50861
▁create	-9.50923
▁original	-9.50923
▁converter	-9.50958
▁Embodiment	-9.51397
▁tag	-9.51401
▁j	-9.51411
▁map	-9.51455
▁technology	-9.51678
▁moved	-9.51709
▁portable	-9.51716
▁continuous	-9.51758
▁close	-9.51816
▁flat	-9.51861
▁nitrogen	-9.51955
containing	-9.52037
▁w	-9.52136
▁distributed	-9.52155
▁depth	-9.52283
▁compression	-9.52308
▁mold	-9.52453
▁illustrate	-9.52492
ity	-9.52556
▁pharmaceutical	-9.52744
▁antibodies	-9.52794
▁lock	-9.52873
readable	-9.52879
▁implementations	-9.529
▁update	-9.52969
▁tip	-9.52983
▁extracted	-9.52984
▁session	-9.53117
▁locations	-9.5316
▁aperture	-9.53179
▁LED	-9.53283
▁132	-9.53304
▁collection	-9.53446
▁electromagnetic	-9.53565
▁dried	-9.53569
▁screw	-9.53677
▁contacts	-9.53686
▁(1)	-9.53707
▁:	-9.53853
▁skill	-9.53856
▁door	-9.5397
▁66	-9.54077
▁presented	-9.54123
▁communicate	-9.5414
ethyl	-9.54157
▁projection	-9.54167
▁algorithm	-9.54332
time	-9.54337
▁half	-9.54384
▁sleeve	-9.544
▁wiring	-9.54408
▁actual	-9.54449
▁occurs	-9.54622
▁piston	-9.54755
▁sources	-9.54794
▁administration	-9.54803
▁IP	-9.54807
▁considered	-9.55043
▁priority	-9.55054
▁TABLE	-9.5511
▁adjusted	-9.55112
▁tubular	-9.55129
▁voice	-9.55156
▁destination	-9.55177
▁created	-9.55312
▁disc	-9.5541
▁interval	-9.55415
▁extension	-9.55425
▁double	-9.55494
▁problem	-9.55552
re	-9.55566
▁box	-9.5563
▁separation	-9.55662
▁lateral	-9.55733
▁away	-9.55794
▁plates	-9.5581
▁random	-9.55851
▁deposition	-9.55912
ally	-9.55918
emitting	-9.55972
en	-9.56059
▁Since	-9.56156
ion	-9.56213
▁producing	-9.56243
▁55	-9.56277
▁hard	-9.56288
▁assigned	-9.56386
▁thereto	-9.56448
▁cartridge	-9.56592
▁(3	-9.56595
▁analog	-9.56606
▁zero	-9.5668
,"	-9.56811
▁aryl	-9.56876
▁complete	-9.56877
▁DRAWINGS	-9.56882
▁entry	-9.56991
▁readable	-9.57099
▁wide	-9.57344
▁graph	-9.57521
▁115	-9.57635
▁plastic	-9.57849
▁240	-9.57879
▁indicator	-9.57889
such	-9.57977
▁supported	-9.57997
▁return	-9.58291
▁allowing	-9.58327
▁acetate	-9.58341
▁heated	-9.5859
▁SUMMARY	-9.58609
▁take	-9.58681
▁record	-9.58716
▁stirred	-9.58868
▁effects	-9.58903
▁printed	-9.58905
▁stores	-9.58932
▁packets	-9.58933
▁capacity	-9.59003
▁segments	-9.59051
▁operate	-9.59059
▁final	-9.59165
▁etching	-9.59185
▁personal	-9.59458
▁mixing	-9.59487
▁304	-9.59607
▁installed	-9.59634
▁correspond	-9.59907
▁fibers	-9.59975
▁Internet	-9.59984
▁follows	-9.59995
▁blade	-9.60014
▁represent	-9.6023
▁aluminum	-9.60339
▁transferred	-9.60387
▁201	-9.60402
like	-9.60523
▁selectively	-9.60597
▁needle	-9.60645
▁route	-9.60776
▁reception	-9.60811
▁significant	-9.60839
▁tape	-9.61056
u	-9.61203
▁phone	-9.6125
▁sense	-9.61256
▁residue	-9.61289
▁peak	-9.61315
▁engagement	-9.61352
▁chloride	-9.61634
▁caused	-9.61863
out	-9.61942
▁photo	-9.61945
▁advantages	-9.62053
▁insertion	-9.6208
▁gel	-9.62178
▁Another	-9.62345
▁annular	-9.62493
▁variations	-9.62537
▁indication	-9.62602
described	-9.62676
amp	-9.62769
▁structural	-9.63003
▁180	-9.63101
▁logical	-9.6311
▁spaced	-9.63303
▁identical	-9.63347
▁representation	-9.63732
▁Formula	-9.63751
▁followed	-9.63812
▁53	-9.63819
▁DC	-9.6389
▁plan	-9.63901
▁loss	-9.64063
▁patterns	-9.64201
from	-9.64282
▁extended	-9.64347
▁foregoing	-9.64379
▁elastic	-9.64387
▁needed	-9.64397
▁transmits	-9.64567
▁remaining	-9.64664
▁instrument	-9.64697
▁MS	-9.64749
▁cellular	-9.6509
▁holder	-9.65111
▁74	-9.65137
▁how	-9.65171
▁transistors	-9.65303
▁offset	-9.65337
▁observed	-9.65416
▁activated	-9.65491
▁instead	-9.65514
▁candidate	-9.65533
▁39	-9.65717
▁Here	-9.65783
▁barrier	-9.65864
▁messages	-9.65901
▁fixing	-9.65994
▁410	-9.66022
▁RNA	-9.6607
▁resolution	-9.66108
▁edges	-9.66145
▁170	-9.66324
▁driven	-9.66452
▁bone	-9.66507
▁later	-9.66744
×	-9.6676
▁fully	-9.66838
▁]	-9.66947
▁320	-9.66962
▁DETAIL	-9.67138
▁unique	-9.67185
▁functionality	-9.67243
▁self	-9.6729
▁receptor	-9.67377
▁sectional	-9.67413
▁facilitate	-9.67456
▁v	-9.67484
▁accompanying	-9.67489
▁skin	-9.67521
▁glycol	-9.67534
▁cache	-9.67551
▁introduced	-9.67635
▁coding	-9.67665
▁drug	-9.67715
▁protection	-9.6774
ate	-9.67781
▁previous	-9.67868
▁expansion	-9.67929
▁mM	-9.68004
▁coated	-9.68012
▁displaying	-9.68146
▁eye	-9.68149
▁again	-9.68178
▁exhaust	-9.68211
▁recorded	-9.68327
▁matter	-9.68473
▁achieve	-9.68543
▁provider	-9.68583
▁isolated	-9.68647
▁simultaneously	-9.68875
▁magnet	-9.69073
▁nitride	-9.69084
▁mentioned	-9.69097
▁identity	-9.69192
▁perpendicular	-9.6924
▁check	-9.69455
▁illustration	-9.69466
▁flange	-9.69605
▁desirable	-9.6984
▁copper	-9.69843
▁query	-9.69882
▁article	-9.69891
▁often	-9.69895
14	-9.69989
▁define	-9.69994
▁equivalent	-9.7002
▁adjusting	-9.70082
▁recess	-9.70159
▁belt	-9.70214
▁126	-9.70233
▁manager	-9.7028
▁frames	-9.70392
▁administered	-9.70547
▁1.5	-9.70576
▁visual	-9.70708
▁secure	-9.70856
▁insulation	-9.70905
▁starting	-9.71
▁although	-9.71054
▁events	-9.7112
▁ports	-9.71145
▁removal	-9.71307
▁encoded	-9.71323
▁strip	-9.71449
off	-9.71701
▁existing	-9.7181
▁measure	-9.71811
▁send	-9.71812
▁z	-9.71825
▁variation	-9.71873
▁matching	-9.7199
▁(“	-9.72064
▁208	-9.72084
line	-9.72096
▁NMR	-9.72146
▁improve	-9.72262
▁cannot	-9.72311
▁spectrum	-9.72366
▁ball	-9.72415
▁402	-9.72456
▁aligned	-9.72465
▁Note	-9.72595
▁circular	-9.72662
▁moves	-9.72735
▁121	-9.72832
▁charging	-9.72909
ol	-9.72924
▁removing	-9.72928
▁ether	-9.72994
▁BACKGROUND	-9.73034
▁1000	-9.73196
▁printer	-9.7327
▁dry	-9.73419
▁Specifically	-9.73441
▁fifth	-9.73474
▁networks	-9.73517
▁dynamic	-9.73536
-5	-9.73614
▁collected	-9.73639
-7	-9.73713
▁give	-9.73747
▁percent	-9.73753
▁joint	-9.73792
▁There	-9.73811
▁electron	-9.73862
▁overall	-9.73922
▁every	-9.741
▁Similarly	-9.74233
▁itself	-9.74361
▁remove	-9.74485
▁differential	-9.74498
▁mean	-9.74542
▁rotational	-9.74555
”)	-9.74556
▁ester	-9.74596
20	-9.74597
▁ability	-9.7461
▁purified	-9.74619
▁held	-9.74632
Q	-9.74747
▁details	-9.74824
TM	-9.74853
▁title	-9.74874
▁Co	-9.7514
▁header	-9.75221
▁duration	-9.75235
▁activation	-9.75241
▁diode	-9.75269
▁circumferential	-9.75295
▁depicts	-9.75378
▁−1	-9.75452
▁configurations	-9.75532
▁therapeutic	-9.7569
▁calculation	-9.75752
▁(2)	-9.7581
▁oligonucleotide	-9.759
ray	-9.76032
brain	-9.76065
▁run	-9.76191
▁IC	-9.76196
▁bond	-9.76275
▁maintained	-9.76296
▁divided	-9.76314
▁0.2	-9.76323
▁longer	-9.76355
▁task	-9.76381
▁cm	-9.76406
▁causing	-9.76538
▁yield	-9.76559
ized	-9.76668
▁modulation	-9.76685
▁700	-9.76777
▁whereby	-9.76909
▁mapping	-9.76927
▁preferable	-9.76966
▁openings	-9.77358
▁quantity	-9.7738
▁dose	-9.77397
▁CO	-9.77721
J	-9.77776
▁coefficient	-9.77812
▁switches	-9.77899
▁representing	-9.77937
▁constructed	-9.77973
▁defining	-9.78008
▁filtered	-9.78103
▁interaction	-9.78146
▁WO	-9.78175
▁maintain	-9.78189
1,	-9.78292
▁combustion	-9.78304
▁construction	-9.78361
▁measurements	-9.78497
▁once	-9.78582
▁82	-9.7861
▁calculating	-9.78707
▁flash	-9.78812
specific	-9.78866
▁sending	-9.78978
▁deposited	-9.79003
▁reverse	-9.79046
▁symbol	-9.79108
▁214	-9.79114
▁71	-9.79121
▁numbers	-9.79141
▁testing	-9.79167
▁exchange	-9.79282
▁preparation	-9.79313
▁reservoir	-9.79331
▁bias	-9.79397
▁scale	-9.79576
▁white	-9.79606
▁alloy	-9.79731
▁4-	-9.79739
▁compressed	-9.79761
▁makes	-9.79878
▁expressed	-9.79942
▁75	-9.80176
▁characterized	-9.80188
▁washed	-9.80239
▁changing	-9.8025
▁consumption	-9.80289
▁fields	-9.80314
▁picture	-9.80387
▁68	-9.80397
▁casing	-9.80437
▁concentrated	-9.80686
▁job	-9.8071
▁designated	-9.80805
▁working	-9.80861
▁interference	-9.80862
hydroxy	-9.80885
end	-9.80976
▁silica	-9.81002
▁128	-9.81171
▁score	-9.81399
▁polymers	-9.81465
▁require	-9.81491
▁regarding	-9.81601
▁called	-9.81634
▁walls	-9.81666
▁alcohol	-9.81681
ization	-9.81723
▁class	-9.81727
▁contrast	-9.81728
=1	-9.81748
▁curve	-9.8178
NR	-9.81787
▁fragment	-9.8188
▁cleaning	-9.81926
bit	-9.81928
▁passes	-9.81937
amine	-9.81964
axis	-9.81988
▁tri	-9.82011
▁fabric	-9.82064
▁natural	-9.82064
▁bandwidth	-9.82094
▁recognition	-9.82197
▁conjunction	-9.82227
▁master	-9.82328
▁relation	-9.825
▁enables	-9.82579
▁adding	-9.8284
▁125	-9.82996
▁processors	-9.83078
):	-9.83134
us	-9.83236
▁suspension	-9.83275
▁displays	-9.83397
▁ordinary	-9.83418
▁match	-9.83422
▁emission	-9.8346
▁hub	-9.83475
12	-9.83569
▁reactor	-9.83759
▁last	-9.83896
▁nucleotide	-9.83958
▁shaped	-9.84016
▁execute	-9.84161
▁obtaining	-9.8419
min	-9.8422
▁Once	-9.84324
▁First	-9.8433
▁anode	-9.84354
▁65	-9.8436
AL	-9.84628
▁radial	-9.84637
▁development	-9.84744
▁connect	-9.84771
▁factors	-9.84801
▁3-	-9.84835
▁towards	-9.85243
▁pivot	-9.85343
j	-9.85611
▁AC	-9.85616
▁steel	-9.85632
▁programming	-9.85742
▁hollow	-9.85987
▁limitation	-9.86008
▁refer	-9.86009
▁shared	-9.8604
▁Al	-9.86159
▁basic	-9.86457
▁allowed	-9.86495
▁mono	-9.86548
▁Cl	-9.86676
▁76	-9.86679
▁hydraulic	-9.86725
▁electro	-9.86731
▁string	-9.86746
▁turned	-9.86797
▁modification	-9.86852
▁113	-9.86862
um	-9.86892
▁might	-9.86916
▁assay	-9.87015
▁sheets	-9.87052
▁salts	-9.87083
ability	-9.87188
▁protective	-9.87275
▁manufactured	-9.87371
▁shell	-9.87403
ated	-9.8746
▁day	-9.875
▁executing	-9.87589
11	-9.87594
▁l	-9.87655
▁47	-9.87661
▁operated	-9.87834
▁510	-9.87888
▁secured	-9.87932
▁seed	-9.8796
▁connections	-9.88148
▁views	-9.8822
▁count	-9.88257
▁passing	-9.88273
▁dispersion	-9.88281
▁running	-9.88356
▁impedance	-9.88364
▁142	-9.88371
▁requests	-9.88399
▁downstream	-9.88412
▁implement	-9.88505
▁catheter	-9.88508
▁policy	-9.88558
▁molding	-9.88562
▁formulation	-9.88633
▁rather	-9.88723
▁species	-9.88758
▁107	-9.8876
▁vary	-9.88838
▁linked	-9.88839
▁readily	-9.88857
▁appended	-9.88943
oxy	-9.89009
▁velocity	-9.8908
▁strain	-9.89105
▁directions	-9.89232
▁programs	-9.89298
▁updated	-9.89309
▁conduit	-9.89321
▁departing	-9.89396
▁important	-9.8946
▁II	-9.89473
▁template	-9.89477
▁approach	-9.89572
▁days	-9.89619
▁stress	-9.89653
▁rail	-9.89665
▁decrease	-9.89898
▁acquired	-9.89923
▁cathode	-9.89937
▁vibration	-9.89966
▁lid	-9.89975
▁had	-9.90003
▁turbine	-9.9018
▁representative	-9.90209
▁implant	-9.90372
-4	-9.90418
▁pieces	-9.90465
▁usage	-9.90501
▁hold	-9.90573
▁enzyme	-9.90591
▁134	-9.90709
▁illumination	-9.90728
▁scheme	-9.90767
co	-9.90814
▁63	-9.90905
▁difficult	-9.91002
▁copy	-9.9102
▁insert	-9.91111
▁incident	-9.91197
▁instances	-9.91215
▁All	-9.91235
▁visible	-9.91291
of	-9.91307
▁latch	-9.91416
▁treating	-9.91466
▁except	-9.91503
▁tracking	-9.91535
▁stable	-9.91677
▁chromatography	-9.91725
▁captured	-9.91728
▁five	-9.91793
▁rotary	-9.9195
▁whose	-9.92019
▁fine	-9.92086
▁expected	-9.921
▁cam	-9.9218
▁drawing	-9.92252
▁System	-9.92262
18	-9.92265
▁dissolved	-9.9232
▁precursor	-9.92349
▁heater	-9.92373
▁files	-9.92394
▁explained	-9.92485
▁copolymer	-9.92626
▁Leu	-9.92626
▁synchronization	-9.92661
▁unsubstituted	-9.92747
▁waveguide	-9.92767
▁trigger	-9.92814
▁broadcast	-9.92872
propyl	-9.93105
▁capture	-9.93109
▁Data	-9.93131
▁drum	-9.93192
▁carrying	-9.9334
▁much	-9.93388
ml	-9.93389
▁fragments	-9.93566
16	-9.93572
▁222	-9.93609
ment	-9.93611
▁property	-9.93611
▁rubber	-9.93645
▁isolation	-9.93698
▁substrates	-9.93732
▁152	-9.93836
▁dimension	-9.93921
▁converted	-9.93968
▁biological	-9.9403
▁good	-9.94031
▁facing	-9.94076
▁bracket	-9.94087
▁502	-9.94101
▁vapor	-9.94132
▁ethylene	-9.9415
▁capacitance	-9.9429
▁ions	-9.94343
▁alternatively	-9.94568
▁programmable	-9.94585
30	-9.94602
dimethyl	-9.94606
limiting	-9.94754
▁straight	-9.94813
▁surgical	-9.94827
▁84	-9.94866
▁operational	-9.9487
pharmaceutically	-9.94896
▁limiting	-9.94963
▁defines	-9.95194
▁animal	-9.9521
▁enhanced	-9.95215
▁amplitude	-9.95368
▁chart	-9.95407
▁subjected	-9.95618
▁leg	-9.95722
▁calibration	-9.95794
▁black	-9.95825
▁polynucleotide	-9.95963
▁fusion	-9.9608
▁inputs	-9.9612
▁420	-9.96177
ID	-9.9635
▁entirety	-9.96373
▁404	-9.96434
▁conductivity	-9.96466
▁stability	-9.96479
▁lithium	-9.9655
▁49	-9.96569
▁curved	-9.96668
▁grid	-9.96703
▁rule	-9.96785
50	-9.96833
▁rules	-9.96942
▁currently	-9.96948
▁typical	-9.97165
▁roll	-9.97291
▁better	-9.97292
▁substance	-9.97339
▁prediction	-9.97463
▁log	-9.97503
▁graphical	-9.97516
▁92	-9.97558
▁tray	-9.97588
▁bonding	-9.97783
level	-9.97788
▁failure	-9.97945
▁800	-9.97967
▁resistor	-9.98031
▁reflected	-9.98138
▁vectors	-9.98226
▁rotate	-9.98238
▁fan	-9.98259
▁aromatic	-9.98322
▁acoustic	-9.98335
▁requires	-9.98373
▁flows	-9.98395
▁simple	-9.98444
▁inorganic	-9.98533
▁PCR	-9.98573
OR	-9.98575
▁course	-9.9858
▁attribute	-9.98589
▁whole	-9.98627
▁recited	-9.98647
▁pairs	-9.98725
▁spirit	-9.98766
▁needs	-9.98897
▁comparing	-9.98913
▁10%	-9.98935
▁extraction	-9.98962
▁relevant	-9.98997
▁background	-9.99032
▁notification	-9.99092
ating	-9.9914
▁promoter	-9.99179
▁completely	-9.99238
▁operable	-9.99299
▁genes	-9.99309
▁306	-9.99317
▁detects	-9.99344
▁already	-9.99356
▁preventing	-9.9946
-6	-9.99482
▁home	-9.99573
15	-9.99623
▁adjust	-9.99626
▁language	-9.99655
ii	-9.99707
▁hot	-9.99748
▁presentation	-9.99848
▁phenyl	-9.99924
▁interfaces	-9.99943
▁evaluation	-10.0008
▁advantage	-10.0013
▁residues	-10.0015
it	-10.0015
▁subset	-10.0016
▁radially	-10.0019
▁independent	-10.0027
▁significantly	-10.0033
▁figures	-10.0039
▁synthetic	-10.0042
▁Si	-10.0052
▁benefit	-10.0067
▁spatial	-10.0068
▁Compound	-10.0069
▁planar	-10.0074
▁cloud	-10.0075
▁symbols	-10.0076
▁apply	-10.0076
▁thereon	-10.0084
▁aforementioned	-10.0086
▁here	-10.0093
▁synthesis	-10.0096
▁Pro	-10.01
▁Some	-10.0109
▁pitch	-10.0113
▁loaded	-10.0113
▁rectangular	-10.0123
▁telephone	-10.0129
MS	-10.0137
▁During	-10.0138
▁shield	-10.0149
▁exterior	-10.0157
cm	-10.0163
ene	-10.0174
▁decoding	-10.0175
▁focus	-10.0175
▁slide	-10.0176
▁heart	-10.0176
▁sends	-10.0181
▁routing	-10.0182
▁1.0	-10.0188
▁middle	-10.0194
▁estimated	-10.02
▁risk	-10.0203
▁hybrid	-10.0207
▁Re	-10.0207
▁composed	-10.022
▁205	-10.0222
▁charged	-10.0227
▁displacement	-10.0228
▁especially	-10.0228
▁wires	-10.0241
▁problems	-10.0242
▁330	-10.0245
▁amounts	-10.0246
▁travel	-10.025
▁surrounding	-10.0259
▁highly	-10.0262
▁78	-10.0267
▁acquisition	-10.0274
▁version	-10.0283
▁PRO	-10.0286
▁312	-10.029
▁date	-10.0292
▁resist	-10.0292
▁impact	-10.0305
▁servers	-10.0312
▁PC	-10.0315
▁developing	-10.0322
NH	-10.033
-5-	-10.0334
▁proximity	-10.0347
▁tumor	-10.0353
▁them	-10.0356
▁facility	-10.036
▁usually	-10.0362
▁food	-10.0362
▁best	-10.0371
▁boundary	-10.038
▁antigen	-10.0385
▁completed	-10.0387
▁elongated	-10.0394
▁comprised	-10.0395
▁fact	-10.04
▁derivative	-10.04
▁flowing	-10.041
fluoro	-10.041
▁utilizing	-10.0413
▁auxiliary	-10.0428
▁emitted	-10.043
▁panels	-10.043
▁embedded	-10.0434
▁chosen	-10.0438
▁porous	-10.0438
▁uplink	-10.0447
▁written	-10.045
ness	-10.0463
ers	-10.0468
▁integer	-10.0494
▁drop	-10.05
▁57	-10.0512
ive	-10.0514
▁downlink	-10.0517
▁metadata	-10.0524
▁inhibitor	-10.055
▁stem	-10.0554
▁carbonate	-10.056
▁marker	-10.0561
▁50%	-10.0565
▁replaced	-10.0566
▁creating	-10.0569
▁polyethylene	-10.057
▁halogen	-10.0587
▁viewing	-10.0588
▁repeated	-10.0591
▁thread	-10.0592
▁requirements	-10.0617
▁report	-10.0618
▁electrolyte	-10.0628
▁hydrocarbon	-10.0629
▁links	-10.0631
▁derivatives	-10.0638
▁solutions	-10.0657
▁schematically	-10.0658
▁conducting	-10.0659
tri	-10.0678
▁gateway	-10.0682
▁rotated	-10.0685
way	-10.0701
▁who	-10.0705
▁filled	-10.0706
▁sliding	-10.0724
▁floor	-10.0727
ar	-10.0736
▁upstream	-10.0742
▁94	-10.0742
▁dosage	-10.0753
▁consumer	-10.0755
▁96	-10.0757
▁payment	-10.0759
▁paths	-10.076
▁drying	-10.0761
▁films	-10.077
▁regard	-10.0775
st	-10.0779
▁amplification	-10.0791
▁ethanol	-10.0795
le	-10.0798
ine	-10.0812
▁throughout	-10.0817
▁dimensions	-10.0823
▁ensure	-10.0827
▁contacting	-10.083
▁act	-10.0833
▁compressor	-10.0833
section	-10.0833
▁immediately	-10.0843
▁absorption	-10.0862
▁speech	-10.0865
▁reset	-10.0876
▁TO	-10.0889
methoxy	-10.092
▁continuously	-10.0929
▁established	-10.0931
2,	-10.0933
▁proceeds	-10.0934
▁lever	-10.0938
▁infrared	-10.0941
▁waveform	-10.0947
▁culture	-10.0952
▁arrow	-10.0953
▁131	-10.0956
▁atmosphere	-10.096
▁ceramic	-10.0963
▁tab	-10.0977
▁sidewall	-10.0983
▁203	-10.0983
▁arms	-10.0984
▁sum	-10.0986
▁registration	-10.099
chloro	-10.0994
et	-10.0995
▁commonly	-10.1006
ant	-10.101
▁spacer	-10.1013
▁passed	-10.1017
▁reflective	-10.1029
oxo	-10.1032
▁effectively	-10.1049
▁ppm	-10.1069
▁temperatures	-10.1084
ac	-10.1086
▁mount	-10.1087
▁apart	-10.1103
▁350	-10.1103
II	-10.1106
▁Because	-10.1107
▁mol	-10.1108
▁sampling	-10.1131
▁2.5	-10.1133
▁patients	-10.1135
▁therapy	-10.1141
▁developed	-10.1147
▁216	-10.1154
▁character	-10.1162
▁0.3	-10.1169
▁brake	-10.1174
▁business	-10.1176
▁301	-10.1177
▁plants	-10.1177
▁mixtures	-10.1189
▁81	-10.119
▁titanium	-10.1194
▁records	-10.1194
▁gaming	-10.1203
▁metallic	-10.1207
▁frequencies	-10.1215
▁86	-10.1229
▁monomer	-10.1231
▁oriented	-10.1237
▁partition	-10.1242
▁suction	-10.1245
▁compartment	-10.125
▁saturated	-10.1253
▁supports	-10.1258
is	-10.1266
▁procedures	-10.1269
▁signature	-10.1271
▁advantageous	-10.1282
▁serial	-10.1284
▁cellulose	-10.1288
▁signaling	-10.1289
de	-10.1293
▁foam	-10.1299
▁leading	-10.1303
▁subscriber	-10.1305
▁260	-10.1309
▁computers	-10.1312
▁association	-10.1313
pyridin	-10.1323
▁IL	-10.1341
▁criteria	-10.1344
▁cooled	-10.1358
▁lighting	-10.1361
phase	-10.1363
CO	-10.1366
▁ambient	-10.1368
▁public	-10.1373
▁likely	-10.1377
▁cluster	-10.1394
▁architecture	-10.1409
un	-10.1439
▁slurry	-10.1442
▁slots	-10.1443
▁loading	-10.1455
▁engage	-10.1466
ur	-10.147
▁press	-10.1479
▁carry	-10.1496
▁Method	-10.1496
▁dependent	-10.1509
▁reader	-10.152
ase	-10.1521
▁subsequently	-10.1531
▁engaging	-10.1542
▁diffusion	-10.1545
▁occurrence	-10.1546
▁144	-10.1552
q	-10.1556
▁sites	-10.156
▁73	-10.1561
▁states	-10.1562
▁(3)	-10.1575
▁contemplated	-10.1581
▁commands	-10.1584
channel	-10.159
▁additionally	-10.1623
▁clamp	-10.1624
▁installation	-10.1627
▁610	-10.1629
▁SO	-10.1633
▁addresses	-10.1636
▁accuracy	-10.1646
▁remains	-10.1652
▁sulfate	-10.1661
▁manufacture	-10.1666
▁bound	-10.1668
▁discrete	-10.1668
▁just	-10.1675
▁recombinant	-10.1676
▁uniform	-10.1677
mentioned	-10.1677
▁intake	-10.1678
▁see	-10.1681
▁ranges	-10.1689
▁q	-10.1693
IP	-10.1696
13	-10.17
▁decision	-10.1704
.","1	-10.1705
▁applicable	-10.1706
▁special	-10.1711
▁covering	-10.1712
▁label	-10.1714
1-	-10.1715
state	-10.1722
▁reflection	-10.1724
block	-10.1725
▁capability	-10.1729
▁semi	-10.1734
▁automatic	-10.1737
layer	-10.1738
▁adapter	-10.1741
▁Any	-10.1746
▁coordinate	-10.1762
▁virus	-10.1766
▁EXAMPLE	-10.1777
▁lamp	-10.1781
▁equation	-10.1785
▁communicating	-10.1786
▁engaged	-10.1786
▁beams	-10.1796
▁relay	-10.1802
▁dioxide	-10.1804
▁sufficiently	-10.1806
▁o	-10.1812
▁what	-10.1812
▁109	-10.1818
▁simply	-10.1819
00	-10.1827
▁play	-10.1828
▁red	-10.1836
▁moiety	-10.1846
▁radius	-10.1846
▁maintaining	-10.1855
▁grooves	-10.1856
▁extract	-10.1866
▁opened	-10.1868
▁omitted	-10.1879
▁clear	-10.1882
▁Using	-10.19
▁Comparative	-10.1903
▁fed	-10.1903
el	-10.1903
▁foot	-10.1906
▁viscosity	-10.1915
▁receptacle	-10.1915
▁inches	-10.1921
▁5%	-10.1944
▁900	-10.1949
▁predefined	-10.195
▁stacked	-10.1953
▁transceiver	-10.1954
▁serving	-10.1958
▁correct	-10.1959
▁504	-10.1962
40	-10.197
kg	-10.1975
▁trench	-10.1977
▁indicative	-10.1979
▁social	-10.1979
▁calcium	-10.1996
▁essentially	-10.1999
▁pressing	-10.1999
▁own	-10.2
▁relating	-10.2002
▁major	-10.2002
▁branch	-10.2005
ES	-10.2006
▁inventive	-10.2006
▁Ala	-10.201
▁0.01	-10.2013
▁necessarily	-10.2017
▁mouse	-10.2025
▁5-	-10.2027
▁complementary	-10.2033
▁bonded	-10.2035
▁95	-10.2036
▁filtering	-10.2042
including	-10.2048
▁threaded	-10.2051
▁406	-10.2057
▁308	-10.206
▁analyzed	-10.2061
▁done	-10.2062
▁recovery	-10.2065
▁rows	-10.2075
▁fit	-10.2082
▁211	-10.2085
▁piezoelectric	-10.2086
▁delivered	-10.2089
▁fluorescent	-10.209
▁safety	-10.209
▁Ex	-10.2102
24	-10.2111
▁branched	-10.2114
▁fatty	-10.2118
▁option	-10.2125
down	-10.2127
▁allocated	-10.2134
▁polymerization	-10.215
▁browser	-10.2152
output	-10.2171
▁136	-10.2176
▁reduces	-10.2179
▁transducer	-10.2179
▁damage	-10.2182
▁extent	-10.2185
▁decoder	-10.2195
▁1-6	-10.22
▁91	-10.2204
which	-10.2212
▁separately	-10.2213
▁optional	-10.2214
▁add	-10.2218
▁Japanese	-10.2227
▁mechanisms	-10.2229
▁requested	-10.2243
frequency	-10.2251
▁efficient	-10.2253
▁alone	-10.2263
▁exchanger	-10.2263
▁shapes	-10.2264
19	-10.2276
▁conveyor	-10.2287
▁encoder	-10.2288
]-	-10.2291
▁soft	-10.23
id	-10.2304
▁settings	-10.2305
▁square	-10.2307
▁sequentially	-10.2307
▁De	-10.231
▁six	-10.2311
▁conducted	-10.2322
▁pins	-10.2322
▁224	-10.2331
▁heavy	-10.2337
▁navigation	-10.2358
▁acceleration	-10.2362
▁tested	-10.237
▁tension	-10.2378
▁dispensing	-10.2379
▁attributes	-10.2383
▁iron	-10.2386
▁bridge	-10.2388
▁oxidation	-10.2388
▁cyclic	-10.2394
▁speaker	-10.2395
▁occurring	-10.2404
▁rigid	-10.2406
▁Val	-10.2407
▁exists	-10.241
▁sealed	-10.2412
▁fitting	-10.2412
▁describes	-10.2421
▁ligand	-10.2421
▁NR	-10.2431
▁bore	-10.2432
▁unless	-10.2439
▁anchor	-10.2441
▁alkoxy	-10.2445
▁98	-10.245
▁mice	-10.2451
▁85	-10.2466
▁enabling	-10.2469
▁reactive	-10.2472
▁polypeptides	-10.2472
▁lumen	-10.2475
▁filters	-10.2481
▁avoid	-10.2484
▁hour	-10.25
▁Control	-10.2504
amide	-10.2509
▁serve	-10.2512
▁polarization	-10.2516
▁th	-10.2518
per	-10.252
▁protrusion	-10.2523
▁123	-10.2524
CD	-10.253
▁dual	-10.253
▁×	-10.2543
▁alternate	-10.2549
▁green	-10.2551
▁queue	-10.2561
▁88	-10.2561
▁waves	-10.2572
▁periphery	-10.2576
▁plural	-10.258
▁67	-10.2581
▁training	-10.2587
▁vehicles	-10.2588
▁inspection	-10.2589
▁sensitive	-10.2591
▁stationary	-10.2599
▁enter	-10.2601
▁ultrasonic	-10.2603
▁0.00	-10.2603
less	-10.2608
▁sixth	-10.2611
▁phosphate	-10.2618
▁interconnect	-10.2621
▁refractive	-10.2627
▁NH	-10.2638
▁situation	-10.2644
▁correlation	-10.2644
▁assemblies	-10.2654
▁vertically	-10.2655
▁Na	-10.2656
▁utilize	-10.2656
MQ	-10.2657
▁takes	-10.2663
▁AP	-10.2664
▁principles	-10.2666
▁overlap	-10.2684
▁varying	-10.2692
▁reagent	-10.2692
▁steering	-10.2695
▁sheath	-10.2702
▁inclined	-10.2708
▁collector	-10.2721
▁135	-10.2724
▁1.00	-10.2726
▁refrigerant	-10.2728
▁raw	-10.2732
meth	-10.2747
▁faces	-10.2752
▁vinyl	-10.2754
▁retaining	-10.2766
▁pads	-10.2769
▁pole	-10.2771
▁finger	-10.2771
▁handling	-10.2774
:1	-10.278
▁optic	-10.2782
Cl	-10.2784
▁heteroaryl	-10.2785
▁decreased	-10.2789
▁wound	-10.2793
▁viewed	-10.2798
▁operates	-10.28
▁leads	-10.2816
1)	-10.2822
▁cycloalkyl	-10.2822
▁alkenyl	-10.2823
▁hinge	-10.2823
▁released	-10.2824
▁entitled	-10.2825
▁0.05	-10.2829
▁probability	-10.2837
▁magnitude	-10.2838
▁executable	-10.2852
▁feeding	-10.2856
▁embodied	-10.2862
▁super	-10.2873
▁clutch	-10.2875
▁Description	-10.288
▁selects	-10.288
▁waste	-10.2886
▁450	-10.2889
▁primer	-10.2916
▁blue	-10.2924
▁chips	-10.293
▁verification	-10.2932
▁ways	-10.2933
▁adjustable	-10.2949
▁inverter	-10.295
▁responsive	-10.2953
▁gradient	-10.2955
▁modes	-10.2964
▁exceeds	-10.2976
▁520	-10.2978
▁diagrams	-10.2978
▁Li	-10.2987
mL	-10.2988
▁supplying	-10.299
In	-10.2994
▁Embodiments	-10.2995
▁developer	-10.2997
▁fastener	-10.2999
▁subsystem	-10.3002
▁friction	-10.3006
▁practice	-10.3007
▁Various	-10.3009
▁Gly	-10.301
▁closure	-10.3015
▁UV	-10.3019
band	-10.302
▁prevented	-10.3028
▁mesh	-10.3035
▁CF	-10.3035
▁100%	-10.3042
▁diseases	-10.3043
▁monitored	-10.3051
▁remain	-10.3054
▁orthogonal	-10.3065
▁converting	-10.3068
▁too	-10.3076
▁behavior	-10.3077
▁objective	-10.3082
▁microphone	-10.3083
volatile	-10.3091
▁absolute	-10.3096
▁tire	-10.3103
▁automated	-10.3104
▁RAM	-10.3106
′′	-10.3112
▁blocking	-10.3118
▁percentage	-10.312
▁calculate	-10.3125
▁acts	-10.3128
▁Field	-10.3128
▁exist	-10.3133
▁amine	-10.3141
▁pulses	-10.3155
▁Glu	-10.3159
▁flag	-10.3172
▁exit	-10.3182
▁1-4	-10.3186
▁definition	-10.3194
▁340	-10.3194
▁59	-10.3196
▁smart	-10.3198
▁polishing	-10.32
▁private	-10.3203
▁compensation	-10.3207
act	-10.3213
▁Cell	-10.3218
▁consists	-10.322
ul	-10.3234
▁doped	-10.3237
▁voltages	-10.3237
▁pages	-10.3238
il	-10.3239
▁162	-10.324
▁floating	-10.3243
▁intervals	-10.3244
▁602	-10.3267
▁Typically	-10.327
▁variant	-10.3272
22	-10.3277
▁binder	-10.3279
▁aircraft	-10.3284
▁transverse	-10.3294
▁connects	-10.3298
▁satellite	-10.3299
▁global	-10.3302
▁9.	-10.3304
▁polymeric	-10.3319
▁entities	-10.3325
▁valid	-10.3326
▁enough	-10.3334
▁appliance	-10.3339
▁enlarged	-10.3342
▁opposing	-10.3344
▁concentrations	-10.3345
▁models	-10.3351
▁reliability	-10.336
▁allocation	-10.336
▁returns	-10.3365
▁covered	-10.3375
OH	-10.3376
▁concave	-10.3382
transitory	-10.3383
▁bag	-10.3391
▁710	-10.3394
▁packaging	-10.3399
▁columns	-10.341
32	-10.3413
▁though	-10.3414
▁routine	-10.3416
▁fastening	-10.3418
▁La	-10.342
▁parent	-10.3421
ad	-10.3422
▁spacing	-10.3422
▁MAC	-10.3435
▁welding	-10.3439
▁serves	-10.3445
▁nature	-10.3447
▁substituents	-10.3447
▁190	-10.345
▁robot	-10.3452
▁forces	-10.3452
▁arc	-10.3455
▁etch	-10.346
▁absence	-10.348
▁static	-10.3482
ent	-10.3484
▁hereby	-10.3488
ring	-10.3491
45	-10.3491
▁sizes	-10.3493
▁health	-10.3494
▁Inc	-10.3499
The	-10.3504
▁mark	-10.3506
▁lift	-10.3506
▁socket	-10.3507
▁clip	-10.3508
▁streams	-10.3514
▁estimate	-10.3514
by	-10.3514
▁referring	-10.3528
▁recognized	-10.353
▁his	-10.3531
izing	-10.3534
related	-10.3535
▁luminance	-10.3544
▁potassium	-10.3546
▁Generally	-10.355
▁machines	-10.3552
▁rollers	-10.3555
▁recognize	-10.3558
▁winding	-10.3569
▁2000	-10.357
▁430	-10.3571
▁spray	-10.3574
▁solar	-10.3596
▁bed	-10.3607
▁drives	-10.3607
▁wet	-10.3609
▁radical	-10.3617
▁moisture	-10.3619
▁history	-10.3623
▁232	-10.3626
▁actions	-10.3626
▁coordinates	-10.363
▁kit	-10.3631
▁fast	-10.3634
dd	-10.3639
▁sensitivity	-10.3643
▁accomplished	-10.3644
▁split	-10.3645
▁residual	-10.3651
▁token	-10.3652
▁hydroxy	-10.3656
▁cycles	-10.3658
▁crystalline	-10.3677
▁resistant	-10.3679
age	-10.3687
▁administering	-10.3699
▁switched	-10.3701
▁advance	-10.3706
35	-10.371
▁spot	-10.3712
▁Lys	-10.3719
▁upward	-10.3721
▁downward	-10.3726
▁incoming	-10.3731
▁slightly	-10.3734
▁implementing	-10.3735
▁programmed	-10.3739
▁completion	-10.3744
▁thermoplastic	-10.3747
sensitive	-10.376
▁fraction	-10.3761
▁reported	-10.377
▁decreases	-10.3773
▁tablet	-10.3779
17	-10.3788
▁merely	-10.379
▁removable	-10.3794
▁liner	-10.3802
▁401	-10.3806
2)	-10.3809
▁enclosure	-10.3809
▁documents	-10.3813
AP	-10.3819
▁methanol	-10.3819
3,	-10.3821
▁pressed	-10.3822
▁commercial	-10.3828
▁Optionally	-10.3842
▁writing	-10.3848
90	-10.3855
▁Cu	-10.3856
no	-10.3857
▁library	-10.3861
CF	-10.3864
▁dedicated	-10.387
)-2-	-10.3871
▁stations	-10.3872
SO	-10.3874
▁RELATED	-10.388
▁yellow	-10.3881
▁From	-10.3886
▁stator	-10.3889
▁seconds	-10.389
▁spectral	-10.3907
▁labeled	-10.3911
▁peptides	-10.3914
▁balance	-10.392
▁push	-10.3931
▁2.0	-10.3933
▁preset	-10.3935
▁layout	-10.3935
▁154	-10.394
▁Reference	-10.3943
▁Methods	-10.3967
▁differences	-10.3971
▁magnesium	-10.3981
▁building	-10.3982
▁far	-10.3992
est	-10.3996
▁carriers	-10.3998
▁151	-10.3999
▁mRNA	-10.4002
▁excellent	-10.4002
▁washing	-10.4003
ry	-10.4014
▁injected	-10.4025
▁Invention	-10.4035
▁u	-10.404
▁wheels	-10.4045
-10	-10.4048
What	-10.4051
▁tools	-10.4061
▁—(	-10.4068
▁alarm	-10.4075
▁glucose	-10.4082
▁apparatuses	-10.4083
▁412	-10.4094
▁we	-10.4098
▁permit	-10.4104
▁molded	-10.4105
man	-10.4123
▁teeth	-10.4136
▁highest	-10.415
▁describing	-10.4153
▁photosensitive	-10.4153
▁opposed	-10.4156
▁accessed	-10.4162
▁Non	-10.4166
▁90%	-10.4167
°	-10.4178
▁normally	-10.418
▁party	-10.4181
▁III	-10.4192
CROSS	-10.4201
▁modulated	-10.4201
▁preparing	-10.4216
▁Chem	-10.4217
▁life	-10.4223
26	-10.4228
▁0.4	-10.4229
ary	-10.4231
▁flux	-10.4237
▁permanent	-10.4246
▁elongate	-10.425
▁retention	-10.4256
▁assumed	-10.4258
▁angles	-10.4258
▁reaches	-10.4259
▁transform	-10.4259
)-3-	-10.4273
▁construct	-10.4273
▁keyboard	-10.4279
▁iso	-10.4286
▁tree	-10.4286
▁SP	-10.4287
▁assembled	-10.4289
▁filler	-10.4295
▁amorphous	-10.4295
▁218	-10.4296
60	-10.4298
▁(4	-10.4303
▁separating	-10.4303
▁describe	-10.4314
▁therebetween	-10.4315
▁inhibitors	-10.432
▁additive	-10.4322
▁icon	-10.4322
▁enhance	-10.4325
▁antennas	-10.433
▁division	-10.433
▁tubes	-10.433
▁FIELD	-10.4335
▁microprocessor	-10.4336
▁rates	-10.4345
▁fabrication	-10.4345
▁protruding	-10.4346
▁83	-10.435
▁optimal	-10.4356
▁oscillator	-10.4361
ting	-10.4361
▁equivalents	-10.4363
▁hook	-10.4367
▁fault	-10.4372
▁capturing	-10.4372
▁silver	-10.4375
▁Suitable	-10.4375
▁deformation	-10.4375
▁reached	-10.438
▁joined	-10.4383
▁category	-10.4383
▁270	-10.4383
▁filling	-10.4384
▁silicone	-10.4386
▁involves	-10.4386
▁identifies	-10.4386
▁nucleotides	-10.4397
▁codes	-10.4397
▁estimation	-10.4412
▁enabled	-10.4414
▁continues	-10.4415
bis	-10.442
▁help	-10.4429
▁manifold	-10.443
▁drawn	-10.4449
▁melt	-10.4449
▁translation	-10.4452
21	-10.4454
am	-10.4455
▁apertures	-10.4455
▁jet	-10.4471
▁parking	-10.4478
▁stages	-10.4479
▁Publication	-10.4482
▁keys	-10.4486
▁proper	-10.4488
▁77	-10.4489
▁polyester	-10.4502
▁critical	-10.4505
▁314	-10.4512
▁formulations	-10.4517
▁tables	-10.4519
▁listed	-10.4521
▁fluorescence	-10.4524
▁resonance	-10.4527
▁taking	-10.4529
▁diffraction	-10.453
▁simulation	-10.4531
70	-10.4537
tetrahydro	-10.4547
28	-10.4549
▁vivo	-10.4554
▁Arg	-10.4555
▁hydroxyl	-10.4555
▁tasks	-10.4557
▁scanner	-10.4558
▁(5	-10.4563
▁surfactant	-10.4564
▁coefficients	-10.4564
25	-10.4568
3-	-10.4573
▁506	-10.4574
▁realized	-10.4575
ab	-10.4576
▁thick	-10.459
US	-10.4591
▁aid	-10.4593
▁99	-10.4598
▁disorder	-10.4602
ling	-10.4603
▁strap	-10.4611
▁bi	-10.4623
▁512	-10.4624
▁133	-10.4633
0.0	-10.4634
▁understanding	-10.4637
▁consistent	-10.4637
▁combining	-10.4637
▁alert	-10.464
▁angular	-10.464
▁executes	-10.4645
▁individually	-10.4649
▁transformation	-10.465
▁360	-10.4657
▁predicted	-10.4657
▁eight	-10.4658
▁discloses	-10.4668
▁compact	-10.4671
dihydro	-10.4672
▁Of	-10.4674
▁Consequently	-10.4679
▁drilling	-10.4691
▁workpiece	-10.4692
ter	-10.4693
▁concept	-10.4694
▁clamping	-10.4698
▁protocols	-10.4698
▁actuation	-10.4706
▁registered	-10.4707
▁drill	-10.472
▁locked	-10.4722
▁wind	-10.4734
▁trace	-10.4736
▁beyond	-10.4742
▁novel	-10.4745
▁environmental	-10.4747
▁commercially	-10.4763
▁pull	-10.4767
▁soluble	-10.4769
▁figure	-10.4771
▁Upon	-10.4773
▁denotes	-10.4775
▁outputting	-10.479
br	-10.4794
▁20%	-10.4795
ROM	-10.4797
▁AND	-10.4804
▁Thr	-10.4808
▁collecting	-10.4811
▁selector	-10.4815
▁whereas	-10.4816
▁ranging	-10.4824
▁hydroxide	-10.4826
▁conductors	-10.483
▁selective	-10.4834
▁chassis	-10.4835
▁scheduling	-10.4835
)—	-10.4836
▁Ar	-10.485
▁male	-10.4852
▁epoxy	-10.4853
▁produces	-10.4854
▁few	-10.4856
▁esters	-10.4857
▁valves	-10.4858
▁applies	-10.4862
▁errors	-10.487
▁junction	-10.4876
▁equipped	-10.4877
▁unsaturated	-10.4878
▁easy	-10.4879
▁securing	-10.4888
▁overlapping	-10.4889
▁supplies	-10.4889
▁updating	-10.4895
be	-10.4904
▁calculates	-10.4923
▁integral	-10.4924
▁3′	-10.4929
▁advantageously	-10.4936
▁bulk	-10.4942
▁1%	-10.4945
▁brightness	-10.4946
▁axially	-10.4953
▁adhesion	-10.4955
▁graphics	-10.4955
▁modulator	-10.4955
ia	-10.4956
▁rotates	-10.4956
cell	-10.4957
▁AD	-10.4958
▁141	-10.4959
iv	-10.4961
▁plunger	-10.4962
▁replacement	-10.4964
▁pilot	-10.4971
▁expanded	-10.4976
▁others	-10.4981
▁serum	-10.4987
▁sized	-10.4992
▁timer	-10.5
▁disorders	-10.5003
PD	-10.5005
▁ejection	-10.5008
▁past	-10.5009
ST	-10.501
▁cards	-10.5018
▁closing	-10.5022
▁induced	-10.5026
▁menu	-10.5047
DC	-10.5052
▁pickup	-10.5054
▁tert	-10.506
▁convex	-10.5062
▁turning	-10.5066
PC	-10.5085
▁138	-10.5086
-6-	-10.5087
▁rotatable	-10.5088
38	-10.5094
▁evaluated	-10.5098
▁accessible	-10.5104
▁strand	-10.5107
▁email	-10.5111
▁RFID	-10.5112
100	-10.5119
▁microns	-10.5124
34	-10.5128
ial	-10.5129
▁nanoparticles	-10.5131
▁maintenance	-10.5131
▁shutter	-10.5138
▁study	-10.5138
▁fashion	-10.5141
▁separator	-10.5148
▁coverage	-10.5153
ium	-10.5153
▁nickel	-10.5159
80	-10.5159
▁involved	-10.5161
▁transcription	-10.517
▁wired	-10.517
▁_	-10.5178
▁collar	-10.5178
▁integrally	-10.5179
▁analyzing	-10.5184
▁affect	-10.5184
-(	-10.5185
▁protected	-10.5185
▁credit	-10.519
▁146	-10.5194
▁periods	-10.5206
▁instant	-10.521
▁synthesized	-10.5228
▁stand	-10.5232
Si	-10.5234
▁(4)	-10.5235
▁preceding	-10.5238
ir	-10.524
▁registers	-10.5245
▁binary	-10.5247
▁excess	-10.5247
▁default	-10.525
▁702	-10.5262
▁ST	-10.5265
▁steam	-10.5272
▁pack	-10.5274
▁3.0	-10.5274
▁604	-10.5274
▁trans	-10.5275
▁appearance	-10.5276
▁router	-10.5279
▁similarly	-10.5281
▁initially	-10.5291
▁improving	-10.5295
▁Me	-10.5298
-8	-10.5306
▁curvature	-10.5307
▁barrel	-10.5307
▁Exemplary	-10.5314
▁corner	-10.5316
▁outward	-10.5325
▁bank	-10.5326
▁pro	-10.5331
▁stroke	-10.5335
▁capabilities	-10.5336
▁reason	-10.5344
▁diagnostic	-10.5349
▁ingredient	-10.5352
▁narrow	-10.5362
data	-10.5367
▁bending	-10.5373
▁reach	-10.5374
▁fall	-10.5374
▁connectors	-10.5374
▁password	-10.538
▁215	-10.5382
▁cold	-10.5382
▁accordingly	-10.5386
trifluoromethyl	-10.5392
▁diluted	-10.5394
▁SC	-10.5394
▁Preparation	-10.5396
▁LC	-10.5401
%	-10.5403
▁zinc	-10.5408
▁round	-10.5409
▁protrusions	-10.5411
▁defect	-10.5418
▁returned	-10.5419
▁interactive	-10.543
▁proximate	-10.5434
▁proposed	-10.5438
▁kept	-10.5441
▁population	-10.5444
▁305	-10.545
ance	-10.5453
▁manually	-10.5457
▁nano	-10.5459
▁Subsequently	-10.5464
▁Ni	-10.5465
▁attaching	-10.5466
▁halo	-10.547
▁encryption	-10.547
▁117	-10.5474
▁improvement	-10.5475
▁tunnel	-10.548
▁slave	-10.5481
▁Web	-10.5482
▁Based	-10.5486
▁observation	-10.5497
▁solvents	-10.5507
▁dot	-10.5508
▁0.8	-10.5508
▁root	-10.552
▁fabricated	-10.5523
▁acrylic	-10.5524
▁diaphragm	-10.5528
ex	-10.5533
IV	-10.554
▁always	-10.5547
▁role	-10.5549
▁rest	-10.5551
▁stimulation	-10.5555
▁backup	-10.5559
thio	-10.5566
▁(10	-10.5566
ted	-10.5569
▁408	-10.5577
▁activities	-10.558
▁reactions	-10.5582
▁nut	-10.5584
▁convert	-10.5591
NO	-10.5602
▁simplified	-10.5602
▁tapered	-10.5605
frame	-10.561
▁sink	-10.561
▁aliphatic	-10.5616
2-	-10.5616
▁69	-10.5622
▁93	-10.5625
▁propylene	-10.5625
▁playback	-10.5626
▁oral	-10.5626
mail	-10.5627
▁excitation	-10.563
▁coupler	-10.5633
▁enters	-10.5637
▁slider	-10.5641
▁purification	-10.5642
▁affinity	-10.5646
▁managing	-10.5648
▁spread	-10.5657
▁donor	-10.5661
▁ROM	-10.5664
▁price	-10.5668
▁stirring	-10.5674
▁schedule	-10.5675
▁options	-10.5676
▁fluids	-10.5678
rate	-10.5684
▁ammonium	-10.5687
▁440	-10.5687
▁alpha	-10.5693
▁bolt	-10.5694
▁620	-10.5697
▁alternating	-10.5699
▁projecting	-10.5699
back	-10.5701
▁starts	-10.5703
▁plating	-10.5704
▁coils	-10.5705
▁firmware	-10.5709
▁Ti	-10.5709
▁bacteria	-10.5711
▁influence	-10.5714
AC	-10.5724
▁shorter	-10.5729
▁varied	-10.5734
▁deployed	-10.5738
▁melting	-10.5741
▁car	-10.5769
▁rings	-10.5771
▁identifiers	-10.5772
▁future	-10.5777
▁inductor	-10.5786
▁conveying	-10.5792
▁interact	-10.5792
▁prevents	-10.5795
▁volatile	-10.5796
▁technical	-10.5797
acrylate	-10.5799
▁placement	-10.5803
hereinafter	-10.5803
▁technologies	-10.5806
ethoxy	-10.5808
▁operatively	-10.5816
▁fill	-10.5817
▁transformed	-10.5834
▁animals	-10.5836
▁exhibit	-10.5841
con	-10.5844
▁television	-10.585
▁placing	-10.585
ies	-10.585
▁ON	-10.5851
▁numerals	-10.5867
▁filtration	-10.5876
▁folded	-10.5879
▁IV	-10.5881
▁perimeter	-10.5883
▁modifying	-10.5884
ut	-10.5887
▁specify	-10.5889
▁measures	-10.5901
▁algorithms	-10.5903
▁distinct	-10.5909
PS	-10.5911
▁raised	-10.5915
▁covers	-10.5917
ill	-10.5929
▁degradation	-10.593
▁rack	-10.5931
65	-10.5931
▁hash	-10.5932
▁meaning	-10.5932
▁numerous	-10.5934
▁Art	-10.5936
▁efficiently	-10.5938
▁encrypted	-10.5945
▁gases	-10.5946
▁entering	-10.5954
▁Additional	-10.5957
▁domains	-10.5961
▁Asp	-10.597
▁′′	-10.597
▁issued	-10.5976
▁Thereafter	-10.5978
well	-10.5979
▁laminated	-10.5987
ro	-10.599
▁bio	-10.599
▁tissues	-10.5991
▁bodies	-10.5991
▁minute	-10.5994
▁pure	-10.6001
▁172	-10.6003
▁Device	-10.6003
▁ticket	-10.6009
▁DL	-10.6009
lo	-10.6019
▁resultant	-10.602
▁smooth	-10.6025
▁transferring	-10.6038
▁profiles	-10.6046
▁EMBODIMENTS	-10.6047
▁vicinity	-10.6049
▁proxy	-10.6062
▁156	-10.6063
▁computed	-10.6064
▁outputted	-10.6065
▁bent	-10.6066
▁hydrophobic	-10.6078
▁manual	-10.609
▁attempt	-10.6096
▁immune	-10.6098
▁female	-10.6102
forming	-10.6111
▁reads	-10.6116
▁LCD	-10.6121
▁interconnection	-10.6122
▁fitted	-10.6124
set	-10.6126
-12	-10.6127
▁322	-10.613
▁resins	-10.6135
▁arrays	-10.6136
▁226	-10.614
▁GPS	-10.6142
▁solder	-10.6144
▁mail	-10.6145
▁underlying	-10.6155
ator	-10.6157
▁properly	-10.6162
▁establish	-10.6165
▁USB	-10.6173
▁See	-10.6179
-9	-10.6179
▁probes	-10.6182
▁stated	-10.6183
▁classification	-10.6193
▁501	-10.6199
chlorophenyl	-10.6206
▁characters	-10.6207
99	-10.621
▁APPLICATIONS	-10.621
▁fin	-10.6212
▁dispersed	-10.6215
▁requirement	-10.6217
▁pathway	-10.6224
▁guiding	-10.6231
▁clinical	-10.6238
▁updates	-10.6243
▁acrylate	-10.6243
te	-10.6251
▁road	-10.6251
27	-10.6254
▁deviation	-10.6268
▁strong	-10.6269
▁acquiring	-10.6272
▁containers	-10.6278
▁dispenser	-10.6278
▁mating	-10.6286
▁appropriately	-10.6294
▁hereinafter	-10.6296
▁5′	-10.63
▁restriction	-10.63
▁geometry	-10.6304
▁photoresist	-10.6305
▁leakage	-10.6311
▁vitro	-10.6314
point	-10.6331
▁structured	-10.6332
▁variables	-10.6334
▁temporary	-10.6342
▁subframe	-10.6348
▁Network	-10.6349
▁phases	-10.6351
free	-10.6361
▁discharged	-10.6365
▁assays	-10.6365
top	-10.6369
▁amplified	-10.637
+1	-10.6371
▁infection	-10.6377
29	-10.6378
▁ice	-10.6378
im	-10.638
▁IR	-10.6393
▁chambers	-10.6399
▁impurity	-10.6402
▁Di	-10.6403
▁legs	-10.6405
▁intra	-10.6408
▁brush	-10.6409
▁couple	-10.6409
×10	-10.642
▁patterned	-10.6424
▁hybridization	-10.6424
▁corrected	-10.643
III	-10.6438
pressure	-10.6439
▁lenses	-10.6442
▁pigment	-10.6443
RF	-10.6447
▁fire	-10.6448
▁continue	-10.6448
part	-10.6451
▁cDNA	-10.6451
▁%,	-10.6459
▁accurate	-10.6466
▁0°	-10.6467
▁streaming	-10.6469
▁316	-10.6471
▁cannula	-10.6475
if	-10.648
▁slow	-10.6482
▁brought	-10.6491
hi	-10.6492
▁405	-10.6494
▁dynamically	-10.6496
▁family	-10.6498
ton	-10.6501
▁CA	-10.6504
3)	-10.6506
▁nozzles	-10.6508
▁810	-10.6509
▁accommodate	-10.6509
▁Phe	-10.6511
23	-10.6514
▁arrangements	-10.6515
▁substances	-10.6524
▁Nos	-10.6526
▁OH	-10.6529
▁0.6	-10.6529
▁entries	-10.6541
▁scene	-10.6541
▁fat	-10.6543
▁clearly	-10.6546
▁endpoint	-10.6547
water	-10.6548
▁spin	-10.6558
▁Equation	-10.6565
▁3.5	-10.6569
▁numerical	-10.657
▁actually	-10.6572
▁creates	-10.6575
▁sensed	-10.6579
▁constituting	-10.658
▁learning	-10.6582
▁regulator	-10.6585
▁matches	-10.6594
▁receipt	-10.6598
▁payload	-10.6598
▁Provisional	-10.66
4-	-10.6606
▁insulator	-10.6618
▁rim	-10.6619
▁framework	-10.6621
▁rolling	-10.6629
64	-10.6629
▁online	-10.6633
▁st	-10.6639
▁tags	-10.6648
▁curing	-10.665
▁sulfur	-10.6653
▁mobility	-10.6654
▁inhibit	-10.6656
▁Group	-10.6661
▁reflecting	-10.6667
▁pool	-10.6672
▁focal	-10.6672
▁148	-10.6672
▁beginning	-10.6674
▁hence	-10.6675
▁chains	-10.6678
▁communicates	-10.6681
▁280	-10.6683
▁photoelectric	-10.669
▁kind	-10.6694
▁mapped	-10.6698
▁quickly	-10.6702
▁bypass	-10.6709
▁share	-10.6713
▁irradiation	-10.6718
fold	-10.6718
▁1200	-10.6727
over	-10.6733
▁stent	-10.6743
▁find	-10.6744
Step	-10.6747
▁EL	-10.675
▁modify	-10.675
▁compatible	-10.6751
ose	-10.6753
▁primers	-10.676
▁deliver	-10.6763
RS	-10.6764
carbonyl	-10.6764
▁introducing	-10.6767
PE	-10.6768
▁physiological	-10.6771
▁accessing	-10.6775
▁BL	-10.678
▁lipid	-10.6785
IN	-10.6793
▁303	-10.6795
▁ingredients	-10.6805
44	-10.6808
▁Synthesis	-10.6812
▁beacon	-10.6812
▁tetra	-10.6815
▁164	-10.6818
▁multimedia	-10.682
▁introduction	-10.6825
bromo	-10.6826
oc	-10.6828
▁recessed	-10.683
▁circumference	-10.6831
tert	-10.685
▁530	-10.6856
▁keep	-10.6857
▁foil	-10.6864
ous	-10.6869
▁purchase	-10.6872
▁DRAM	-10.6885
▁metals	-10.6889
▁requesting	-10.6898
▁155	-10.6899
mol	-10.6902
▁bacterial	-10.6902
▁bind	-10.6905
▁minimize	-10.6908
▁assist	-10.6909
▁duct	-10.6913
AT	-10.6916
▁continuation	-10.6927
▁grating	-10.6928
▁plasmid	-10.693
▁requiring	-10.6931
▁colors	-10.6934
▁slit	-10.6935
▁242	-10.6939
▁integration	-10.694
▁resonator	-10.6953
▁certificate	-10.6953
▁suture	-10.6953
▁analyte	-10.6964
▁firing	-10.6968
▁Type	-10.6969
▁sugar	-10.6971
▁extracting	-10.6973
▁gold	-10.6973
mer	-10.6974
pass	-10.6976
▁0.02	-10.6976
▁begins	-10.6977
▁experience	-10.6979
▁batch	-10.698
▁tooth	-10.6987
▁PEG	-10.6996
▁come	-10.6999
▁passive	-10.7015
▁laminate	-10.7018
▁approaches	-10.7027
op	-10.7028
▁deep	-10.703
▁508	-10.703
▁employ	-10.7039
Al	-10.7043
39	-10.7049
▁financial	-10.7058
▁User	-10.706
▁employing	-10.7062
▁grain	-10.7064
▁1.2	-10.7069
▁inhibition	-10.7074
▁ear	-10.7075
▁deployment	-10.7081
▁spherical	-10.7092
36	-10.7101
▁repair	-10.711
▁follow	-10.7115
▁cured	-10.7116
▁electrostatic	-10.7119
▁teachings	-10.7121
mm	-10.7126
▁inserting	-10.7131
▁Br	-10.7131
ag	-10.7135
▁ultraviolet	-10.7138
▁enzymes	-10.7139
▁lengths	-10.7141
▁compare	-10.7143
▁retained	-10.7146
▁inert	-10.7149
▁dye	-10.7154
hole	-10.7157
▁incubated	-10.7164
▁restricted	-10.7169
▁gravity	-10.717
▁construed	-10.7172
▁physically	-10.7182
▁Second	-10.7185
▁outwardly	-10.7191
▁multilayer	-10.7192
▁Ile	-10.7192
μ	-10.7195
▁emulsion	-10.7195
▁copolymers	-10.7197
board	-10.7199
▁latter	-10.7199
▁bands	-10.7201
▁tests	-10.721
-20	-10.7214
▁414	-10.7217
▁DMSO	-10.722
▁ten	-10.7221
▁TFT	-10.7232
▁cassette	-10.7234
▁grown	-10.7235
▁bonds	-10.7239
▁advanced	-10.7239
▁guided	-10.7243
la	-10.7246
▁put	-10.7255
▁recipient	-10.7256
▁comparator	-10.7257
▁etched	-10.726
▁projected	-10.7264
▁started	-10.7266
▁blades	-10.7269
▁Ethernet	-10.727
TT	-10.7271
also	-10.7275
98	-10.7286
▁Access	-10.7291
0.1	-10.7297
▁weeks	-10.7298
ably	-10.7298
ra	-10.7304
▁bis	-10.731
▁pointer	-10.731
TS	-10.731
indol	-10.7313
▁experiments	-10.7314
▁utilization	-10.7318
▁pain	-10.7322
▁occurred	-10.7322
▁radicals	-10.733
▁13.	-10.733
▁elevation	-10.7334
carboxylic	-10.7336
▁shifted	-10.7339
CC	-10.734
▁EP	-10.7341
▁resonant	-10.7344
▁cone	-10.7347
▁shock	-10.7349
▁Hence	-10.7353
▁naturally	-10.7354
canceled	-10.7356
ist	-10.7356
▁converts	-10.7366
position	-10.7366
▁analyzer	-10.7368
▁closer	-10.7369
▁stopper	-10.7369
▁Bio	-10.7372
▁meter	-10.7373
▁axes	-10.7377
▁shoulder	-10.7386
▁1100	-10.7388
▁genetic	-10.739
▁Mo	-10.7392
[2,3-	-10.7399
▁company	-10.7399
▁brain	-10.7406
▁cleavage	-10.7407
▁145	-10.7408
▁crude	-10.7415
▁720	-10.7421
▁nonvolatile	-10.7427
▁wavelengths	-10.7444
CR	-10.7446
▁child	-10.7447
Me	-10.7448
▁Ga	-10.7452
▁sidewalls	-10.7452
▁evaporated	-10.7455
▁demand	-10.7456
▁1-3	-10.7458
▁hair	-10.746
▁accumulation	-10.7462
▁laterally	-10.7463
▁native	-10.7463
▁affected	-10.7464
▁batteries	-10.7478
▁relate	-10.7478
▁protecting	-10.7481
▁neutral	-10.7485
▁advertisement	-10.7487
▁Where	-10.7498
▁substituent	-10.7498
▁costs	-10.7501
▁care	-10.7504
REFERENCE	-10.7507
01	-10.751
▁Many	-10.7518
▁markers	-10.752
▁monomers	-10.7528
▁little	-10.7533
▁appear	-10.7535
▁dividing	-10.7536
▁rotatably	-10.754
▁flip	-10.7542
SC	-10.7546
▁depends	-10.7547
▁accurately	-10.7548
ne	-10.7549
▁dimensional	-10.7553
▁manipulation	-10.7556
▁propagation	-10.7562
▁circle	-10.7562
▁integrity	-10.7569
▁Finally	-10.7573
▁Gln	-10.7575
▁256	-10.7576
▁microscope	-10.7588
▁Two	-10.7589
▁rib	-10.7605
75	-10.7605
only	-10.7609
▁UL	-10.7615
▁biasing	-10.7615
▁catalytic	-10.7616
4,	-10.7617
▁wear	-10.7618
▁matched	-10.7624
▁appreciate	-10.7625
▁calls	-10.7628
▁rendering	-10.7628
▁joining	-10.7632
▁alkali	-10.7636
▁US	-10.7638
▁screening	-10.764
53	-10.764
▁strips	-10.7642
▁references	-10.7642
▁cup	-10.7645
tic	-10.7648
▁swing	-10.765
▁interlayer	-10.765
▁0.0	-10.7654
▁Fe	-10.7655
▁gesture	-10.7655
▁consideration	-10.7656
▁therefrom	-10.7662
▁retrieved	-10.7662
▁satisfied	-10.7664
▁yeast	-10.7664
_1	-10.7664
ative	-10.7665
07	-10.7674
▁music	-10.7674
-7-	-10.7675
▁225	-10.7676
▁emitter	-10.7677
▁vent	-10.768
▁bath	-10.7681
48	-10.7686
▁thermally	-10.7687
▁reports	-10.769
▁powered	-10.7692
▁HPLC	-10.7696
▁CSI	-10.7696
▁threads	-10.7703
▁years	-10.7704
▁eNB	-10.771
▁synchronous	-10.7711
▁fused	-10.7717
▁mixer	-10.7719
▁97	-10.7723
▁axle	-10.7724
PP	-10.7726
▁704	-10.773
▁reflector	-10.7738
▁responses	-10.7745
▁stopped	-10.7749
▁(400	-10.7758
▁additives	-10.7759
▁beta	-10.7762
▁airflow	-10.7767
▁proportion	-10.777
▁suitably	-10.7785
benzyl	-10.7789
68	-10.779
96	-10.7793
▁muscle	-10.7793
▁pipeline	-10.7794
right	-10.7797
▁Test	-10.7801
▁OR	-10.7808
▁4.0	-10.7816
▁twice	-10.7825
▁creation	-10.7825
▁involve	-10.7826
▁TCP	-10.7827
ri	-10.7829
substituted	-10.7831
▁recesses	-10.7833
TA	-10.7836
aryl	-10.7836
▁neighboring	-10.7841
▁servo	-10.7842
RAM	-10.785
▁rapidly	-10.7853
binding	-10.7854
▁802	-10.7861
▁concepts	-10.7862
▁geographic	-10.7864
▁focusing	-10.7866
▁79	-10.7871
ethylene	-10.788
▁polarity	-10.7883
▁PCT	-10.7884
▁marking	-10.7886
▁Ca	-10.7888
▁neck	-10.7888
▁252	-10.7894
▁119	-10.7895
▁permits	-10.7908
▁USA	-10.7911
▁prevention	-10.7913
known	-10.7915
▁decreasing	-10.7915
▁paste	-10.7917
▁capacitive	-10.7918
▁essential	-10.7922
CT	-10.7922
son	-10.7927
▁tubing	-10.7929
▁disks	-10.793
▁overnight	-10.7932
▁polysilicon	-10.7932
▁methacrylate	-10.7939
▁implantable	-10.7939
▁infrastructure	-10.794
▁microwave	-10.7945
▁wild	-10.7948
▁depend	-10.7954
▁earth	-10.7955
▁world	-10.7955
▁traveling	-10.796
▁blank	-10.7962
▁606	-10.7963
▁industry	-10.7965
PA	-10.7972
▁bars	-10.7975
IC	-10.7975
▁optimized	-10.7977
▁shielding	-10.7978
▁managed	-10.7978
▁ramp	-10.7979
▁prepare	-10.798
speed	-10.7982
▁spaces	-10.7988
▁Poly	-10.7989
▁alkynyl	-10.7993
▁inputted	-10.7993
▁optimization	-10.7993
▁exploded	-10.7998
-(2-	-10.8002
▁graphic	-10.8009
▁rapid	-10.8015
▁latency	-10.8027
57	-10.8033
▁macro	-10.8034
▁PA	-10.8034
▁SiO	-10.8035
▁appears	-10.804
▁summary	-10.8043
▁activate	-10.8047
▁discussion	-10.8052
▁OS	-10.8054
▁peer	-10.8056
ip	-10.8063
▁kernel	-10.8068
▁possibility	-10.8068
55	-10.8071
non	-10.8074
▁distortion	-10.8077
▁entered	-10.8077
▁merchant	-10.8081
IR	-10.8085
▁explanation	-10.8087
▁550	-10.8089
▁LEDs	-10.8091
▁5.0	-10.8093
▁built	-10.8097
▁weld	-10.8106
▁intersection	-10.811
▁SW	-10.8112
▁DVD	-10.8113
▁computation	-10.8114
▁limits	-10.8116
▁182	-10.8121
7-	-10.8126
▁acting	-10.813
ch	-10.8135
ING	-10.8141
▁retainer	-10.8141
receiving	-10.8141
▁max	-10.8143
▁viral	-10.8145
▁dimethyl	-10.8147
▁manage	-10.8151
OS	-10.8153
72	-10.8154
▁reproduction	-10.8156
▁sharing	-10.8169
▁lip	-10.817
▁treat	-10.8172
47	-10.8173
▁Related	-10.8177
ite	-10.8189
pyridine	-10.8196
second	-10.8196
▁221	-10.8198
▁temporarily	-10.8198
order	-10.8202
▁metric	-10.8203
▁showed	-10.8213
46	-10.8213
▁attach	-10.8216
▁Those	-10.822
▁engages	-10.822
▁Mar	-10.8222
▁prescribed	-10.8224
▁RT	-10.8224
▁linking	-10.8228
▁HCl	-10.8231
ta	-10.8232
▁varies	-10.8232
▁wearable	-10.8234
▁communicated	-10.8236
▁127	-10.8241
▁grip	-10.8241
/2	-10.8242
▁operably	-10.8257
▁2002	-10.8259
▁age	-10.8259
▁capacitors	-10.8261
voltage	-10.8265
▁alkaline	-10.8271
▁ANISO	-10.8275
33	-10.828
rs	-10.8281
iii	-10.8281
▁true	-10.8283
▁operative	-10.8289
▁live	-10.8292
CN	-10.8293
▁polynucleotides	-10.8294
▁establishing	-10.8297
▁Biol	-10.8301
▁4.5	-10.8303
▁multiplexer	-10.8304
▁gradually	-10.8305
▁offer	-10.8311
▁PE	-10.8313
▁Chemical	-10.8313
▁clean	-10.8314
▁auto	-10.8316
▁modular	-10.8317
▁targeted	-10.8323
▁periodically	-10.8327
▁substantial	-10.8335
▁Document	-10.8336
▁interactions	-10.8338
−1	-10.8338
▁acquire	-10.8343
▁kinds	-10.8345
▁lowered	-10.8346
▁evaporation	-10.8349
▁hydro	-10.8355
▁break	-10.8356
▁industrial	-10.8356
▁traditional	-10.8357
▁variants	-10.836
▁MC	-10.8363
benzene	-10.8363
▁And	-10.8366
▁alkylene	-10.8367
▁absorbing	-10.8372
▁activating	-10.8373
▁soybean	-10.8373
02	-10.8375
▁rise	-10.8377
▁articles	-10.8382
▁tracks	-10.8382
▁initiate	-10.8387
▁Memory	-10.8388
▁transformer	-10.8398
▁ignition	-10.8399
▁electronics	-10.8404
▁termination	-10.8408
▁duty	-10.841
▁recovered	-10.841
▁diagnosis	-10.8413
▁JP	-10.842
▁30%	-10.842
▁potentially	-10.8422
▁he	-10.8423
called	-10.8424
▁actuating	-10.8429
▁induction	-10.8429
port	-10.8432
▁optically	-10.8433
▁sign	-10.8437
▁612	-10.8439
▁St	-10.8439
▁hydrophilic	-10.8441
▁capsule	-10.8442
95	-10.8446
▁Preferred	-10.8448
▁fluorine	-10.8451
▁mid	-10.8452
▁biometric	-10.8455
▁issue	-10.8463
▁substitutions	-10.8467
▁CT	-10.847
▁protect	-10.848
▁confirmed	-10.848
▁flexibility	-10.8481
em	-10.8484
▁cables	-10.8486
▁environments	-10.8489
▁ATOM	-10.8491
86	-10.8491
▁drugs	-10.8507
▁review	-10.851
37	-10.8516
▁guard	-10.8525
me	-10.8529
terminal	-10.8542
▁403	-10.8544
31	-10.855
▁5′-	-10.8552
▁compute	-10.8554
▁Micro	-10.8557
▁0.25	-10.856
▁forwarding	-10.856
▁inch	-10.8563
▁polyurethane	-10.8569
▁kg	-10.8569
▁80%	-10.8572
▁carries	-10.8573
▁genome	-10.8577
▁retrieve	-10.8583
▁EtOAc	-10.8584
▁similarity	-10.8585
▁horizontally	-10.8595
▁coli	-10.8596
▁Both	-10.8597
▁Time	-10.86
”),	-10.8603
▁ratios	-10.8606
▁resilient	-10.8613
▁2004	-10.8614
▁temporal	-10.8616
▁carboxylic	-10.8617
▁orifice	-10.8617
▁ray	-10.8622
▁holds	-10.8627
▁ultrasound	-10.863
▁87	-10.8638
▁sorting	-10.8638
▁Ltd	-10.8644
▁213	-10.8644
▁sputtering	-10.8653
▁Res	-10.8653
ard	-10.8656
8-	-10.8657
▁afford	-10.8664
▁boot	-10.8668
dependent	-10.867
▁Con	-10.8672
▁week	-10.8683
▁depositing	-10.8688
▁implantation	-10.869
sulfonyl	-10.8691
▁transactions	-10.8692
▁oscillation	-10.8693
6-	-10.8696
▁pedal	-10.8705
▁magnets	-10.8706
▁complexes	-10.8707
▁regular	-10.8714
▁inventors	-10.8721
▁toluene	-10.8726
▁Asn	-10.873
defined	-10.8732
ear	-10.8733
▁shifting	-10.8738
▁projections	-10.8741
▁regardless	-10.8743
▁folding	-10.8748
▁decoded	-10.8754
▁Still	-10.8754
oma	-10.8759
▁interconnected	-10.8764
▁linkage	-10.8767
▁−2	-10.8769
▁CC	-10.8773
200	-10.8775
▁initiated	-10.8777
▁′,	-10.8777
▁accessory	-10.8778
▁curves	-10.8783
▁cyano	-10.8789
▁15.	-10.8789
OC	-10.8791
▁PM	-10.8796
▁earlier	-10.8799
Re	-10.8803
▁standards	-10.8803
78	-10.881
ian	-10.8816
▁166	-10.8822
▁weighted	-10.8828
ma	-10.8832
NMR	-10.8837
▁meet	-10.8838
▁loads	-10.8839
▁injector	-10.8845
▁mainly	-10.8846
▁possibly	-10.8847
EC	-10.8849
AD	-10.8853
▁collision	-10.8857
(1	-10.886
′)	-10.8862
5-	-10.8868
▁TE	-10.887
▁pore	-10.8871
▁proportional	-10.8874
▁attenuation	-10.8881
▁conjugate	-10.8882
lin	-10.8886
▁studies	-10.8889
processing	-10.8893
▁extracts	-10.8894
▁provision	-10.8895
▁recent	-10.8895
5%	-10.8905
▁tail	-10.8914
▁(5)	-10.8914
▁projector	-10.8915
▁Likewise	-10.8916
▁minimal	-10.8917
▁starch	-10.8919
▁TV	-10.8923
▁transit	-10.8923
▁422	-10.8923
▁inclination	-10.8925
▁descriptions	-10.8927
500	-10.8928
▁sometimes	-10.8928
▁Pa	-10.8933
▁constitute	-10.8934
▁Sci	-10.8936
▁market	-10.8939
:1,	-10.8941
▁fold	-10.8942
▁311	-10.8943
▁detectable	-10.8945
▁IgG	-10.8951
▁flap	-10.8954
▁Meanwhile	-10.8957
▁158	-10.896
▁regulating	-10.8963
-15	-10.8964
▁228	-10.8964
▁con	-10.8965
▁antisense	-10.8966
▁envelope	-10.8968
▁inward	-10.8971
▁tensile	-10.8975
▁windows	-10.8979
▁immuno	-10.8979
att	-10.8982
ER	-10.8982
▁161	-10.8987
ang	-10.8993
SR	-10.8994
▁almost	-10.8995
▁boron	-10.9006
▁fingerprint	-10.9012
▁40%	-10.9014
▁entirely	-10.9015
▁902	-10.9015
▁diamond	-10.9016
▁suppressed	-10.9016
▁directional	-10.902
▁accumulated	-10.9022
soluble	-10.9029
▁zones	-10.9029
▁buttons	-10.903
88	-10.9031
▁89	-10.9033
▁LAN	-10.9034
▁balloon	-10.9034
▁beads	-10.9038
▁interpreted	-10.904
▁IEEE	-10.9042
▁tone	-10.905
56	-10.905
▁assignment	-10.9052
▁60%	-10.9053
▁We	-10.9055
▁reagents	-10.9058
▁suspended	-10.9058
▁namely	-10.9067
ize	-10.9068
▁meta	-10.9073
▁polyvinyl	-10.9078
▁174	-10.9079
oxide	-10.908
)-1	-10.9083
97	-10.9084
▁GUI	-10.9086
▁effector	-10.9096
ible	-10.9096
▁PCB	-10.9107
▁TS	-10.9113
▁progress	-10.9115
▁Protocol	-10.9121
silane	-10.9122
▁receptors	-10.9127
▁416	-10.9128
▁braking	-10.9136
▁CMOS	-10.9141
▁lost	-10.9141
▁Computer	-10.9146
▁International	-10.9154
day	-10.9154
▁issues	-10.9155
▁207	-10.9159
▁organization	-10.9161
ve	-10.9161
▁albumin	-10.9165
ESI	-10.9166
▁0.03	-10.9169
▁rails	-10.9172
▁Service	-10.9177
▁versus	-10.9185
▁implanted	-10.9188
▁High	-10.919
-(4-	-10.9194
▁pp	-10.9195
▁experiment	-10.9202
▁CP	-10.9202
▁910	-10.9204
Ph	-10.9204
range	-10.9205
▁specifying	-10.9207
▁graft	-10.9212
▁altered	-10.9215
▁17.	-10.9216
▁leaving	-10.9219
▁numeral	-10.9219
▁cord	-10.922
▁6-	-10.922
▁);	-10.9221
▁THF	-10.9222
▁precise	-10.9226
%,	-10.9228
▁fasteners	-10.9232
▁syndrome	-10.9234
▁polar	-10.9247
ell	-10.925
ler	-10.9256
▁seventh	-10.9258
▁specimen	-10.9262
▁knowledge	-10.9262
▁verify	-10.9264
▁pocket	-10.9265
▁234	-10.9268
▁consist	-10.927
▁vacuo	-10.9271
▁facilitates	-10.9276
:2	-10.9279
▁periodic	-10.9284
▁origin	-10.9285
▁linker	-10.9286
▁carriage	-10.9292
▁inhibiting	-10.9294
▁coat	-10.9298
58	-10.9299
▁heterocyclic	-10.9302
▁particulate	-10.9304
▁scanned	-10.9305
io	-10.931
▁New	-10.9311
▁networking	-10.9316
▁siRNA	-10.9318
▁CDR	-10.9321
na	-10.9323
▁diodes	-10.9327
▁availability	-10.9328
▁fresh	-10.9329
light	-10.9335
▁pseudo	-10.9347
▁precision	-10.9347
▁cool	-10.9353
▁mechanically	-10.9357
-(3-	-10.9359
▁exhibits	-10.9361
▁regulation	-10.9363
▁inverted	-10.9364
let	-10.9368
▁dummy	-10.9371
(2-	-10.9374
▁gates	-10.9376
vinyl	-10.9377
▁biomass	-10.938
▁project	-10.9385
▁viewer	-10.9386
▁coatings	-10.9399
▁get	-10.9399
EP	-10.9402
▁elastomer	-10.9402
use	-10.9413
▁differ	-10.9416
pro	-10.942
▁setup	-10.9421
PT	-10.9422
IL	-10.9422
▁satisfy	-10.9425
all	-10.9428
▁retain	-10.9429
▁pulled	-10.9431
wave	-10.9434
▁emit	-10.944
▁dust	-10.9445
▁checking	-10.9448
▁reflect	-10.9449
▁patch	-10.945
2%	-10.945
▁look	-10.9452
▁obtains	-10.9454
▁LTE	-10.9459
▁zoom	-10.9463
▁expressing	-10.9463
▁plus	-10.9463
▁repeat	-10.9465
▁630	-10.9465
▁meant	-10.9466
08	-10.9468
▁denoted	-10.9472
▁315	-10.9473
▁mole	-10.9473
▁bearer	-10.9478
▁8.0	-10.9479
her	-10.9479
▁hyper	-10.9479
▁actuated	-10.9479
phenol	-10.9481
▁nM	-10.9485
▁318	-10.9487
▁broken	-10.949
▁324	-10.9491
BACKGROUND	-10.9492
drain	-10.9492
▁wellbore	-10.95
▁Information	-10.9502
com	-10.9505
lic	-10.9505
▁beverage	-10.9506
▁substitution	-10.9509
▁anhydrous	-10.9509
▁ex	-10.9512
ph	-10.9516
▁configure	-10.9518
SE	-10.9518
▁enhancement	-10.9521
▁understand	-10.9521
▁primarily	-10.9524
▁polypropylene	-10.9524
RE	-10.9525
▁behind	-10.9526
▁refresh	-10.953
▁relationships	-10.9532
▁PREFERRED	-10.9533
▁furnace	-10.9533
▁dark	-10.9534
DI	-10.9534
▁shall	-10.9538
▁turns	-10.9541
▁train	-10.9541
▁ready	-10.9541
CA	-10.9541
view	-10.9542
▁genomic	-10.9542
▁utility	-10.9543
▁231	-10.9548
▁PS	-10.9553
▁cylinders	-10.9557
▁505	-10.9558
air	-10.956
▁constituted	-10.956
poly	-10.9563
▁IN	-10.9566
▁−3	-10.9567
▁grinding	-10.9568
▁locally	-10.9578
ti	-10.9578
with	-10.9582
94	-10.9585
▁insulin	-10.9586
▁”	-10.959
▁delivering	-10.9591
▁sacrificial	-10.9596
▁tilt	-10.96
▁topology	-10.9603
▁coded	-10.9604
SS	-10.9604
TE	-10.9608
conductive	-10.9612
▁Specific	-10.9612
carboxylate	-10.9614
ca	-10.962
▁API	-10.962
▁Water	-10.9627
go	-10.9632
▁handset	-10.9632
▁37°	-10.9633
▁casting	-10.9637
▁atomic	-10.9641
▁vascular	-10.9644
▁Tyr	-10.9647
▁25°	-10.9647
▁moveable	-10.9648
▁bead	-10.965
▁0.1%	-10.9655
▁candidates	-10.9659
▁184	-10.9659
active	-10.9662
▁coolant	-10.9665
▁leaf	-10.9668
▁names	-10.9669
▁buffers	-10.967
bi	-10.9671
membered	-10.9671
▁fabricating	-10.9676
▁insulated	-10.9699
▁complexity	-10.9702
▁lowest	-10.9705
▁baseline	-10.9709
▁arbitrary	-10.9713
▁adaptive	-10.9725
▁quantum	-10.9728
▁ease	-10.973
▁did	-10.973
▁electrons	-10.9731
▁traces	-10.9733
▁Hereinafter	-10.9733
▁153	-10.9737
▁cameras	-10.9738
▁comes	-10.9749
▁DP	-10.9751
▁540	-10.9752
▁practical	-10.9754
▁cushion	-10.9755
La	-10.9756
▁MOS	-10.9756
▁asset	-10.9757
▁syringe	-10.9758
user	-10.9762
▁(100	-10.9762
▁OFDM	-10.9765
▁mix	-10.9769
▁infusion	-10.9771
▁impurities	-10.9773
▁passageway	-10.9773
▁bytes	-10.9775
ence	-10.9775
▁pressurized	-10.9777
▁charges	-10.9778
▁eliminate	-10.9778
▁texture	-10.978
▁inverse	-10.9781
▁binds	-10.9784
direction	-10.9784
TP	-10.9786
▁positional	-10.9795
3%	-10.9796
▁falling	-10.9799
▁moment	-10.98
▁scenario	-10.98
▁interposed	-10.9802
66	-10.9805
▁Block	-10.9808
▁participant	-10.981
▁volumes	-10.981
MP	-10.9811
43	-10.9811
IT	-10.9813
▁question	-10.9815
▁slope	-10.9822
▁abnormal	-10.9823
▁Even	-10.9827
▁lattice	-10.9828
cyclopropyl	-10.9829
▁early	-10.9831
SD	-10.9831
▁hydrochloride	-10.9832
▁corrosion	-10.9838
▁broad	-10.9842
▁thereafter	-10.9843
▁tungsten	-10.9854
ide	-10.9857
▁draw	-10.9858
▁Following	-10.9862
▁nerve	-10.9865
▁therapeutically	-10.987
▁Channel	-10.9871
▁hose	-10.9873
tag	-10.9876
▁seven	-10.9877
▁514	-10.9878
▁ribs	-10.9878
▁memories	-10.9882
▁reporting	-10.9885
▁modeling	-10.9886
▁solenoid	-10.9887
SA	-10.9889
▁therethrough	-10.989
▁cores	-10.9892
▁concurrently	-10.9898
▁utilizes	-10.9898
▁solids	-10.9901
▁polymerase	-10.9902
▁ammonia	-10.9907
▁clarity	-10.9907
▁helical	-10.9907
▁scattering	-10.991
1%	-10.9919
▁601	-10.9926
▁depicting	-10.9932
▁begin	-10.9934
▁804	-10.9937
▁foreign	-10.9945
▁affixed	-10.9953
63	-10.9954
▁DE	-10.9957
▁editing	-10.9957
▁0.7	-10.996
▁exemplified	-10.9962
▁jacket	-10.9962
9-	-10.9965
shown	-10.9968
▁TR	-10.9968
▁sequential	-10.9972
ities	-10.9976
▁replace	-10.9978
▁patterning	-10.9978
▁stock	-10.9978
▁stainless	-10.9982
▁configuring	-10.9988
first	-10.9993
▁printhead	-10.9997
▁Number	-10.9998
▁sector	-11
▁XML	-11.0002
▁reinforcing	-11.0002
▁likelihood	-11.0003
▁spindle	-11.0008
ure	-11.0008
▁mutation	-11.0012
▁tower	-11.0014
▁selectable	-11.0032
▁weather	-11.0033
▁irradiated	-11.0034
(4-	-11.0035
▁marked	-11.0037
▁incorporating	-11.0038
▁Wi	-11.0039
▁2010	-11.0043
▁damping	-11.0043
▁administrator	-11.0046
pyrimidin	-11.005
67	-11.0054
▁PO	-11.0055
49	-11.0058
▁bottle	-11.0059
▁empty	-11.0063
▁website	-11.0064
59	-11.0066
ped	-11.0069
▁dichloromethane	-11.0074
0.5	-11.008
4)	-11.0082
▁reliable	-11.0089
▁PR	-11.0092
▁Gene	-11.0093
▁deck	-11.0093
▁gum	-11.0095
▁370	-11.0095
▁collect	-11.0099
▁tuning	-11.01
CDCl	-11.0101
▁bundle	-11.0102
▁slip	-11.0103
stage	-11.0105
▁principle	-11.0109
▁cast	-11.011
▁successive	-11.0111
DP	-11.0116
▁stops	-11.0117
▁wedge	-11.012
▁gauge	-11.0123
SP	-11.0124
▁presently	-11.0127
▁net	-11.0132
max	-11.0133
▁clearance	-11.0135
▁margin	-11.0136
▁kinase	-11.0137
▁sp	-11.0139
▁Expression	-11.0141
code	-11.0141
▁modulus	-11.0145
▁breast	-11.0145
69	-11.0146
▁successfully	-11.0148
▁molar	-11.0149
▁usable	-11.0151
▁humidity	-11.0153
▁defects	-11.0154
pentyl	-11.0154
piperidin	-11.0154
▁exposing	-11.0161
▁parity	-11.0161
▁pick	-11.0169
▁passages	-11.0172
acetyl	-11.0175
)(	-11.0178
▁uniformly	-11.0183
▁pivotally	-11.0184
os	-11.0185
▁rpm	-11.0191
AG	-11.0194
▁CCD	-11.0194
▁aggregation	-11.02
▁cavities	-11.0202
▁expensive	-11.0202
▁95%	-11.0203
▁NMOS	-11.0209
▁poor	-11.0209
▁challenge	-11.0215
form	-11.0217
▁correcting	-11.0219
▁spiral	-11.0219
▁290	-11.022
▁2001	-11.0224
pyrrolo	-11.0225
▁answer	-11.0233
▁Human	-11.0234
▁rods	-11.024
▁shear	-11.0241
nt	-11.0242
phosphate	-11.0243
▁playing	-11.0244
▁19.	-11.0251
▁repeating	-11.0251
▁spectra	-11.0251
▁60°	-11.0258
▁50°	-11.0258
▁phrase	-11.0259
▁They	-11.026
▁retracted	-11.0266
▁209	-11.0266
▁initiator	-11.0267
▁historical	-11.027
ib	-11.0277
▁frequently	-11.028
▁reel	-11.0281
▁BS	-11.0286
▁contiguous	-11.0286
▁demonstrated	-11.0289
▁compares	-11.0289
▁correspondence	-11.029
▁warning	-11.0301
▁plot	-11.0301
▁evaporator	-11.0305
▁90°	-11.0306
▁2.4	-11.0307
▁collagen	-11.0308
▁messaging	-11.0311
▁seeds	-11.0317
▁her	-11.0328
▁specifies	-11.0331
AM	-11.0332
alkylene	-11.0332
▁delayed	-11.0333
▁quick	-11.0334
▁throughput	-11.0335
▁doping	-11.0343
▁planes	-11.0345
▁suppress	-11.0347
mode	-11.0349
▁practiced	-11.0351
▁carbide	-11.0358
AR	-11.0359
▁aggregate	-11.0366
▁radar	-11.0368
85	-11.037
field	-11.0372
▁benzyl	-11.0373
▁Bluetooth	-11.0373
5,	-11.0376
▁deflection	-11.0379
▁catalysts	-11.0379
▁1.1	-11.0379
▁OD	-11.0383
▁explaining	-11.0384
itis	-11.0385
▁460	-11.0385
▁wells	-11.0388
▁corn	-11.0388
sh	-11.0392
▁nitro	-11.0392
OL	-11.0392
120	-11.0393
▁polyimide	-11.0395
PG	-11.0401
74	-11.0402
▁byte	-11.0406
▁surfactants	-11.0412
value	-11.0412
▁Cells	-11.0416
ap	-11.0418
04	-11.0423
▁608	-11.0423
table	-11.0425
▁PP	-11.0425
NT	-11.0432
▁upwardly	-11.0432
▁wash	-11.0437
tan	-11.0437
▁168	-11.0438
▁650	-11.0438
▁0.9	-11.0438
▁lubricant	-11.0443
41	-11.0445
▁lifting	-11.0446
sub	-11.0447
▁175	-11.0447
▁annealing	-11.045
▁cutter	-11.0452
4%	-11.0452
▁locating	-11.0452
▁tolerance	-11.0453
▁chemically	-11.0456
▁say	-11.046
▁absorbent	-11.0464
▁fixation	-11.0464
54	-11.0464
▁replication	-11.0468
linear	-11.0469
▁sender	-11.0475
▁formulated	-11.0485
▁flask	-11.0486
▁meeting	-11.0488
▁fewer	-11.0488
▁143	-11.0491
▁sequencing	-11.0492
▁extrusion	-11.0494
▁quantities	-11.0495
▁manufacturer	-11.0497
▁(20	-11.0498
▁passenger	-11.0507
▁multiplexing	-11.0508
▁barcode	-11.051
▁emergency	-11.0511
)-4-	-11.0511
mo	-11.0511
GA	-11.0511
▁analyze	-11.0515
circuit	-11.0518
low	-11.0518
▁conditioning	-11.052
▁psi	-11.0521
▁golf	-11.0522
▁tablets	-11.0522
▁PBS	-11.0524
▁PD	-11.0527
42	-11.0527
▁fingers	-11.0527
▁conduction	-11.053
▁distances	-11.0539
scale	-11.054
▁maintains	-11.0541
benzo	-11.055
▁advertising	-11.0553
▁alumina	-11.0556
▁searching	-11.0558
▁Under	-11.0559
▁inventory	-11.056
▁CN	-11.056
▁expandable	-11.0563
▁scheduled	-11.0572
▁grams	-11.0573
▁locate	-11.0576
▁actuators	-11.0576
▁broadcasting	-11.0576
current	-11.0577
acetic	-11.0578
but	-11.0578
▁therewith	-11.0582
▁192	-11.0583
▁partly	-11.0596
▁nor	-11.0602
▁brine	-11.061
▁bladder	-11.0615
▁lung	-11.0617
▁go	-11.062
▁inflammatory	-11.0621
-3′	-11.0624
▁notch	-11.0625
▁cage	-11.0632
▁enhancing	-11.0633
▁situated	-11.0634
▁players	-11.0636
▁weighting	-11.0639
▁bases	-11.0641
▁internet	-11.0645
▁runs	-11.0648
ning	-11.0658
1.1	-11.0661
▁classified	-11.0667
▁extremely	-11.0668
▁ultra	-11.0671
▁reinforcement	-11.0672
▁divider	-11.0672
▁contour	-11.0675
▁accesses	-11.0678
ish	-11.0687
▁pushed	-11.0693
▁transmissions	-11.0693
▁build	-11.0693
▁published	-11.0694
tr	-11.07
▁0.001	-11.0704
▁newly	-11.0713
▁authorization	-11.0715
▁releasing	-11.0716
▁171	-11.0716
▁anhydride	-11.0718
▁gasket	-11.0718
▁people	-11.072
▁artificial	-11.072
▁fluoro	-11.0732
sec	-11.0735
▁sterile	-11.0736
art	-11.0737
▁universal	-11.0739
▁simultaneous	-11.0741
▁elevated	-11.0743
▁met	-11.0752
▁tap	-11.0752
▁laptop	-11.0753
▁handheld	-11.0754
▁extra	-11.0761
▁presenting	-11.0761
▁damper	-11.0762
▁blend	-11.0763
76	-11.0763
▁eliminated	-11.0766
LS	-11.0768
▁widely	-11.0773
▁screws	-11.0776
flow	-11.078
▁express	-11.0784
▁enclosed	-11.0788
000	-11.0789
▁shoe	-11.079
▁convenience	-11.0791
▁Among	-11.0791
▁differs	-11.0796
03	-11.0799
▁dB	-11.0802
▁mammalian	-11.0802
▁ECU	-11.0804
▁):	-11.0805
Na	-11.0806
77	-11.0811
▁Due	-11.0813
▁bend	-11.0813
▁acute	-11.0814
▁synchronized	-11.0816
▁molten	-11.0819
▁tile	-11.0822
▁copies	-11.0824
▁Corporation	-11.083
▁calendar	-11.083
▁cardiac	-11.083
▁conveyance	-11.083
ner	-11.083
▁acetic	-11.0836
▁lane	-11.0837
▁controllers	-11.0839
ox	-11.0839
▁236	-11.0841
▁(50	-11.0842
▁monoclonal	-11.0843
8%	-11.0844
ME	-11.0846
▁Depending	-11.0852
%)	-11.0853
▁relief	-11.0854
▁tabs	-11.0855
▁throttle	-11.0857
▁MP	-11.0857
▁fibrous	-11.0857
▁CDCl	-11.0858
▁greatly	-11.086
:3	-11.0862
▁coaxial	-11.0865
SI	-11.0867
▁100°	-11.0868
▁targeting	-11.0868
▁proceed	-11.0871
▁modem	-11.0872
▁conveyed	-11.0872
▁RS	-11.0877
▁Mass	-11.0877
▁roof	-11.0877
▁cationic	-11.0878
▁goes	-11.0892
▁pen	-11.0904
ci	-11.0904
▁transfers	-11.0905
▁deleted	-11.0905
▁Process	-11.0907
LE	-11.0907
▁condenser	-11.0907
▁believed	-11.0908
linked	-11.091
▁2009	-11.0914
ak	-11.0918
▁longitudinally	-11.0919
▁254	-11.092
▁mutant	-11.0922
▁accommodating	-11.0924
#	-11.0929
▁databases	-11.0932
▁scores	-11.0932
chain	-11.0932
▁2012	-11.0933
▁sleep	-11.0935
MC	-11.0937
5°	-11.094
▁loops	-11.0941
length	-11.0946
▁backing	-11.0947
▁oils	-11.0947
▁styrene	-11.0947
=“	-11.0947
—(	-11.0955
CP	-11.096
▁weights	-11.0962
▁discharging	-11.0964
▁targets	-11.0967
▁daily	-11.0968
▁beneficial	-11.097
▁503	-11.0971
▁checks	-11.0973
▁monitors	-11.0979
▁continued	-11.0979
▁successful	-11.0982
▁1500	-11.0985
▁polarized	-11.0986
▁faster	-11.099
▁packages	-11.0992
▁angled	-11.0995
▁fins	-11.0995
▁droplets	-11.1001
▁responsible	-11.1001
▁statistical	-11.1009
▁comparative	-11.1018
TL	-11.1023
▁nanotube	-11.1023
▁dis	-11.1025
▁download	-11.1028
▁agonist	-11.103
▁exception	-11.1032
▁gives	-11.1032
BP	-11.1033
MA	-11.1033
▁Ph	-11.1034
▁flight	-11.1036
▁NaCl	-11.1036
79	-11.104
-11	-11.1043
GG	-11.1047
▁1.8	-11.105
▁crossing	-11.1051
▁129	-11.1052
7%	-11.1055
▁simulated	-11.106
87	-11.1061
▁Met	-11.1062
▁heads	-11.1065
CL	-11.1066
trans	-11.1069
▁normalized	-11.1079
▁drivers	-11.1083
ward	-11.1083
▁1002	-11.1083
▁neural	-11.1086
▁750	-11.1094
▁optimum	-11.1097
09	-11.1099
▁Not	-11.1101
▁choice	-11.1102
▁NAND	-11.1104
▁GHz	-11.1104
▁codon	-11.1108
piece	-11.1109
▁convenient	-11.1111
▁moieties	-11.1114
▁saline	-11.1114
▁enterprise	-11.1116
▁235	-11.1116
▁cat	-11.1119
color	-11.1126
▁individuals	-11.113
▁coarse	-11.1131
▁absorber	-11.1133
▁Dec	-11.1134
▁limitations	-11.1137
▁alloys	-11.1138
resistant	-11.1139
DL	-11.1143
▁machining	-11.1148
▁approximate	-11.1149
that	-11.1154
▁falls	-11.1158
ran	-11.1162
optical	-11.1163
▁develop	-11.1166
▁MR	-11.1166
▁old	-11.1171
cyclohexyl	-11.1171
▁acquires	-11.1172
▁growing	-11.1175
▁designs	-11.1176
▁damaged	-11.1177
Fi	-11.1178
▁induce	-11.1181
▁club	-11.1182
▁validation	-11.1185
high	-11.119
▁Phase	-11.1193
iso	-11.1194
EL	-11.1195
▁Multiple	-11.1196
▁1,3-	-11.1196
▁encode	-11.1197
▁book	-11.1201
▁Mn	-11.1202
CI	-11.1204
▁routes	-11.1204
▁chronic	-11.1205
▁subjects	-11.1207
▁guidance	-11.121
▁retrieval	-11.121
▁Proc	-11.1213
”).	-11.1216
▁backbone	-11.1216
▁712	-11.1221
▁Sub	-11.1221
▁gelatin	-11.1221
▁polarizer	-11.1222
▁droplet	-11.1223
BL	-11.1224
▁(300	-11.1224
▁oxides	-11.1226
▁dd	-11.1228
▁feeder	-11.1238
▁Bi	-11.1238
▁antagonist	-11.124
ga	-11.124
An	-11.1241
▁SA	-11.1242
▁Pre	-11.1243
▁Jun	-11.1244
▁820	-11.1245
▁confidence	-11.1247
▁reality	-11.1249
▁176	-11.125
human	-11.1255
▁marks	-11.1259
▁peaks	-11.126
▁epitaxial	-11.1261
▁25%	-11.1266
▁His	-11.1266
▁great	-11.1267
▁airbag	-11.1268
▁modulating	-11.1268
▁motors	-11.1275
▁respond	-11.1277
▁reacting	-11.1281
ens	-11.1285
▁organism	-11.1292
▁2%	-11.1294
▁trajectory	-11.1296
term	-11.1299
05	-11.1302
ha	-11.1306
agg	-11.1306
▁ridge	-11.1307
SM	-11.1311
▁excessive	-11.1311
▁lack	-11.1315
▁benefits	-11.1315
▁indicators	-11.1315
=0	-11.1316
9%	-11.1319
▁PUCCH	-11.1321
▁peroxide	-11.1321
▁165	-11.133
)-1-	-11.1332
▁fuse	-11.1336
▁Calif	-11.1337
▁hierarchical	-11.1342
▁evaluating	-11.1348
▁transportation	-11.1349
▁(6	-11.1354
through	-11.1354
▁discovery	-11.1355
▁trap	-11.1356
▁DB	-11.1357
▁latching	-11.1362
▁rays	-11.1362
0%	-11.1369
tion	-11.1369
carboxamide	-11.137
▁categories	-11.1373
▁ng	-11.1376
ON	-11.1376
▁6.5	-11.1381
▁clients	-11.1383
▁saturation	-11.1384
▁overhead	-11.1387
▁SS	-11.1388
-1,3-	-11.1388
▁splitter	-11.1389
52	-11.1395
▁conjugated	-11.1395
▁finished	-11.1399
▁liver	-11.1408
▁alternately	-11.1408
▁haptic	-11.1412
▁superior	-11.1412
▁mineral	-11.1414
▁migration	-11.1414
▁pumping	-11.1417
▁interfere	-11.1418
▁Layer	-11.1418
▁displaced	-11.1421
▁remotely	-11.1426
▁deposit	-11.143
▁app	-11.1431
▁accept	-11.1433
fluorophenyl	-11.1434
▁WL	-11.1434
▁904	-11.1436
alkoxy	-11.144
▁Cys	-11.1441
06	-11.1442
▁URL	-11.1446
110	-11.1452
▁alter	-11.1457
▁vessels	-11.1458
▁solubility	-11.1462
▁concrete	-11.1465
▁expose	-11.1466
▁situations	-11.1467
▁Mobile	-11.1468
▁Sequence	-11.1471
LC	-11.1471
▁reasons	-11.1475
▁circulation	-11.1476
▁shelf	-11.1477
▁1010	-11.1478
▁Sep	-11.1478
▁Mol	-11.1479
▁yl	-11.148
▁atmospheric	-11.148
▁thio	-11.148
▁surrounded	-11.1482
▁trade	-11.1484
▁feet	-11.1484
▁repeatedly	-11.1486
▁formats	-11.1486
▁0.15	-11.1488
▁olefin	-11.1488
▁cooking	-11.1494
▁exceed	-11.1495
pre	-11.1496
▁706	-11.1497
=2	-11.1498
▁Cr	-11.1499
▁(6)	-11.1502
▁classes	-11.1505
▁currents	-11.1508
▁wood	-11.1519
▁hardness	-11.152
93	-11.1521
▁0.04	-11.153
gate	-11.1536
▁confirmation	-11.1539
CS	-11.154
▁themselves	-11.1541
▁locus	-11.1541
▁1-2	-11.1542
▁IF	-11.1544
▁alcohols	-11.1544
▁regulatory	-11.1551
▁mill	-11.1551
▁explanatory	-11.1553
▁strings	-11.1557
ping	-11.1557
▁leak	-11.1559
▁removably	-11.1559
▁solve	-11.156
▁730	-11.1561
▁snap	-11.1566
▁Se	-11.1568
UE	-11.1573
▁hydrocarbons	-11.1574
▁custom	-11.1577
,5	-11.1579
▁(%)	-11.1579
▁gaseous	-11.1589
stranded	-11.1589
li	-11.159
73	-11.1593
▁Science	-11.1594
▁platinum	-11.1594
▁directing	-11.1603
▁244	-11.1605
▁transgenic	-11.1606
▁connectivity	-11.1606
▁HTTP	-11.1611
▁aligning	-11.1612
pyrazol	-11.1617
▁stiffness	-11.1621
▁satisfies	-11.1624
▁micron	-11.1624
MM	-11.1626
▁flex	-11.163
▁prism	-11.1633
▁graphite	-11.1637
ps	-11.164
▁adsorption	-11.1642
▁80°	-11.1642
▁kHz	-11.1642
▁mutations	-11.1643
▁authorized	-11.1648
▁baseband	-11.1653
▁magnetization	-11.1656
▁Image	-11.1665
TC	-11.1665
▁dead	-11.1671
▁elastomeric	-11.1673
▁Ba	-11.1674
▁blocked	-11.1675
89	-11.1678
furo	-11.1683
▁experimental	-11.1683
▁constraints	-11.1686
▁customers	-11.1688
′-	-11.169
implemented	-11.169
▁toxin	-11.1692
▁tin	-11.1692
▁absorbed	-11.1693
▁gaps	-11.1695
▁1300	-11.1695
▁pointing	-11.1695
▁anisotropic	-11.1696
▁deletion	-11.1696
▁balls	-11.1702
400	-11.1704
-13	-11.1705
nd	-11.1708
▁crosslinking	-11.1711
▁trailing	-11.1714
▁STA	-11.1715
,6	-11.1719
▁IoT	-11.1725
▁flame	-11.1726
▁permitted	-11.1726
▁transported	-11.1729
▁react	-11.1731
DS	-11.1732
▁suppression	-11.1732
po	-11.1733
▁REFERENCE	-11.1739
▁70%	-11.1742
▁paint	-11.1747
▁eq	-11.1749
▁downwardly	-11.1751
▁urea	-11.1751
▁tumors	-11.1752
▁sulfide	-11.1752
▁GaN	-11.1754
▁criterion	-11.1756
link	-11.176
lu	-11.1761
▁secret	-11.1765
▁ADC	-11.177
▁saving	-11.1774
▁stamp	-11.1775
▁Instead	-11.178
▁burst	-11.1782
▁640	-11.1788
▁geometric	-11.179
▁en	-11.179
sis	-11.1794
AS	-11.1798
▁oven	-11.1798
▁Comp	-11.1802
600	-11.1812
▁Ta	-11.1812
▁microcontroller	-11.1816
nitro	-11.1822
OP	-11.1822
▁OC	-11.1825
▁attempts	-11.1825
▁rising	-11.1829
induced	-11.1836
00°	-11.1839
▁reproducing	-11.184
▁indirectly	-11.184
▁332	-11.1843
▁Light	-11.1844
▁drops	-11.1846
▁butyl	-11.1847
ised	-11.1847
▁consecutive	-11.1849
▁3.2	-11.185
▁AA	-11.1851
▁collectively	-11.1852
▁involving	-11.186
system	-11.1863
▁focused	-11.1863
▁ionic	-11.1864
▁15%	-11.1865
▁facilitating	-11.1871
▁realize	-11.1875
▁transporting	-11.1878
▁insect	-11.1882
▁referenced	-11.1883
ke	-11.1887
▁resistors	-11.1889
▁electrochemical	-11.1896
RP	-11.1897
▁inclusion	-11.1901
▁PWM	-11.1904
▁immunoglobulin	-11.1907
▁planetary	-11.1908
▁arrows	-11.1911
▁polarizing	-11.1914
▁sec	-11.1915
▁passivation	-11.192
▁pulling	-11.1929
▁exact	-11.1931
▁transmittance	-11.1932
▁Acad	-11.1933
▁clusters	-11.1935
▁acidic	-11.1936
▁516	-11.1938
▁statistics	-11.1938
cal	-11.1938
ix	-11.1942
▁325	-11.1946
▁configurable	-11.1948
▁queries	-11.195
▁Tr	-11.1952
▁closest	-11.1954
▁cement	-11.1957
▁equally	-11.1959
▁crank	-11.1964
▁membranes	-11.1964
▁adhered	-11.1967
▁326	-11.1976
▁providers	-11.198
▁OFF	-11.198
▁ms	-11.198
▁dopant	-11.198
▁418	-11.1983
▁saw	-11.1983
▁fixture	-11.1986
▁symptoms	-11.199
about	-11.1991
▁proliferation	-11.1993
▁repository	-11.1993
▁223	-11.1997
▁CVD	-11.1998
▁MPa	-11.1999
▁cobalt	-11.2002
▁desktop	-11.2006
▁614	-11.2007
▁Server	-11.2008
▁255	-11.2009
RA	-11.201
▁safe	-11.2015
▁listing	-11.2015
▁resistive	-11.2016
▁Sample	-11.2018
61	-11.2022
▁262	-11.2025
▁months	-11.2025
▁preview	-11.2027
62	-11.2029
▁constituent	-11.203
chip	-11.2032
-14	-11.2032
▁interpolation	-11.2037
▁redundant	-11.204
▁closely	-11.2042
▁Analysis	-11.2043
stream	-11.2047
7.5	-11.2048
0.3	-11.2048
300	-11.2053
plate	-11.2054
▁owner	-11.2061
▁persons	-11.2063
▁replica	-11.2066
▁visually	-11.207
▁phenol	-11.2072
(2	-11.2073
ob	-11.2081
ty	-11.2084
▁initialization	-11.2084
▁FET	-11.2086
▁vaccine	-11.2092
▁applicator	-11.2099
▁tier	-11.2099
▁NM	-11.2102
▁packaged	-11.2107
3.1	-11.2111
2.1	-11.2114
▁principal	-11.2114
▁generic	-11.2118
SF	-11.2122
▁linearly	-11.2123
▁321	-11.2126
TI	-11.2126
▁undesirable	-11.213
▁preference	-11.2131
▁office	-11.2132
▁attack	-11.2134
derived	-11.2135
▁incorporate	-11.2135
▁style	-11.2143
▁137	-11.2146
ast	-11.2147
▁evaluate	-11.2148
▁doses	-11.2149
▁May	-11.215
▁initiation	-11.2155
source	-11.2156
▁Press	-11.2158
▁6.0	-11.2158
fu	-11.2159
PO	-11.2159
▁circumstances	-11.2161
▁TM	-11.2163
84	-11.217
OX	-11.2173
▁pouch	-11.2173
▁minor	-11.2174
▁replacing	-11.2174
▁filtrate	-11.218
ho	-11.2188
▁Multi	-11.2188
▁rearward	-11.2198
▁tend	-11.2199
▁CS	-11.2199
—,	-11.2201
▁carcinoma	-11.2204
▁dots	-11.2205
▁randomly	-11.221
▁roughness	-11.2212
▁biased	-11.2213
▁ideal	-11.2222
▁AF	-11.2223
▁photovoltaic	-11.2224
▁multiplexed	-11.2226
▁timestamp	-11.2228
▁remainder	-11.2231
red	-11.2235
▁(0.1	-11.224
▁Per	-11.2241
′,	-11.2246
▁Acid	-11.2248
Ga	-11.225
▁amide	-11.2252
▁drawer	-11.2257
plane	-11.2263
▁ca	-11.2267
▁encodes	-11.2268
bar	-11.2269
▁detectors	-11.2269
▁overcome	-11.227
▁Thereby	-11.227
▁Ge	-11.2272
IS	-11.2273
▁chlorine	-11.2275
▁estimates	-11.2278
001	-11.2279
▁receivers	-11.2287
6)	-11.2289
▁land	-11.2289
▁cyclo	-11.2291
▁DCM	-11.2301
▁0.08	-11.2302
▁VL	-11.2303
▁metrics	-11.2303
SH	-11.2306
▁cladding	-11.2307
lk	-11.2308
▁equations	-11.231
tetra	-11.2315
▁Particularly	-11.2321
▁rating	-11.2322
▁Systems	-11.2322
▁mirrors	-11.2331
▁186	-11.2331
▁note	-11.2336
where	-11.2343
▁importance	-11.2345
▁nose	-11.2351
terminus	-11.2357
▁Protein	-11.2358
write	-11.2363
▁CL	-11.2365
▁1.7	-11.2366
▁specificity	-11.2369
▁feedstock	-11.2371
▁411	-11.2382
▁Use	-11.2387
ical	-11.2393
▁rendered	-11.2395
▁deterioration	-11.2396
▁spacers	-11.2396
IM	-11.2396
▁triggered	-11.2397
▁symmetric	-11.2399
▁incubation	-11.24
▁se	-11.2401
▁inwardly	-11.2401
▁OUT	-11.2404
▁mammal	-11.2404
▁FOR	-11.2406
▁span	-11.2408
▁slidably	-11.2409
▁Oct	-11.2409
▁preferences	-11.241
ata	-11.2411
0,	-11.242
▁medicament	-11.2422
/10	-11.2426
determined	-11.2427
▁“1”	-11.243
▁isopropyl	-11.2434
▁acetonitrile	-11.2439
▁diethyl	-11.2439
▁ACK	-11.244
▁reacted	-11.2441
ce	-11.2444
▁decode	-11.2445
▁oxidizing	-11.2448
▁interrupt	-11.2448
▁380	-11.245
ates	-11.2451
6%	-11.2453
▁Nd	-11.2457
▁know	-11.246
▁console	-11.2461
▁0.06	-11.2465
▁contacted	-11.2466
dichloro	-11.2469
▁electricity	-11.247
CU	-11.2472
log	-11.2477
image	-11.2479
▁welded	-11.248
gel	-11.248
ud	-11.2482
▁pores	-11.249
-100	-11.2492
▁strains	-11.2492
▁freely	-11.2494
PI	-11.2496
▁238	-11.2496
▁waiting	-11.2499
▁assistant	-11.2502
▁delta	-11.2504
▁0.5%	-11.2508
▁encapsulated	-11.2511
▁quantization	-11.2513
▁speeds	-11.2515
ver	-11.2515
▁phosphor	-11.2517
▁inkjet	-11.252
ot	-11.2524
▁anterior	-11.2526
▁aggregated	-11.2528
▁counting	-11.2529
6,	-11.2532
▁75%	-11.2535
▁assessment	-11.254
▁automobile	-11.2541
▁exercise	-11.2542
▁Similar	-11.2542
▁deformed	-11.2542
▁1:1	-11.2543
modified	-11.2544
▁indicia	-11.2545
▁employs	-11.2545
gene	-11.2548
▁hr	-11.2554
▁weak	-11.2556
▁trip	-11.2557
BA	-11.2558
▁assigning	-11.2564
▁lowering	-11.2564
▁MIMO	-11.2566
▁saved	-11.2571
▁unnecessary	-11.2571
▁aerosol	-11.2578
-21	-11.2582
▁dispersing	-11.2583
car	-11.2585
▁border	-11.259
RNA	-11.2597
▁Results	-11.2598
▁SF	-11.2601
▁combine	-11.2602
NS	-11.2605
▁tongue	-11.2611
▁1,4-	-11.2614
▁TA	-11.2616
▁701	-11.2616
▁vol	-11.2624
▁communicatively	-11.2624
▁MB	-11.2628
functional	-11.2628
▁slowly	-11.2636
▁hydrolysis	-11.2637
▁)—	-11.2638
0,000	-11.2649
▁electrolytic	-11.265
▁deformable	-11.2651
▁endoscope	-11.2652
▁amplifiers	-11.2653
▁gears	-11.2657
▁Turning	-11.2658
▁complement	-11.2661
▁IT	-11.2671
▁shot	-11.2675
▁cursor	-11.2677
▁vision	-11.2679
-1)	-11.2684
▁AS	-11.2684
▁MOSFET	-11.269
▁trenches	-11.2694
▁judgment	-11.2703
▁correlated	-11.2706
▁yarn	-11.2706
▁preamble	-11.2717
Pro	-11.2717
▁reserved	-11.2724
1.5	-11.2728
▁promote	-11.2736
▁colored	-11.2741
HT	-11.2742
▁brand	-11.2744
▁unknown	-11.2745
▁ch	-11.2745
▁backward	-11.2755
▁transitions	-11.2756
▁standby	-11.2757
▁burner	-11.2759
/1	-11.2759
▁representations	-11.2761
isation	-11.2764
▁vs	-11.2764
liquid	-11.2765
▁Part	-11.2766
▁MT	-11.2766
pixel	-11.2767
▁mouth	-11.2776
▁drift	-11.2776
DNA	-11.2777
▁wafers	-11.2777
▁securely	-11.2778
GPP	-11.2779
pr	-11.2782
▁mutually	-11.2785
▁313	-11.2787
▁belongs	-11.2787
/4	-11.2789
▁penetration	-11.279
130	-11.279
▁suggested	-11.2793
▁idle	-11.2794
▁1110	-11.2795
▁living	-11.2796
tin	-11.2797
▁arcuate	-11.2803
▁nominal	-11.2806
ification	-11.2807
3.0	-11.2808
▁launch	-11.281
:5	-11.2812
▁neuro	-11.2815
head	-11.2817
▁Molecular	-11.2818
▁Operation	-11.2826
▁522	-11.2827
▁glycerol	-11.2829
▁lies	-11.283
▁springs	-11.2831
▁constraint	-11.2834
aza	-11.2834
MD	-11.2835
▁fermentation	-11.2837
do	-11.2841
▁surgery	-11.2842
▁Processing	-11.2845
▁eighth	-11.2845
▁pivoting	-11.2847
▁drag	-11.285
carbon	-11.2853
VA	-11.2855
ie	-11.2856
enyl	-11.2856
▁[1	-11.2856
▁HC	-11.2861
▁fundamental	-11.2865
▁checked	-11.2869
▁portal	-11.2869
▁dataset	-11.2872
▁shafts	-11.2873
▁UI	-11.2877
▁carboxyl	-11.2878
▁708	-11.2881
▁Power	-11.2883
base	-11.2883
▁viewpoint	-11.2884
CM	-11.2884
▁cultured	-11.2887
film	-11.2888
▁DMF	-11.2891
▁scaling	-11.2891
▁tetrahydrofuran	-11.2892
▁expand	-11.2893
▁outcome	-11.2895
▁argon	-11.2897
▁encompasses	-11.2898
prop	-11.2898
TR	-11.2899
▁finding	-11.2901
▁2008	-11.2902
lower	-11.2903
▁exclusive	-11.2904
▁stick	-11.2907
▁electronically	-11.2907
▁precisely	-11.2908
▁fractions	-11.291
▁1:	-11.2912
−1)	-11.2918
▁2013	-11.2921
▁nuclear	-11.2923
▁efficacy	-11.2924
led	-11.2926
▁1.3	-11.2927
▁pan	-11.2932
▁adequate	-11.2934
control	-11.2935
▁belonging	-11.2936
▁vial	-11.2937
▁maps	-11.2946
▁424	-11.2947
▁permission	-11.2956
▁crystallization	-11.2958
▁oxidized	-11.2958
▁wearer	-11.2959
▁1.6	-11.2959
▁purity	-11.2962
3.5	-11.2965
▁chloro	-11.2969
ins	-11.2971
▁Rather	-11.2972
▁480	-11.2972
ba	-11.2972
▁sustain	-11.298
temperature	-11.2981
▁failed	-11.2983
▁warm	-11.2987
▁optimize	-11.2987
▁ND	-11.2989
▁specifications	-11.2991
metal	-11.2992
▁ferromagnetic	-11.2998
▁3.3	-11.3
▁edit	-11.3002
resolution	-11.3002
▁stacking	-11.3003
▁241	-11.3003
▁Apparatus	-11.3004
▁IPv	-11.3006
▁2.3	-11.3008
▁251	-11.3008
display	-11.3009
▁Plant	-11.3011
ans	-11.3011
▁isolating	-11.3013
MI	-11.3016
▁terminated	-11.3018
▁Nature	-11.3019
▁achieving	-11.3019
▁twenty	-11.3019
▁boundaries	-11.3019
▁dosing	-11.3021
▁Most	-11.3022
▁encompass	-11.3026
▁Certain	-11.3026
▁1400	-11.303
▁806	-11.3031
▁spreading	-11.3035
▁jaw	-11.3038
▁injecting	-11.3043
▁aberration	-11.3045
▁buried	-11.3047
Example	-11.305
prediction	-11.305
▁spinal	-11.3052
▁effected	-11.3054
▁RE	-11.3057
▁SR	-11.3057
propane	-11.3059
▁establishment	-11.3059
EN	-11.3061
▁gamma	-11.3061
▁labels	-11.3065
▁wider	-11.3068
▁washer	-11.3068
Co	-11.3076
1.0	-11.3076
pt	-11.3077
▁SD	-11.3078
▁sales	-11.3081
▁40°	-11.3082
▁gray	-11.3087
▁vane	-11.3087
▁places	-11.309
▁engines	-11.309
▁MEMS	-11.3093
▁race	-11.3093
▁confirm	-11.3094
▁IM	-11.3094
▁gripping	-11.3095
▁instruments	-11.3096
▁Aug	-11.3096
flop	-11.31
▁obstacle	-11.31
PEG	-11.3101
▁grade	-11.3102
meter	-11.3106
▁branches	-11.3106
▁scattered	-11.3107
▁accelerator	-11.3109
▁coal	-11.3109
NA	-11.3114
▁Un	-11.3117
▁policies	-11.3122
▁knob	-11.3129
▁Cancer	-11.3129
▁improves	-11.313
▁transient	-11.3133
▁baffle	-11.3135
hr	-11.3142
▁acetyl	-11.3144
ified	-11.315
)-(	-11.3154
▁HARQ	-11.3155
▁2006	-11.3156
92	-11.3156
▁ensures	-11.3157
▁indium	-11.3169
51	-11.3169
▁cc	-11.317
▁PDCCH	-11.3176
▁precipitate	-11.3178
▁odd	-11.3178
▁hetero	-11.3193
▁sole	-11.3193
purpose	-11.3196
▁goal	-11.32
▁mat	-11.3202
▁Inter	-11.3205
0.2	-11.3206
91	-11.3213
▁retrieving	-11.3213
▁asymmetric	-11.3214
▁99%	-11.3215
▁regarded	-11.3217
1.2	-11.3221
treated	-11.3222
▁robotic	-11.3223
▁parasitic	-11.3223
linking	-11.3227
wise	-11.3228
▁sun	-11.3233
▁605	-11.3234
▁thermoelectric	-11.3234
▁5.5	-11.3237
▁depression	-11.324
ane	-11.324
▁optics	-11.3241
TH	-11.3243
IF	-11.3245
▁posts	-11.3245
▁tends	-11.3248
▁boom	-11.3248
▁Anti	-11.3252
cyano	-11.3252
domain	-11.3252
▁nine	-11.3254
▁purchased	-11.3254
ons	-11.3255
▁quantitative	-11.3256
▁0.07	-11.3261
▁assume	-11.3261
▁promoters	-11.3266
▁volts	-11.3268
▁trusted	-11.3272
▁void	-11.3274
▁knee	-11.3276
▁fixedly	-11.328
▁autonomous	-11.328
▁pictures	-11.3289
▁Pd	-11.329
▁screens	-11.3292
▁Current	-11.3294
▁3.6	-11.3294
▁Compounds	-11.3298
▁author	-11.3298
▁85%	-11.3298
▁customized	-11.3299
▁cysteine	-11.33
▁wake	-11.3303
▁para	-11.3305
▁posture	-11.3305
DM	-11.3306
SG	-11.3307
▁corners	-11.331
▁inflatable	-11.3311
▁decomposition	-11.3311
▁antimicrobial	-11.3311
▁Java	-11.3312
▁keeping	-11.3314
▁absent	-11.3318
▁352	-11.3318
▁1999	-11.3319
▁suited	-11.332
▁Dis	-11.3322
anti	-11.3322
hand	-11.3329
power	-11.3332
ick	-11.3333
4.5	-11.3334
▁estimating	-11.3339
▁offers	-11.3341
▁false	-11.3343
▁consider	-11.3345
▁silane	-11.3346
▁heteroatoms	-11.3348
▁backlight	-11.3349
ice	-11.3352
▁digit	-11.3357
▁lists	-11.3359
path	-11.3359
protein	-11.3359
▁Sodium	-11.3361
▁lookup	-11.3362
▁PMOS	-11.3362
▁thermo	-11.3363
▁CG	-11.3367
▁rat	-11.337
indole	-11.3373
ack	-11.3374
▁returning	-11.3374
uc	-11.3378
▁magneto	-11.3379
▁crystals	-11.3383
▁920	-11.3386
▁Flow	-11.3389
▁consumed	-11.3391
▁slides	-11.3395
ow	-11.3402
▁JA	-11.3403
-0	-11.3404
▁engineered	-11.3404
GS	-11.3405
▁sampled	-11.3407
▁CB	-11.3408
ov	-11.3412
▁releasably	-11.3417
▁photodiode	-11.3417
▁So	-11.3423
▁mandrel	-11.3424
▁boxes	-11.3425
▁HF	-11.3437
▁heterocyclyl	-11.3438
▁downloaded	-11.3438
▁pneumatic	-11.3443
▁couples	-11.3445
▁compensate	-11.3446
▁Advantageously	-11.3453
▁pipes	-11.3456
▁Nov	-11.3457
aca	-11.3458
▁externally	-11.3459
▁Interface	-11.346
▁penetrating	-11.346
sc	-11.3462
▁injury	-11.3467
▁classifier	-11.3468
PR	-11.3471
ile	-11.3472
▁purge	-11.3474
ylmethyl	-11.3478
▁expressly	-11.3478
▁wax	-11.3478
▁fluoride	-11.348
83	-11.3481
▁incidence	-11.3481
▁General	-11.3482
coming	-11.3483
izer	-11.3488
▁chimeric	-11.3503
▁hearing	-11.3504
▁visualization	-11.3505
▁br	-11.3505
▁constitutes	-11.3506
▁elapsed	-11.3511
▁stopping	-11.3511
▁leaves	-11.3512
ay	-11.3514
executable	-11.3517
▁hormone	-11.3521
800	-11.3523
▁compliance	-11.3524
▁245	-11.3526
▁conduct	-11.3527
▁gun	-11.353
160	-11.3531
inter	-11.3532
▁missing	-11.3534
▁scheduler	-11.3535
DR	-11.3536
ric	-11.3544
most	-11.3544
▁wirelessly	-11.3545
▁Med	-11.3547
IG	-11.3547
▁Jan	-11.3548
▁epitope	-11.3551
▁regulated	-11.3552
dr	-11.3552
AA	-11.3556
▁NCL	-11.3575
▁majority	-11.3577
▁Jul	-11.3579
▁forced	-11.3579
▁NT	-11.358
:4	-11.358
▁%)	-11.3581
▁pawl	-11.3582
▁explicitly	-11.3583
▁VH	-11.3586
▁pay	-11.3588
▁examination	-11.3589
▁616	-11.359
▁powders	-11.3593
▁01	-11.3595
▁research	-11.3597
associated	-11.3601
▁grains	-11.3604
▁supplemental	-11.3607
▁188	-11.3608
▁2003	-11.3613
RL	-11.3615
▁20°	-11.3623
▁Total	-11.3627
▁Laid	-11.3627
magnetic	-11.3629
▁470	-11.3633
+1)	-11.3643
▁float	-11.3646
▁polycarbonate	-11.3648
▁Natl	-11.3649
▁medication	-11.3649
GT	-11.3654
▁bushing	-11.3656
▁milling	-11.3656
▁largest	-11.366
▁recommended	-11.366
▁spool	-11.3662
▁advances	-11.3669
▁1.4	-11.3671
▁align	-11.3671
7,	-11.3671
5.0	-11.3674
▁dyes	-11.3674
▁conical	-11.3675
▁334	-11.3679
▁posterior	-11.3682
▁fastened	-11.3685
▁Am	-11.369
lan	-11.3693
▁reflux	-11.3693
LP	-11.3695
▁publication	-11.3696
▁guides	-11.3696
▁palladium	-11.3698
▁capsules	-11.3699
are	-11.3702
1.3	-11.3703
▁reside	-11.3706
▁render	-11.3707
▁intervention	-11.3713
[4,3-	-11.3713
▁adds	-11.372
▁insufficient	-11.3721
▁Sp	-11.3724
qui	-11.3732
tgg	-11.3735
▁triangular	-11.3735
yloxy	-11.3738
▁bromide	-11.3741
▁560	-11.3745
▁examined	-11.3745
▁UEs	-11.375
▁nanoparticle	-11.3752
▁ES	-11.3757
GE	-11.3764
connected	-11.3764
▁depict	-11.3767
LD	-11.3769
▁geo	-11.3773
▁comb	-11.3776
▁thrust	-11.3778
▁adaptor	-11.3781
▁joints	-11.3782
▁Read	-11.3783
▁7.5	-11.3784
▁join	-11.3784
▁calling	-11.3786
▁entrance	-11.3786
▁differentiation	-11.3796
▁ART	-11.38
▁Pr	-11.3803
▁ballistic	-11.3809
81	-11.3811
▁TFA	-11.3815
8,	-11.3816
▁sealant	-11.3817
▁Otherwise	-11.3817
arm	-11.3818
▁worm	-11.3819
▁likewise	-11.382
▁waveforms	-11.3821
2.5	-11.3823
▁graphene	-11.3826
component	-11.3828
-16	-11.3831
▁circulating	-11.3836
▁Liquid	-11.3837
pin	-11.3841
▁307	-11.3842
GL	-11.3842
▁fix	-11.3843
▁propyl	-11.3847
▁script	-11.3849
▁amplifying	-11.385
▁rounded	-11.3851
▁latent	-11.3853
▁recover	-11.3854
manufactured	-11.3855
-18	-11.3857
▁clone	-11.3861
▁breaker	-11.3861
▁thresholds	-11.3863
▁LD	-11.3864
▁2.1	-11.3865
▁191	-11.3866
▁HA	-11.3868
▁latex	-11.3869
▁man	-11.387
▁hydrochloric	-11.3875
▁wing	-11.3877
▁labeling	-11.3878
▁slice	-11.3878
▁Composition	-11.3879
rad	-11.3879
▁filament	-11.3881
▁ligands	-11.3882
fa	-11.3891
▁bearings	-11.3893
-30	-11.3895
▁introduce	-11.39
▁178	-11.3903
▁4.2	-11.3907
▁gallium	-11.3913
RD	-11.3913
▁reaching	-11.3915
▁rare	-11.3918
)-7-	-11.3919
71	-11.3923
▁concerning	-11.3924
ue	-11.3926
4.1	-11.3927
▁icons	-11.3933
▁smartphone	-11.3935
▁cabinet	-11.3935
▁convey	-11.3936
▁organ	-11.3937
isopropyl	-11.3947
▁mini	-11.3949
▁1020	-11.395
▁1102	-11.3955
▁APPLICATION	-11.3958
▁charger	-11.3959
▁Or	-11.3963
▁analogous	-11.3963
▁partitions	-11.3964
▁hierarchy	-11.3965
▁thicknesses	-11.3968
▁VLAN	-11.3968
▁recently	-11.3971
▁812	-11.3973
▁truck	-11.3976
▁194	-11.3977
LT	-11.3987
BS	-11.3987
▁endonuclease	-11.3988
▁DSP	-11.3988
▁FGF	-11.3991
▁7.0	-11.3994
▁differently	-11.3999
▁benzene	-11.4001
gram	-11.4002
▁217	-11.4002
▁inductance	-11.4003
ET	-11.4006
▁docking	-11.4013
▁calculations	-11.4015
▁versions	-11.403
▁0.10	-11.4031
▁games	-11.4033
heterocycloalkyl	-11.4035
▁downhole	-11.4035
▁tracked	-11.4038
EM	-11.4041
▁originating	-11.4041
▁Communication	-11.4047
▁microfluidic	-11.4048
aaaa	-11.405
▁ranking	-11.4054
DA	-11.4057
▁163	-11.4058
▁upright	-11.406
▁associate	-11.406
▁precursors	-11.4062
▁chromosome	-11.4063
▁directory	-11.4065
▁isocyanate	-11.4068
coupled	-11.4069
▁assistance	-11.4072
▁blending	-11.4074
▁housed	-11.4078
▁stereo	-11.4079
fer	-11.4082
▁coffee	-11.4086
▁blind	-11.4088
▁analogs	-11.4092
alpha	-11.4097
▁correspondingly	-11.4098
▁pellet	-11.4098
▁occupant	-11.4101
▁Sn	-11.4102
PL	-11.4102
▁kDa	-11.4106
▁conditional	-11.411
▁polyamide	-11.411
▁verified	-11.4117
-[	-11.4119
▁acyl	-11.4119
▁inactive	-11.4122
▁Feb	-11.4122
▁emits	-11.4123
▁HDD	-11.4123
▁415	-11.4127
▁permeability	-11.4128
▁movements	-11.4129
▁beneath	-11.4131
AB	-11.4131
▁dental	-11.4133
▁147	-11.4134
▁nanowires	-11.4137
82	-11.4139
contact	-11.4144
ole	-11.4145
▁quartz	-11.4147
▁2005	-11.4148
▁analytical	-11.415
▁603	-11.4152
▁routed	-11.4152
▁played	-11.4158
▁immediate	-11.416
▁AAV	-11.4164
▁nearly	-11.4165
▁OLED	-11.4165
▁scaffold	-11.4168
▁2007	-11.417
▁2.2	-11.4172
▁reporter	-11.418
▁PL	-11.4181
▁methoxy	-11.4185
▁pumps	-11.4185
▁initiating	-11.4186
▁capillary	-11.4193
▁Unit	-11.4195
PM	-11.4197
Chloro	-11.4199
▁rolls	-11.4202
▁rigidity	-11.4203
▁802.11	-11.4208
▁pigments	-11.4208
▁athletic	-11.4209
key	-11.4209
core	-11.4211
▁dashed	-11.4215
oxa	-11.4218
-17	-11.4225
TG	-11.4227
▁181	-11.4228
▁boards	-11.4229
▁lubricating	-11.4232
node	-11.4233
3.2	-11.4236
▁illuminated	-11.4239
▁antigens	-11.4241
=3	-11.4244
▁(8	-11.4244
▁pertain	-11.4245
▁shipping	-11.4247
▁avoided	-11.4249
▁bp	-11.425
%).	-11.4251
RI	-11.4254
▁511	-11.4254
▁adopted	-11.4257
eno	-11.4258
▁magnification	-11.4258
▁inductive	-11.4263
▁automation	-11.4263
▁silicide	-11.4263
▁264	-11.4263
RT	-11.4264
angle	-11.4271
▁viruses	-11.4272
▁Model	-11.4272
▁treatments	-11.4273
▁predictive	-11.428
▁masking	-11.4284
▁grayscale	-11.4286
▁enzymatic	-11.4288
▁bump	-11.4299
▁persistent	-11.4299
▁phones	-11.4299
▁denote	-11.43
▁colon	-11.4302
▁ABS	-11.4305
que	-11.4307
▁strut	-11.4307
▁RA	-11.4308
▁HIV	-11.4308
▁wavefront	-11.431
▁flush	-11.4313
▁overlay	-11.4315
▁EC	-11.4315
▁blow	-11.4317
▁flanges	-11.4318
2.0	-11.4318
▁ketone	-11.4319
▁reproduced	-11.4321
3.3	-11.4325
▁reversed	-11.433
coated	-11.4331
▁accepted	-11.4332
▁seam	-11.4332
▁isolator	-11.4333
▁triggering	-11.4335
▁shifts	-11.4338
triazol	-11.4338
▁attention	-11.4341
so	-11.4341
▁polymerizable	-11.4341
onic	-11.4348
open	-11.4349
book	-11.4354
▁Yet	-11.4355
▁8.5	-11.4356
▁explain	-11.4357
▁brackets	-11.4358
▁3%	-11.436
pos	-11.436
IA	-11.4361
mediated	-11.4361
den	-11.4364
▁173	-11.4366
▁defective	-11.4373
▁halide	-11.4375
▁reservation	-11.4375
▁ds	-11.4383
▁correctly	-11.4383
▁save	-11.4384
▁1-5	-11.4385
▁constructs	-11.4386
▁yaw	-11.4387
▁sync	-11.4388
▁interfering	-11.4391
▁pressures	-11.4392
▁tear	-11.4395
▁supernatant	-11.4402
▁′.	-11.4402
▁ceiling	-11.4403
tone	-11.4405
▁bin	-11.4407
)-6-	-11.4408
▁singular	-11.4411
▁predict	-11.4412
▁occupied	-11.4413
▁233	-11.4414
▁pushing	-11.4416
▁Tri	-11.4425
▁dilution	-11.4427
▁2.7	-11.4427
▁orders	-11.4428
▁acetone	-11.4429
▁1,2-	-11.4434
size	-11.4437
▁Be	-11.4438
BI	-11.444
▁finally	-11.4441
▁terminating	-11.4442
▁distinguish	-11.4443
▁lights	-11.4443
▁Prior	-11.4444
rich	-11.4449
od	-11.445
cut	-11.4451
▁workflow	-11.4452
LL	-11.4453
▁readout	-11.4453
▁432	-11.4457
Fe	-11.4459
▁schemes	-11.446
▁amines	-11.4463
▁theory	-11.4464
benzamide	-11.4465
▁doctor	-11.4466
▁feeds	-11.4468
▁Ag	-11.4469
vo	-11.4471
▁sort	-11.4471
▁contamination	-11.4473
▁alterations	-11.4474
▁artery	-11.4476
king	-11.4476
rin	-11.4478
▁Apr	-11.4482
7.1	-11.4489
▁counts	-11.4491
▁slits	-11.4491
▁routines	-11.4495
▁PT	-11.4495
5.1	-11.4495
▁assembling	-11.4498
▁boat	-11.4498
▁suppressing	-11.4501
▁Only	-11.4502
▁cash	-11.4503
▁sold	-11.4504
▁distributor	-11.4506
▁Ra	-11.4506
▁seals	-11.4507
▁dependence	-11.4508
ru	-11.451
▁CE	-11.4511
▁ejected	-11.4516
group	-11.4518
","	-11.4518
▁MPEG	-11.4518
doped	-11.4519
▁arithmetic	-11.4522
▁unwanted	-11.4522
▁dropwise	-11.4522
▁click	-11.4524
AU	-11.4524
▁Vol	-11.4525
▁342	-11.4528
mod	-11.4529
▁reliably	-11.453
▁computational	-11.4537
▁contrary	-11.4538
hen	-11.4539
acetate	-11.454
NP	-11.4544
ain	-11.4546
▁dropped	-11.4546
▁stabilizer	-11.4546
▁4.4	-11.4553
▁supra	-11.4554
▁intracellular	-11.4554
▁extruder	-11.4554
hexane	-11.4555
900	-11.4556
700	-11.4556
▁Digital	-11.4563
ub	-11.4566
▁spectrometer	-11.4569
▁Herein	-11.4572
Di	-11.4575
50°	-11.4575
▁libraries	-11.4577
our	-11.4583
▁workout	-11.4584
▁accounts	-11.4587
▁punch	-11.4587
▁(7)	-11.4592
▁easier	-11.4593
▁house	-11.4595
held	-11.4595
5)	-11.4595
ier	-11.4596
ni	-11.4596
▁exerted	-11.4596
▁addressed	-11.4597
▁sol	-11.46
▁compressive	-11.4601
target	-11.4601
▁dictionary	-11.4601
▁shroud	-11.4601
▁conference	-11.4601
▁532	-11.4602
▁pillar	-11.4609
▁tantalum	-11.4609
▁nip	-11.4613
DE	-11.4614
▁illustrations	-11.4619
▁former	-11.462
▁exhibited	-11.4622
▁Au	-11.4625
▁choose	-11.4625
cap	-11.4627
kin	-11.4627
▁MeOH	-11.4632
▁soil	-11.4633
sized	-11.4637
late	-11.4637
▁intervening	-11.4642
-1,4-	-11.4643
▁progression	-11.4643
diphenyl	-11.4643
AF	-11.4649
▁vertex	-11.465
▁login	-11.465
][1,4]	-11.465
-25	-11.4651
Zn	-11.4656
▁70°	-11.4664
▁Zr	-11.4668
ok	-11.4669
lock	-11.4672
▁Mg	-11.4672
oid	-11.4675
▁me	-11.4676
▁languages	-11.4677
ttg	-11.4682
=4	-11.4682
▁Low	-11.4682
▁interconnects	-11.4685
DF	-11.4686
▁methodology	-11.4687
cycloalkyl	-11.469
▁pulley	-11.469
▁microelectronic	-11.469
ber	-11.4691
polymer	-11.4692
▁coming	-11.4694
▁transforming	-11.4695
▁00	-11.4697
▁exceeding	-11.47
▁2015	-11.4704
▁participants	-11.4709
gen	-11.4711
NC	-11.4712
▁sand	-11.4712
▁RRC	-11.4714
▁alternatives	-11.4714
▁obvious	-11.4715
▁1210	-11.472
▁minimized	-11.4722
▁Through	-11.4722
▁extruded	-11.4723
▁1×10	-11.4724
row	-11.4727
▁pallet	-11.473
▁platen	-11.4733
au	-11.4738
vi	-11.4742
▁anionic	-11.4749
LU	-11.4751
▁sharp	-11.4751
directional	-11.4753
▁Treatment	-11.4755
▁wiper	-11.4756
VI	-11.4757
can	-11.4758
▁surround	-11.4759
▁assign	-11.4763
luminescent	-11.4765
▁4.3	-11.4766
▁phosphorus	-11.4769
pyran	-11.477
▁poles	-11.4771
▁Wireless	-11.4775
▁exactly	-11.4775
▁328	-11.4787
SL	-11.4788
sin	-11.479
▁4.6	-11.4791
▁DNS	-11.4793
▁chat	-11.4793
▁272	-11.4795
preferably	-11.4796
▁strands	-11.4797
▁fail	-11.4799
▁spp	-11.48
digital	-11.4806
VL	-11.4807
▁wait	-11.481
surface	-11.481
▁eliminating	-11.4813
▁inputting	-11.4813
ening	-11.4813
▁assessed	-11.4817
▁antagonists	-11.4819
▁cryptographic	-11.482
electrode	-11.482
processor	-11.4822
▁Th	-11.4822
▁median	-11.4823
▁widths	-11.4827
▁stably	-11.4829
ule	-11.483
fit	-11.4831
life	-11.4831
▁dispensed	-11.4834
▁fracture	-11.4837
▁830	-11.4842
OD	-11.4845
2.2	-11.4846
▁808	-11.4846
▁impeller	-11.4853
▁cited	-11.4853
▁contribute	-11.4855
▁drainage	-11.4856
unit	-11.4856
▁cumulative	-11.4857
▁vias	-11.4858
▁inflammation	-11.4861
▁contract	-11.4862
NF	-11.4862
▁centers	-11.4866
▁spatially	-11.4867
-8-	-11.4869
▁inserts	-11.4871
sp	-11.4881
▁yarns	-11.4882
▁humans	-11.4886
▁catch	-11.4891
▁diameters	-11.4895
▁Again	-11.4896
name	-11.4899
▁comparable	-11.4902
▁my	-11.4903
MH	-11.4907
EG	-11.4908
280	-11.491
▁giving	-11.491
▁cyclohexyl	-11.4912
▁conform	-11.4913
▁Structure	-11.4916
Li	-11.4918
▁3.4	-11.4923
0.9	-11.4923
▁139	-11.4924
▁calculator	-11.4935
▁diabetes	-11.4935
propylene	-11.494
FP	-11.4942
ism	-11.4946
▁indices	-11.4952
▁broadband	-11.4952
▁promoting	-11.4959
AN	-11.4966
▁8.3	-11.4969
▁arrival	-11.4974
4.0	-11.4975
▁dial	-11.4978
▁taper	-11.4978
dimethylamino	-11.4979
▁Polymer	-11.498
▁30°	-11.498
-19	-11.4982
1/	-11.4983
charge	-11.4984
▁Mode	-11.4985
▁skeleton	-11.4985
▁evident	-11.4993
▁boiling	-11.4994
▁effort	-11.4995
ther	-11.5
▁pinion	-11.5
▁248	-11.5003
▁protease	-11.5004
▁cooler	-11.5007
▁1.9	-11.5013
▁molybdenum	-11.5013
heptan	-11.5015
▁affecting	-11.5016
ML	-11.5017
▁removes	-11.502
▁phage	-11.5021
▁AV	-11.5022
▁partitioned	-11.5023
▁407	-11.5024
▁fails	-11.5026
7.2	-11.5027
▁curable	-11.503
▁1998	-11.5031
▁spine	-11.5033
▁funnel	-11.5035
ax	-11.5037
▁hu	-11.5037
▁Color	-11.5041
▁regeneration	-11.5045
▁surrounds	-11.5051
▁pupil	-11.5052
▁(30	-11.5053
PRO	-11.5054
▁clockwise	-11.5055
▁Within	-11.5059
pi	-11.5059
nless	-11.5059
▁cleaner	-11.506
▁haloalkyl	-11.5061
▁tilted	-11.5061
▁modifier	-11.5062
▁definitions	-11.5069
cin	-11.507
ester	-11.5071
ero	-11.5072
element	-11.5074
▁Da	-11.5079
▁DA	-11.5081
▁cation	-11.5082
▁endogenous	-11.5085
▁dissolution	-11.5086
▁“0”	-11.5086
▁Fc	-11.5086
▁nonwoven	-11.5089
▁bill	-11.5091
▁preparations	-11.5096
109	-11.5097
▁community	-11.5098
▁Target	-11.51
▁isolate	-11.51
▁)=	-11.5103
▁mis	-11.5103
▁1104	-11.5105
▁chunk	-11.5105
mechanical	-11.5105
▁grouping	-11.5105
▁524	-11.5107
mit	-11.5107
dis	-11.5109
▁nanotubes	-11.5112
LAN	-11.5114
ust	-11.5118
▁implements	-11.5119
EK	-11.5125
ular	-11.5126
▁tactile	-11.5128
+2	-11.5131
▁714	-11.5134
▁precipitation	-11.5135
▁Surface	-11.514
See	-11.5143
▁lamination	-11.5145
▁09/	-11.5145
▁195	-11.5145
▁absorb	-11.5147
SiO	-11.5149
SV	-11.5149
spite	-11.5153
▁recombination	-11.5154
▁accepting	-11.5155
▁ATM	-11.5157
▁milk	-11.5161
▁1004	-11.5161
▁refrigerator	-11.5161
loop	-11.5165
▁0.09	-11.5165
▁none	-11.5166
▁inhibits	-11.5167
▁ML	-11.5167
▁subscription	-11.517
▁flu	-11.517
▁sale	-11.517
▁workstation	-11.5173
▁RB	-11.5182
ach	-11.5183
▁expanding	-11.5187
Cs	-11.5189
▁chuck	-11.5192
▁State	-11.5194
▁crankshaft	-11.5195
▁resulted	-11.5197
▁threat	-11.5197
▁yields	-11.5198
▁nanowire	-11.5199
▁exiting	-11.5203
▁imaged	-11.5203
▁survey	-11.5205
difluoro	-11.5206
▁0.75	-11.5208
▁penta	-11.5208
5.2	-11.5208
res	-11.5211
▁Production	-11.5212
▁shunt	-11.5212
▁permitting	-11.5213
▁CM	-11.5214
▁stabilized	-11.5219
ino	-11.5221
▁BoNT	-11.5221
No	-11.5222
▁centered	-11.5224
rd	-11.5225
▁headset	-11.5227
▁merge	-11.5229
ept	-11.5231
▁reward	-11.5236
▁yoke	-11.5238
▁Base	-11.5239
9.1	-11.524
▁Input	-11.5241
facing	-11.5241
▁149	-11.5248
▁vice	-11.5248
pa	-11.5248
▁intravenous	-11.5252
▁outgoing	-11.5256
▁carboxy	-11.5257
▁ejecting	-11.5259
shape	-11.526
▁radiator	-11.5264
▁resume	-11.5265
▁meets	-11.5268
▁shaping	-11.5271
▁GC	-11.5275
net	-11.5279
val	-11.528
CG	-11.528
▁distillation	-11.5281
▁polycrystalline	-11.5281
▁guest	-11.5285
▁246	-11.5286
(5-	-11.5287
▁United	-11.5287
▁Zn	-11.5293
▁Different	-11.5298
controlled	-11.53
▁SIM	-11.5306
ts	-11.5307
▁grouped	-11.531
▁196	-11.5311
▁interferon	-11.5312
▁forwarded	-11.5316
-1,2-	-11.5316
▁overlaps	-11.5317
width	-11.5317
▁185	-11.532
▁Te	-11.5325
module	-11.5332
▁abutment	-11.5333
▁complicated	-11.5333
▁multicast	-11.5333
▁layered	-11.5335
hydr	-11.5337
2°	-11.5337
CPU	-11.5339
▁Node	-11.5339
▁malicious	-11.5341
▁ensuring	-11.5341
0°	-11.5347
Open	-11.5347
▁puncture	-11.5347
▁simplicity	-11.535
▁elasticity	-11.5354
▁3000	-11.5358
▁sucrose	-11.5358
▁projects	-11.5366
▁geographical	-11.5367
▁adjusts	-11.5371
diameter	-11.5371
treatment	-11.5374
▁citrate	-11.5377
▁AR	-11.5381
ron	-11.5381
▁shank	-11.5384
gga	-11.5385
▁routers	-11.5385
▁handled	-11.5388
positive	-11.5389
▁hopper	-11.5393
▁opens	-11.5395
dimethoxy	-11.5396
ened	-11.5398
read	-11.5398
▁ethers	-11.54
zero	-11.5409
▁stearate	-11.541
▁Storage	-11.541
▁bipolar	-11.541
thiophene	-11.5413
▁622	-11.5413
noise	-11.5417
▁compensating	-11.5419
▁verifying	-11.5424
Ti	-11.5424
ect	-11.5425
▁steady	-11.5431
▁improvements	-11.5433
)-5-	-11.5438
▁protrude	-11.5442
cat	-11.5444
▁redundancy	-11.5445
tle	-11.5447
▁dies	-11.5447
▁functionally	-11.5449
▁worker	-11.545
▁facet	-11.545
▁metering	-11.5453
▁accommodated	-11.5454
)=	-11.5455
▁handler	-11.5456
PCR	-11.5457
▁Literature	-11.5462
cu	-11.5464
▁States	-11.5469
▁photodetector	-11.5471
▁preliminary	-11.5471
▁meters	-11.5477
▁prostate	-11.548
▁altering	-11.5482
▁906	-11.5483
▁inhibited	-11.5483
▁orientations	-11.5484
▁dense	-11.549
▁depressed	-11.5491
▁difficulty	-11.5491
▁Ed	-11.5494
;128	-11.5494
▁chromium	-11.5495
EI	-11.5497
▁compliant	-11.5499
▁518	-11.5499
ash	-11.5499
ether	-11.5501
▁Le	-11.5502
▁DS	-11.5505
▁accumulator	-11.5506
MT	-11.5509
▁benzo	-11.5514
my	-11.5516
LG	-11.5517
OT	-11.5517
111	-11.5521
▁polyol	-11.5522
Br	-11.5522
▁networked	-11.5525
▁bolts	-11.5525
▁426	-11.5527
▁740	-11.5527
▁SL	-11.5535
▁minimizing	-11.5541
▁graphs	-11.5544
ology	-11.5547
▁Ro	-11.5549
GI	-11.555
▁luminescent	-11.555
5.5	-11.5551
▁polyether	-11.5551
▁statement	-11.5553
▁219	-11.5553
▁Third	-11.5556
▁hydride	-11.5559
▁phenomenon	-11.5559
▁157	-11.556
▁prompt	-11.556
beam	-11.5565
(3-	-11.5566
▁DMA	-11.557
▁offered	-11.557
▁microorganisms	-11.557
▁tips	-11.5572
▁266	-11.5573
benzoic	-11.5573
▁metabolic	-11.5577
▁strategy	-11.5577
▁Sr	-11.5577
▁Sb	-11.5582
▁spraying	-11.5583
▁425	-11.5585
▁850	-11.5586
work	-11.5589
▁demonstrate	-11.5592
▁multiplying	-11.5597
▁paddle	-11.5603
▁synchronizing	-11.5603
▁cream	-11.5605
par	-11.5606
0.4	-11.5607
▁selectivity	-11.5613
▁pathways	-11.5615
▁templates	-11.5618
▁telecommunicati	-11.5618
signal	-11.5619
▁zeolite	-11.5621
▁personnel	-11.5621
▁NF	-11.5622
▁surgeon	-11.5623
▁permeable	-11.5623
▁photoreceptor	-11.5639
▁Standard	-11.5641
▁variance	-11.5642
▁Radio	-11.5643
▁helps	-11.5643
▁DR	-11.5643
▁associating	-11.5646
▁concentrate	-11.5646
▁ride	-11.565
▁platforms	-11.5651
▁differing	-11.5652
▁assuming	-11.5655
▁plated	-11.5656
acc	-11.5657
▁localized	-11.5657
▁acknowledgement	-11.5661
▁tangible	-11.5661
▁leave	-11.5665
/0	-11.5667
▁brown	-11.5668
▁Component	-11.5675
▁fluidic	-11.5675
▁anchoring	-11.5675
▁45°	-11.5678
cyclo	-11.568
generation	-11.568
▁ctg	-11.5681
▁facilities	-11.5683
▁exhibiting	-11.5685
▁3.1	-11.5687
▁accelerometer	-11.5689
De	-11.5691
▁cosmetic	-11.5692
mounted	-11.5693
▁lifetime	-11.5694
alkenyl	-11.5695
▁inducing	-11.5695
Cu	-11.5696
▁transfected	-11.5697
▁internally	-11.57
bo	-11.5701
▁debris	-11.5701
▁windings	-11.5703
0.8	-11.5712
▁reflects	-11.5717
▁engineering	-11.5722
▁EXAMPLES	-11.5723
▁8.1	-11.5724
▁TP	-11.5725
da	-11.5726
ometer	-11.5727
101	-11.573
▁MD	-11.5734
▁homogeneous	-11.5734
▁breaking	-11.5734
▁shifter	-11.5735
▁paired	-11.574
▁0.005	-11.5741
▁travels	-11.5742
screen	-11.5742
▁CRC	-11.5743
▁physician	-11.5746
▁extracellular	-11.5746
▁ozone	-11.5746
▁boss	-11.5748
▁cancel	-11.5749
▁locator	-11.5755
FIELD	-11.5762
▁installing	-11.5762
128	-11.5763
▁gradation	-11.5764
9,	-11.5766
/3	-11.5768
▁susceptible	-11.577
▁rank	-11.577
▁4.1	-11.5772
process	-11.5772
▁CR	-11.5774
0.6	-11.5774
server	-11.5774
▁SE	-11.5775
▁standing	-11.5775
▁retail	-11.5776
▁Display	-11.5777
▁death	-11.5783
wire	-11.579
▁Com	-11.5791
▁intrinsic	-11.5791
▁distributing	-11.5793
▁En	-11.5794
▁Length	-11.5801
▁scroll	-11.5802
methanone	-11.5803
mi	-11.5807
cos	-11.5809
▁LCMS	-11.581
▁handover	-11.5812
dione	-11.5813
▁assess	-11.5813
▁Signal	-11.5814
mal	-11.5818
▁eyes	-11.5818
ave	-11.5821
▁dome	-11.5822
▁Out	-11.5823
▁clones	-11.5823
▁stabilizing	-11.5829
solid	-11.583
▁implants	-11.5831
FC	-11.5831
▁trapping	-11.5832
▁restore	-11.5834
▁CLK	-11.5835
sorb	-11.5836
▁facial	-11.5836
▁freedom	-11.5836
▁2016	-11.5838
piperazin	-11.584
▁follower	-11.584
▁excipients	-11.5843
ten	-11.5845
ka	-11.5846
▁disadvantages	-11.5852
▁straps	-11.5856
lum	-11.5856
▁1997	-11.5856
▁clips	-11.5858
▁successively	-11.586
crystal	-11.5861
140	-11.5861
trimethyl	-11.5862
▁sin	-11.5864
space	-11.5869
▁letter	-11.5874
▁bright	-11.5875
stat	-11.588
▁counted	-11.5883
▁−0.2	-11.5883
pyrido	-11.5884
▁progressive	-11.5888
▁patents	-11.5889
▁accomplish	-11.589
gas	-11.5891
▁Set	-11.5893
refer	-11.5894
▁98%	-11.5895
characterization	-11.5895
graph	-11.5897
▁situ	-11.5898
▁Code	-11.5899
▁elsewhere	-11.59
▁hereinabove	-11.5902
▁pulsed	-11.5902
▁unlocked	-11.5903
▁ECG	-11.5904
▁appliances	-11.5906
▁colorless	-11.5907
▁seats	-11.5907
▁inclusive	-11.5908
▁disposable	-11.5909
▁audible	-11.5909
▁Homo	-11.5911
▁Said	-11.5912
▁plastics	-11.5919
GF	-11.5923
▁bubbles	-11.5927
▁consequently	-11.5928
1.4	-11.5929
▁MA	-11.5932
▁trial	-11.5937
av	-11.5937
▁grant	-11.5939
▁diagonal	-11.5939
▁methylene	-11.594
▁WT	-11.5941
▁bring	-11.5941
▁NS	-11.5945
▁incorporation	-11.5945
▁vi	-11.5947
▁beamforming	-11.5951
▁severity	-11.5955
ook	-11.5956
▁outline	-11.5956
ACT	-11.5959
▁effectiveness	-11.596
▁Now	-11.5961
last	-11.5962
▁4.8	-11.5963
8.1	-11.5964
▁poured	-11.5965
▁matrices	-11.5967
▁presents	-11.5971
▁GPU	-11.5972
comprising	-11.5972
▁canister	-11.5973
ise	-11.5973
▁1600	-11.5976
▁magazine	-11.5982
▁immobilized	-11.5983
▁restrictive	-11.5984
▁Like	-11.5984
▁animation	-11.5991
load	-11.5993
1.7	-11.5994
▁sessions	-11.5995
▁1202	-11.5999
hydro	-11.6001
▁distilled	-11.6001
▁interpretation	-11.6002
▁compartments	-11.6008
mark	-11.6008
TV	-11.6009
3.8	-11.6009
▁prosthesis	-11.601
▁cancellation	-11.601
FI	-11.6016
▁Area	-11.6017
▁medicine	-11.6019
▁segmentation	-11.602
250	-11.6026
▁sounds	-11.6026
spiro	-11.6027
▁rinse	-11.6027
MAC	-11.6028
▁331	-11.6029
▁930	-11.6031
mp	-11.6032
▁deflector	-11.6035
service	-11.6037
LA	-11.6037
▁pyridine	-11.6042
▁cultures	-11.6043
sen	-11.6044
▁GD	-11.6044
ster	-11.6044
nic	-11.6046
▁rechargeable	-11.6047
number	-11.605
cl	-11.6052
▁our	-11.6053
lim	-11.6055
▁modulate	-11.6057
▁Ab	-11.6062
va	-11.6062
rum	-11.6063
▁TNF	-11.6063
▁suspensions	-11.6064
▁paragraph	-11.6064
▁piping	-11.6065
▁maximize	-11.6067
▁recommendation	-11.6074
wheel	-11.6074
▁ferrite	-11.6074
▁arranging	-11.6074
▁crack	-11.6076
▁manipulated	-11.6081
sum	-11.6081
▁publications	-11.6082
▁interferometer	-11.6084
▁subcarriers	-11.6084
Ta	-11.6084
tra	-11.6086
▁NI	-11.6088
▁condensation	-11.6088
sel	-11.6089
▁703	-11.6093
▁silicate	-11.6094
▁year	-11.6094
site	-11.6095
▁NA	-11.6095
0.00	-11.6096
▁Temperature	-11.6097
▁protrudes	-11.6098
▁VI	-11.6101
▁gripper	-11.6103
▁coloring	-11.6104
▁Processor	-11.6106
aqueous	-11.6106
▁folder	-11.6107
▁Yes	-11.6108
▁oblique	-11.6108
▁organisms	-11.611
▁superimposed	-11.6112
▁DCI	-11.6114
▁staining	-11.6116
▁month	-11.6117
ail	-11.6118
▁stimulus	-11.6121
▁losses	-11.6121
MG	-11.6124
LV	-11.6125
3.4	-11.6129
▁credential	-11.613
▁1,000	-11.613
▁kidney	-11.614
▁polystyrene	-11.6141
▁zirconium	-11.6143
▁conventionally	-11.6146
hexyl	-11.6147
▁MME	-11.6147
▁vegetable	-11.6149
▁stripe	-11.6151
2.3	-11.6152
▁MO	-11.6153
▁2.8	-11.6154
ger	-11.6157
▁avoiding	-11.6159
▁tight	-11.6161
002	-11.6161
▁transducers	-11.6162
▁inherent	-11.6164
▁WLAN	-11.6165
▁granules	-11.6166
ants	-11.6167
▁controllable	-11.6168
▁borehole	-11.6174
▁Iso	-11.6175
▁doing	-11.6177
▁Yield	-11.6177
▁approximation	-11.6177
▁urethane	-11.6177
4.2	-11.618
8.0	-11.6181
▁Pt	-11.6186
▁consumable	-11.6186
▁leukemia	-11.6186
)-6-(4-	-11.6187
▁infections	-11.6187
-50	-11.6189
▁1120	-11.6191
▁PN	-11.6192
▁Company	-11.6196
▁functioning	-11.6198
generating	-11.6204
▁duplex	-11.6205
▁fruit	-11.6205
▁Before	-11.6205
▁fatigue	-11.6205
▁sintering	-11.6205
▁permanently	-11.6206
▁sc	-11.6207
▁sandwiched	-11.6208
▁robust	-11.6214
▁honeycomb	-11.6215
▁opportunity	-11.6215
St	-11.6215
allyl	-11.6215
▁SDS	-11.622
1.6	-11.6221
-40	-11.6224
land	-11.6225
SN	-11.6231
▁photograph	-11.6231
▁designing	-11.6232
▁install	-11.6233
▁hosts	-11.6235
▁(—	-11.6237
hydroxyethyl	-11.6237
▁activates	-11.6239
▁Intermediate	-11.6247
▁termed	-11.6248
▁packed	-11.6249
▁distribute	-11.625
▁912	-11.625
▁660	-11.6251
▁nitrate	-11.6251
▁detachable	-11.6253
formed	-11.6255
▁disconnected	-11.6256
▁musical	-11.6257
▁Red	-11.6259
DT	-11.6259
▁Several	-11.6262
▁nylon	-11.6262
Hsd	-11.6265
IB	-11.6267
▁furthermore	-11.6267
▁movie	-11.6271
▁8.2	-11.6272
▁oscillating	-11.6275
▁336	-11.6277
▁CMP	-11.6278
▁150°	-11.6281
▁polyolefin	-11.6282
▁MRI	-11.6283
met	-11.6288
▁knife	-11.629
▁impulse	-11.629
▁transmitters	-11.629
▁works	-11.6298
▁aralkyl	-11.6299
[3,4-	-11.63
▁egress	-11.63
▁ELISA	-11.63
▁258	-11.63
LK	-11.63
PF	-11.6305
▁restricting	-11.6305
▁rectangle	-11.6309
▁worn	-11.6309
▁bubble	-11.6314
8°	-11.6315
▁heterologous	-11.6319
▁participate	-11.6319
▁Fourier	-11.6319
NACK	-11.6319
▁Reaction	-11.6319
silyl	-11.632
▁tract	-11.6322
ble	-11.6324
▁harmonic	-11.6325
▁emissions	-11.6326
test	-11.6327
▁crown	-11.6328
▁withdrawn	-11.6329
▁symmetrical	-11.6329
7.3	-11.6332
ert	-11.6334
Amino	-11.6335
osis	-11.6335
acrylic	-11.6338
▁augmented	-11.634
▁nail	-11.6341
▁presses	-11.6344
▁polyoxyethylene	-11.6347
▁sustained	-11.6355
▁Module	-11.6357
change	-11.6357
▁abnormality	-11.6358
▁shooting	-11.6358
▁contaminants	-11.636
▁spots	-11.6366
▁solely	-11.6371
NG	-11.6372
▁Sch	-11.6372
body	-11.6374
yn	-11.6374
▁570	-11.6375
▁705	-11.6379
▁sintered	-11.6385
▁odor	-11.6386
▁discovered	-11.6388
6.5	-11.639
▁isometric	-11.6393
▁heel	-11.6396
▁quenched	-11.6396
▁Video	-11.64
lar	-11.6401
▁infected	-11.6404
▁But	-11.6404
▁named	-11.6407
▁homologous	-11.6409
AK	-11.641
▁endothelial	-11.641
TU	-11.6413
▁pot	-11.6413
▁hands	-11.6413
▁inhibitory	-11.6415
address	-11.6416
chi	-11.6419
▁mathematical	-11.6421
▁rats	-11.6424
▁HP	-11.6425
▁agonists	-11.6425
▁908	-11.6425
▁monolithic	-11.6425
▁Car	-11.6427
-(1-	-11.6427
▁Port	-11.6428
GR	-11.6428
▁EM	-11.6429
chemical	-11.6433
selected	-11.6436
▁delays	-11.6437
▁ordered	-11.6438
methane	-11.6438
flu	-11.6445
1.8	-11.6445
operation	-11.6445
▁shade	-11.6449
▁readings	-11.6456
CLK	-11.6457
biphenyl	-11.6459
▁harness	-11.6462
▁somewhat	-11.6462
rr	-11.6463
▁TB	-11.6463
▁divalent	-11.6463
▁planning	-11.6463
▁(9	-11.6465
▁lipids	-11.6466
▁filaments	-11.6468
▁Tris	-11.647
▁buses	-11.647
▁Scheme	-11.6471
▁balancing	-11.6474
▁SH	-11.6475
▁conjugates	-11.6477
▁dispense	-11.6479
▁Tx	-11.6481
▁Pharmaceutical	-11.6481
▁Having	-11.6482
▁authority	-11.6483
▁goods	-11.6484
▁354	-11.6484
▁manages	-11.6486
▁ribbon	-11.6491
▁sieve	-11.6491
▁452	-11.6492
▁retransmission	-11.6493
▁lot	-11.6493
▁insoluble	-11.6497
▁adaptation	-11.6503
▁PF	-11.6504
VM	-11.6504
▁Rev	-11.6508
▁Content	-11.6511
mon	-11.6512
nal	-11.6514
▁515	-11.6518
▁dissolving	-11.652
▁lithography	-11.652
▁pacing	-11.652
▁slidable	-11.6521
▁workload	-11.6521
average	-11.6523
▁Ir	-11.6526
▁adhere	-11.6526
▁copied	-11.653
▁335	-11.6532
7.0	-11.6535
acid	-11.6536
▁Do	-11.6536
▁PH	-11.6538
▁lie	-11.6539
▁blended	-11.6539
▁intelligent	-11.654
▁laboratory	-11.654
▁neither	-11.6542
▁2500	-11.6543
▁methane	-11.6543
tgt	-11.655
▁glasses	-11.656
ylamino	-11.6561
▁overlapped	-11.657
▁hood	-11.657
▁consequence	-11.6571
▁interacting	-11.6572
ulation	-11.6572
▁bumps	-11.6572
VS	-11.6573
▁rich	-11.6573
▁deceleration	-11.6574
▁sn	-11.6575
▁Optical	-11.6576
▁searches	-11.6577
▁nonlinear	-11.6578
▁1012	-11.658
Fluoro	-11.6581
▁exchanged	-11.6582
▁pointed	-11.6587
▁durability	-11.6589
▁resistivity	-11.6589
▁concerns	-11.6589
▁systemic	-11.6589
FIGS	-11.6589
)]	-11.6589
▁chemistry	-11.6591
▁Level	-11.6592
▁dissipation	-11.6592
▁−6	-11.6593
idine	-11.6594
▁impart	-11.6597
3.6	-11.6597
▁caller	-11.6598
▁tertiary	-11.6598
▁incorporates	-11.6599
he	-11.6605
▁centre	-11.6605
▁Raman	-11.6608
▁breakdown	-11.6609
▁signs	-11.6609
▁keypad	-11.6609
cag	-11.6611
▁license	-11.6611
ACK	-11.6613
▁Trans	-11.6613
FL	-11.6617
▁heterocycle	-11.6618
▁Request	-11.6618
▁reconstruction	-11.6618
▁ref	-11.6621
▁transmissive	-11.6626
▁transfection	-11.6626
▁versa	-11.6627
▁radiating	-11.6628
▁PI	-11.6628
product	-11.6628
▁inversion	-11.6629
ath	-11.6629
▁stay	-11.663
▁PET	-11.6633
2.8	-11.6635
PV	-11.6635
▁fish	-11.6635
▁611	-11.6636
▁terminology	-11.6637
▁judged	-11.664
▁RC	-11.664
450	-11.6641
▁descriptor	-11.6645
▁GL	-11.6645
▁heterogeneous	-11.6647
[2.2.1]	-11.6647
1),	-11.6648
octyl	-11.665
TO	-11.6652
▁(7	-11.6655
FT	-11.666
▁vanes	-11.666
▁triple	-11.6663
▁grow	-11.6663
ux	-11.6664
AV	-11.6666
▁exceeded	-11.6666
HA	-11.6668
▁FF	-11.667
▁PDE	-11.667
▁Ad	-11.6671
▁2-(	-11.6672
▁shut	-11.6675
▁billing	-11.6676
▁recognizing	-11.6677
▁credentials	-11.6677
bu	-11.6679
▁assets	-11.6682
▁VM	-11.6684
180	-11.6686
▁reciprocating	-11.6687
▁detachably	-11.6687
TD	-11.6688
▁4.9	-11.6688
box	-11.6693
▁interrupted	-11.6695
▁crosslinked	-11.6696
▁firewall	-11.6697
▁hanger	-11.6698
▁disabled	-11.6703
der	-11.6704
▁PCI	-11.6705
▁concentric	-11.6706
FF	-11.6708
▁bumper	-11.6714
▁quadrature	-11.6716
▁elastically	-11.6722
▁tether	-11.6724
tolyl	-11.6724
▁adsorbent	-11.6726
▁jack	-11.6727
▁Active	-11.6728
▁specialized	-11.6729
▁questions	-11.673
area	-11.6733
▁originally	-11.6736
▁neighbor	-11.6736
▁bromine	-11.6736
▁respiratory	-11.6737
▁armature	-11.6737
▁Namely	-11.6739
▁frictional	-11.674
pe	-11.674
▁outermost	-11.674
▁diffuser	-11.674
▁echo	-11.6743
▁signatures	-11.6743
▁cloned	-11.6746
▁adult	-11.6746
118	-11.6747
device	-11.675
▁condensed	-11.6751
ttt	-11.6753
▁Man	-11.6754
▁indications	-11.6756
][1,3]	-11.6757
place	-11.6758
▁branching	-11.6758
▁null	-11.6758
▁1996	-11.6761
▁SI	-11.6761
▁inverters	-11.6762
▁cure	-11.6765
▁(200	-11.6768
▁collapsed	-11.6771
▁DM	-11.6773
▁Ma	-11.6774
▁formulae	-11.6776
▁invalid	-11.6776
▁colloidal	-11.6779
LI	-11.6782
sch	-11.6784
TF	-11.6784
ically	-11.6785
▁uniformity	-11.6785
▁ATCC	-11.6785
EE	-11.6789
▁stepped	-11.679
▁618	-11.6792
▁seated	-11.6794
▁sphere	-11.6799
▁uniquely	-11.68
tal	-11.6804
▁money	-11.6806
▁Controller	-11.6807
PDA	-11.6808
propanol	-11.6809
▁"	-11.6809
▁freeze	-11.681
ong	-11.681
energy	-11.6811
▁950	-11.6811
boronic	-11.6811
▁metabolism	-11.6816
mann	-11.6817
▁cuff	-11.6819
▁packing	-11.6819
▁regulate	-11.682
carrier	-11.682
▁designation	-11.6822
▁421	-11.6825
▁centrifugal	-11.6826
▁semantic	-11.6826
▁RNC	-11.6826
▁unable	-11.6828
▁topical	-11.6828
▁belong	-11.683
▁ending	-11.6831
ethane	-11.6834
▁282	-11.6834
▁handles	-11.6835
▁nitric	-11.6836
gan	-11.6837
▁splitting	-11.6837
▁hexane	-11.6839
ogen	-11.6842
▁epi	-11.6843
▁refrigeration	-11.6844
▁rely	-11.6844
▁looking	-11.6851
▁MG	-11.6853
oil	-11.6861
ethanol	-11.6862
ft	-11.6862
▁265	-11.6866
▁interchangeably	-11.6866
▁NP	-11.6866
▁slight	-11.6868
▁evidence	-11.6869
▁309	-11.687
▁2.6	-11.6872
▁interacts	-11.6876
▁solvate	-11.688
▁hexa	-11.6882
▁Trp	-11.6883
CSF	-11.6883
▁titled	-11.6885
▁pharmacological	-11.6886
▁OP	-11.6888
▁frozen	-11.6891
▁translated	-11.6893
▁(8)	-11.6895
▁prodrug	-11.69
benzoyl	-11.6902
▁largely	-11.6906
▁workers	-11.6907
▁preform	-11.6913
rit	-11.6915
▁pending	-11.6915
card	-11.6918
▁thinner	-11.6918
▁HCV	-11.6922
▁waveguides	-11.6922
4.7	-11.6923
▁illuminating	-11.6926
▁disulfide	-11.6927
▁2,4-	-11.693
▁0.002	-11.693
▁6.6	-11.6933
▁4.7	-11.6934
▁Immunol	-11.6934
▁irregular	-11.6936
▁7.4	-11.694
▁partner	-11.6941
▁beat	-11.6943
FS	-11.6944
▁unauthorized	-11.6947
▁teaching	-11.6952
2000	-11.6954
▁colour	-11.6957
ify	-11.6957
▁searched	-11.6957
▁7.8	-11.6961
uniform	-11.6962
▁proton	-11.6962
▁Laboratory	-11.6967
:6	-11.697
NE	-11.6973
▁MFP	-11.6974
azabicyclo	-11.6974
▁penetrate	-11.6974
cr	-11.6977
▁abrasive	-11.6977
EV	-11.698
▁activator	-11.6983
▁stretch	-11.6986
▁intact	-11.6987
▁things	-11.6988
ella	-11.6996
▁notify	-11.6996
▁Intron	-11.6997
▁virtually	-11.7
▁writes	-11.7003
▁literature	-11.7008
▁parallax	-11.7018
Table	-11.7018
▁compatibility	-11.7022
▁analytics	-11.7023
▁261	-11.7024
▁iodide	-11.7024
▁AT	-11.7024
▁mutual	-11.7025
▁overflow	-11.7027
▁shuttle	-11.7028
optic	-11.7031
▁diluent	-11.7033
DMSO	-11.7035
▁Client	-11.7039
▁authenticated	-11.7039
LR	-11.7039
▁TiO	-11.7039
▁2011	-11.704
▁manipulate	-11.7041
▁0.12	-11.7043
tttt	-11.7043
▁smallest	-11.7044
▁finish	-11.7045
▁hospital	-11.7048
▁upload	-11.7049
▁ablation	-11.7049
▁Vi	-11.7049
▁recorder	-11.705
812	-11.705
▁disturbance	-11.7053
▁2-6	-11.7054
▁1310	-11.7058
▁hidden	-11.7059
▁Section	-11.7059
▁absorbance	-11.7059
ient	-11.7059
▁ga	-11.7064
fect	-11.7068
▁agreement	-11.707
phenoxy	-11.7073
dy	-11.7074
▁TX	-11.7076
▁household	-11.7079
network	-11.7082
▁IS	-11.7083
location	-11.7083
2.4	-11.7084
▁ventilation	-11.7089
▁constructing	-11.7095
▁5000	-11.7098
UM	-11.7099
▁bellows	-11.71
▁impossible	-11.71
▁sake	-11.71
▁productivity	-11.7102
lip	-11.7103
▁Day	-11.7105
lation	-11.7106
eth	-11.7106
▁sight	-11.7109
▁biopsy	-11.711
access	-11.7117
▁undergo	-11.7117
hydroxymethyl	-11.7118
▁existence	-11.7119
▁Drug	-11.712
▁picked	-11.712
▁submitted	-11.7121
cyclohexane	-11.7123
▁(0.5	-11.7129
ender	-11.7129
;&	-11.7131
eye	-11.7132
▁operators	-11.7135
cc	-11.7139
genic	-11.7142
▁seating	-11.7142
aga	-11.7143
▁organized	-11.7144
▁Ru	-11.7144
▁GM	-11.7146
▁underside	-11.7148
▁cutoff	-11.7157
▁diagrammatic	-11.7158
4.4	-11.7158
YL	-11.7161
furan	-11.7167
polar	-11.7169
methoxyphenyl	-11.7171
▁catalog	-11.7172
▁bicycle	-11.7172
▁180°	-11.7173
▁copying	-11.7175
▁thiol	-11.7176
▁disable	-11.7178
▁pulmonary	-11.7178
9)	-11.7178
▁multiplied	-11.7182
▁triethylamine	-11.7183
▁toxic	-11.7183
▁landing	-11.7184
otic	-11.7185
▁compressing	-11.7189
▁Without	-11.7191
▁716	-11.7192
▁severe	-11.7193
eo	-11.7194
ory	-11.7195
▁antibiotic	-11.7199
hy	-11.7201
▁quarter	-11.7204
▁terminates	-11.7205
▁1001	-11.7206
++	-11.7209
styrene	-11.721
▁HTML	-11.7213
▁scalable	-11.7213
▁Factor	-11.7213
▁SEM	-11.7215
▁arise	-11.7217
▁accelerated	-11.7218
▁burn	-11.7219
▁analyses	-11.7219
▁390	-11.722
▁allowable	-11.7221
▁liquids	-11.7224
KK	-11.7228
BC	-11.7229
▁SN	-11.7232
xi	-11.7233
transferase	-11.7233
This	-11.7233
driven	-11.7233
▁ii	-11.7234
▁stylus	-11.7234
▁urging	-11.7234
▁ninth	-11.7234
▁IMD	-11.7235
word	-11.7237
▁secretion	-11.7237
▁Po	-11.724
▁Materials	-11.7241
▁spark	-11.7246
list	-11.7249
▁mature	-11.725
▁Photo	-11.7252
photographic	-11.7253
▁indirect	-11.7254
▁arthritis	-11.7255
▁propagating	-11.7255
▁0.50	-11.7256
▁tyrosine	-11.7258
▁814	-11.726
▁snapshot	-11.7261
▁PV	-11.7262
▁159	-11.7263
SK	-11.7263
▁opaque	-11.7265
▁dimensioned	-11.7266
▁PLL	-11.7272
▁10.0	-11.7272
▁broadly	-11.7272
▁adverse	-11.7273
left	-11.7274
▁speakers	-11.7275
om	-11.7277
butoxy	-11.7278
▁subframes	-11.7279
▁NE	-11.7281
▁suggest	-11.7285
▁immunogenic	-11.7286
▁dotted	-11.7287
Ca	-11.7289
▁erase	-11.729
▁200°	-11.7296
▁else	-11.7297
▁decorative	-11.7297
▁estimator	-11.7297
▁bicarbonate	-11.7297
▁8.4	-11.7297
▁chair	-11.7298
ley	-11.7299
ries	-11.7302
ful	-11.7303
ct	-11.7303
▁reactant	-11.7304
▁Over	-11.7307
▁progeny	-11.7307
▁propellant	-11.7307
▁considering	-11.7308
-23	-11.7309
▁tiles	-11.7311
▁120°	-11.7313
rod	-11.7315
▁Source	-11.7319
▁3.9	-11.732
mic	-11.7321
▁discs	-11.7321
lay	-11.7321
acetamide	-11.7322
cul	-11.7322
▁containment	-11.7325
oriented	-11.7326
▁cotton	-11.7328
▁going	-11.7329
▁cooperate	-11.733
▁PB	-11.7333
▁skew	-11.7334
▁multiplier	-11.7335
carbamoyl	-11.7337
▁FC	-11.7341
132	-11.7342
▁recognizes	-11.7342
methylene	-11.7344
activated	-11.7345
▁Ha	-11.7346
▁compress	-11.7349
▁substitute	-11.735
▁Solution	-11.7356
▁7.9	-11.7357
▁stretching	-11.7357
▁0.003	-11.7357
operative	-11.7358
▁desirably	-11.736
▁Accession	-11.7362
▁buffered	-11.7364
▁introducer	-11.7365
▁vibrations	-11.7366
GP	-11.7367
ns	-11.7369
ano	-11.7373
▁discarded	-11.7373
▁4°	-11.7374
mers	-11.7374
▁ttt	-11.7375
heteroaryl	-11.7377
▁cholesterol	-11.7378
▁801	-11.7378
ising	-11.7381
▁incision	-11.7381
▁excluding	-11.7381
▁translate	-11.7381
▁harvested	-11.7383
▁segmented	-11.7385
▁oxy	-11.7386
▁bid	-11.7389
TECHNIC	-11.739
izable	-11.7391
▁duplicate	-11.7391
107	-11.7394
▁tuned	-11.7397
▁Column	-11.7398
▁biologically	-11.7401
▁phrases	-11.7401
▁PG	-11.7403
▁362	-11.7403
▁outdoor	-11.7403
MB	-11.7405
ration	-11.741
▁323	-11.7411
▁TH	-11.7411
▁coordination	-11.7413
2.7	-11.7415
▁chemicals	-11.7421
coding	-11.7421
▁delete	-11.7422
▁flashing	-11.7422
▁touchscreen	-11.7425
1.9	-11.7429
▁AN	-11.7434
ENT	-11.7436
▁mattress	-11.7445
▁ordering	-11.7446
▁//	-11.7446
▁granular	-11.7447
▁Output	-11.7452
hexahydro	-11.7452
3.7	-11.7453
▁(25	-11.7454
▁particulates	-11.7455
▁affects	-11.7456
▁noble	-11.7459
▁isomers	-11.7459
▁team	-11.7461
YES	-11.7462
▁Configuration	-11.7465
▁exits	-11.7467
ding	-11.747
▁logging	-11.7473
▁LO	-11.7474
itol	-11.7474
HS	-11.7474
▁carbonyl	-11.7476
▁strongly	-11.7476
▁Return	-11.7477
▁RGB	-11.7485
▁retardation	-11.7488
▁840	-11.7489
▁reply	-11.7489
square	-11.7497
▁Cas	-11.7498
▁generators	-11.7498
▁electrophoresis	-11.7498
▁technician	-11.7498
▁tracing	-11.7498
9.5	-11.7502
▁balanced	-11.7505
▁microorganism	-11.7506
4.6	-11.7506
▁dominant	-11.7508
▁es	-11.7508
▁bitstream	-11.7512
▁walking	-11.7513
▁success	-11.7514
▁722	-11.7514
▁expressions	-11.7515
▁rights	-11.7522
▁Address	-11.7526
1-1	-11.753
▁advancing	-11.753
▁Hall	-11.7532
▁TECHNIC	-11.7532
pyrazolo	-11.7533
▁10,000	-11.7534
▁adder	-11.7535
▁mediated	-11.7536
ifying	-11.7536
-60	-11.7538
rac	-11.7538
▁expiration	-11.7541
▁homology	-11.7542
▁consuming	-11.7543
quite	-11.7545
▁SiC	-11.7548
▁standardized	-11.7551
▁Circuit	-11.7552
▁pose	-11.7553
Mo	-11.7553
▁NaOH	-11.7553
▁Ch	-11.7554
▁considerable	-11.7554
col	-11.7561
▁gram	-11.7562
▁privacy	-11.7563
▁413	-11.7566
▁LB	-11.7566
ivity	-11.757
▁buffering	-11.7572
▁floppy	-11.7573
Ni	-11.7574
input	-11.7574
▁274	-11.7574
ou	-11.7575
205	-11.758
▁plugs	-11.758
▁disclosures	-11.7583
▁None	-11.7585
108	-11.7585
▁428	-11.7587
▁Metal	-11.7592
▁LE	-11.7593
static	-11.7594
▁designate	-11.7594
▁−4	-11.7595
▁York	-11.7595
▁bonus	-11.7595
▁Research	-11.7595
▁hydrogel	-11.7595
▁rises	-11.7597
1;	-11.7598
▁evenly	-11.7599
▁thicker	-11.7604
GW	-11.7605
oct	-11.7606
▁adapt	-11.7607
▁exp	-11.7611
▁(500	-11.7613
▁finishing	-11.7614
hu	-11.7614
Pr	-11.7614
▁cos	-11.7615
▁transgene	-11.7616
ng	-11.7617
▁centrifugation	-11.7617
▁Design	-11.7617
6.0	-11.7618
▁architectures	-11.7621
▁doors	-11.7622
sil	-11.7622
▁repeats	-11.7625
ious	-11.763
▁cancers	-11.7632
▁AM	-11.7632
▁Typical	-11.7635
▁PDA	-11.7638
sided	-11.7642
▁manganese	-11.7644
▁TC	-11.7646
pir	-11.7646
▁FR	-11.7649
▁Conversely	-11.7649
▁(1993)	-11.7649
▁apex	-11.7649
▁elution	-11.7651
4.3	-11.7652
▁buckle	-11.7655
▁uptake	-11.7662
▁Frame	-11.7662
▁580	-11.7662
iss	-11.7663
▁wrap	-11.7664
▁NOs	-11.7665
▁tie	-11.7667
vis	-11.7667
▁sorted	-11.7669
CK	-11.767
▁Technical	-11.7671
▁stabilize	-11.7672
▁allocating	-11.7672
▁hundred	-11.7674
▁624	-11.7674
Ex	-11.7674
▁brace	-11.7674
Ar	-11.7678
peptide	-11.7679
▁laid	-11.768
▁news	-11.768
▁ethoxy	-11.7681
▁abutting	-11.7682
ock	-11.7686
▁street	-11.7688
▁pod	-11.769
▁encompassed	-11.769
dot	-11.7691
▁rough	-11.7692
imidazole	-11.7692
sulfonamide	-11.7693
▁cloning	-11.7693
▁cargo	-11.7693
▁disclose	-11.7695
[3	-11.7696
▁provisional	-11.7699
▁diffuse	-11.7703
▁applicant	-11.7704
▁regression	-11.7704
▁favorable	-11.7704
▁Media	-11.7709
▁6.8	-11.7714
▁Manager	-11.7715
▁chord	-11.7715
▁Et	-11.7715
▁authenticate	-11.7718
▁exclusively	-11.772
▁microbial	-11.772
6.1	-11.7723
▁blower	-11.7725
BE	-11.7725
▁basket	-11.7725
cre	-11.7727
▁bow	-11.7728
▁increment	-11.7731
▁modulators	-11.7731
▁rotationally	-11.7732
ome	-11.7733
▁345	-11.7735
▁hydrogenated	-11.7735
▁repetition	-11.7736
▁tobacco	-11.7736
▁SB	-11.7738
▁terminate	-11.7739
▁syn	-11.7742
▁trailer	-11.7746
▁−5	-11.7747
▁integrating	-11.7747
▁harmful	-11.7747
▁detached	-11.7749
benzodioxole	-11.775
▁oligomer	-11.7755
▁Conventional	-11.7755
▁campaign	-11.7758
=5	-11.7759
molecular	-11.7759
▁cag	-11.776
cis	-11.776
▁magnetically	-11.7762
▁eliminates	-11.7763
cit	-11.7765
▁protector	-11.777
▁EX	-11.7771
▁nearby	-11.7773
▁peeling	-11.7774
▁constructions	-11.7777
▁holographic	-11.778
NK	-11.7782
▁millimeters	-11.7785
▁tilting	-11.7786
▁fluidly	-11.7788
▁colorant	-11.7789
▁escape	-11.7791
320	-11.7792
▁QA	-11.7793
▁10°	-11.7793
labeled	-11.7793
▁1994	-11.7797
▁resident	-11.7799
▁expense	-11.7801
RR	-11.7802
gain	-11.7806
▁trunk	-11.7807
▁3′-	-11.7809
agaa	-11.781
vehicle	-11.7815
▁pet	-11.7815
propionic	-11.7816
vert	-11.7818
ever	-11.782
▁cartridges	-11.7821
▁dialog	-11.7825
▁760	-11.7832
wall	-11.7833
▁(0	-11.7834
RY	-11.7837
und	-11.7837
▁orange	-11.7837
▁notified	-11.7839
ref	-11.7839
▁cognitive	-11.7839
ren	-11.7842
8)	-11.7844
bs	-11.7846
▁Film	-11.7846
▁federated	-11.7847
▁trademark	-11.7848
0.7	-11.7852
▁conveniently	-11.7853
comp	-11.7854
LED	-11.7855
▁prefix	-11.7856
▁wrapped	-11.7858
▁initiates	-11.7859
▁183	-11.7862
▁1030	-11.7863
ll	-11.7864
▁ED	-11.7864
having	-11.787
▁staple	-11.7873
▁terephthalate	-11.7874
wt	-11.7874
▁sensory	-11.7878
3.9	-11.7879
▁congestion	-11.788
LY	-11.7887
bed	-11.7887
▁kits	-11.7889
▁Physical	-11.789
▁Line	-11.7892
ctc	-11.7894
▁227	-11.7901
▁detent	-11.7902
▁retraction	-11.7903
▁withstand	-11.7904
▁emotion	-11.7904
▁contraction	-11.7904
▁directs	-11.7905
▁homo	-11.7907
diol	-11.7907
cent	-11.7908
▁tgg	-11.7909
▁Key	-11.791
UV	-11.791
▁Tag	-11.7914
▁trim	-11.7917
▁cytotoxic	-11.7924
▁insulative	-11.7925
▁survival	-11.7925
▁jig	-11.7925
▁Name	-11.793
lf	-11.7933
9.2	-11.7935
▁continuing	-11.7936
▁compensated	-11.7939
▁PHY	-11.7939
▁porosity	-11.794
▁trend	-11.7941
▁pairing	-11.7941
discharge	-11.7945
▁Buffer	-11.7945
▁multiplication	-11.7947
▁spectroscopy	-11.7947
▁(10)	-11.7949
▁lysine	-11.7949
▁subtracting	-11.7951
▁intersecting	-11.7952
▁268	-11.7953
▁FIFO	-11.7955
7.6	-11.7955
VD	-11.7956
2.6	-11.7956
▁Detection	-11.7958
▁permeation	-11.7958
methylphenyl	-11.7959
▁sectors	-11.796
▁80%,	-11.7961
▁Bit	-11.7969
8.5	-11.797
▁gtg	-11.7971
circle	-11.7973
pyrazin	-11.7974
▁blot	-11.7974
▁Eq	-11.798
▁trays	-11.7983
▁0%	-11.7984
cellular	-11.7984
▁covalent	-11.7984
,12	-11.7985
▁notifies	-11.7986
▁excessively	-11.7987
▁dipole	-11.7992
0]	-11.7993
105	-11.7994
cca	-11.7997
▁partitioning	-11.7997
▁satisfying	-11.7998
▁germanium	-11.7999
su	-11.8006
jet	-11.8013
▁inflation	-11.8014
▁medial	-11.8016
137	-11.8017
▁want	-11.8018
-24	-11.8018
293	-11.8022
▁derive	-11.8022
▁2-4	-11.8023
▁stresses	-11.8024
▁4%	-11.8025
▁telephony	-11.8026
▁National	-11.8026
▁Samples	-11.8027
▁wager	-11.803
▁4-(	-11.8031
rine	-11.8034
▁(1994)	-11.8037
▁reflectance	-11.8037
▁Green	-11.8041
▁1220	-11.8042
▁shadow	-11.8042
med	-11.8043
▁SLC	-11.8043
▁integers	-11.8047
▁Japan	-11.8048
▁pedestal	-11.8048
▁ventricular	-11.8049
▁6.7	-11.805
▁extensions	-11.8051
agc	-11.8052
▁perpendicularly	-11.8052
cept	-11.8053
▁deactivated	-11.8053
▁diisocyanate	-11.8053
▁stimulate	-11.8054
▁2+	-11.8054
▁provisioning	-11.8055
app	-11.8059
▁vibrating	-11.8059
▁198	-11.8062
▁scenarios	-11.8064
▁queues	-11.8065
▁deemed	-11.8071
▁reticle	-11.8071
eli	-11.8071
tight	-11.8072
start	-11.8076
▁touching	-11.8079
▁resides	-11.8079
▁divide	-11.808
cycle	-11.808
▁subcutaneous	-11.808
▁banks	-11.808
LO	-11.8082
▁Technology	-11.8082
▁proprietary	-11.8085
▁tuner	-11.8086
ammonium	-11.8087
▁seismic	-11.8088
▁6.4	-11.8089
af	-11.8092
other	-11.8093
methanol	-11.8095
▁traction	-11.8099
▁%.	-11.8103
▁incremental	-11.8103
▁assumption	-11.8105
▁ATP	-11.8106
▁pertains	-11.8108
▁Add	-11.8111
resistance	-11.8111
:1)	-11.8112
▁End	-11.8112
EX	-11.8113
:10	-11.8115
▁satisfactory	-11.8116
tens	-11.8121
oyl	-11.8123
function	-11.8123
▁fee	-11.8123
7]	-11.8124
▁dryer	-11.8128
ethynyl	-11.8128
arc	-11.8129
iness	-11.813
pH	-11.813
▁attained	-11.8132
EA	-11.8137
-&	-11.8137
▁gag	-11.8139
▁(1992)	-11.8139
▁petroleum	-11.8144
pyrrolidin	-11.8145
131	-11.8145
▁2014	-11.8146
▁615	-11.8149
▁lymph	-11.815
▁901	-11.8152
▁tread	-11.8153
ost	-11.8155
▁instructs	-11.8156
▁antigenic	-11.8157
▁EMBODIMENT	-11.8166
nc	-11.8168
▁Sc	-11.8171
▁Ac	-11.8171
▁heading	-11.8171
▁Spring	-11.8172
▁whenever	-11.8173
▁truncated	-11.8174
▁Weight	-11.8174
ign	-11.8175
piperidine	-11.8175
ction	-11.8178
qu	-11.8184
]-2-	-11.8185
▁FPGA	-11.8185
▁434	-11.8185
azine	-11.8186
-2)	-11.8187
▁thumbnail	-11.8188
picture	-11.8188
▁nearest	-11.8188
7.4	-11.8193
[3,2-	-11.8196
▁simulator	-11.8196
▁Point	-11.8196
▁conformal	-11.8198
▁roughly	-11.82
▁FGFR	-11.8201
eal	-11.8202
cells	-11.8203
VG	-11.8204
▁Heat	-11.8204
▁tg	-11.8207
member	-11.8207
▁stomach	-11.8208
▁inbred	-11.8208
▁VP	-11.8209
▁endo	-11.8209
▁phospho	-11.821
inflammatory	-11.8212
▁supplemented	-11.8212
▁HER	-11.8213
▁Flash	-11.8214
▁LS	-11.8215
▁1-8	-11.8217
rim	-11.8218
▁fillers	-11.8218
▁Biochem	-11.8219
▁wetting	-11.8221
HC	-11.8223
▁deletions	-11.8224
morpholin	-11.8229
▁journal	-11.8231
▁paging	-11.8233
▁crop	-11.8234
▁polling	-11.8234
cet	-11.8239
▁organo	-11.8239
▁abuts	-11.8242
▁agitation	-11.8242
▁legacy	-11.8242
▁541	-11.8243
▁detergent	-11.8243
▁validity	-11.8245
Methyl	-11.825
UC	-11.825
▁prepolymer	-11.8252
MF	-11.8253
▁1302	-11.8253
▁Transfer	-11.8254
▁ultimately	-11.8255
▁Form	-11.8256
closing	-11.8258
▁subcarrier	-11.8258
▁ct	-11.8259
▁centrally	-11.8262
▁centerline	-11.8265
▁Management	-11.8265
▁disposing	-11.8265
▁(15	-11.8266
▁summarized	-11.8266
80°	-11.8268
▁Ho	-11.8268
▁BC	-11.8272
▁cytokine	-11.8272
clo	-11.8274
▁0.000	-11.8276
▁toxicity	-11.8276
▁Appl	-11.8276
▁participating	-11.8277
dt	-11.8277
▁LT	-11.8277
reference	-11.8279
150	-11.8282
▁propagated	-11.8283
CE	-11.8285
▁loose	-11.8285
▁5.1	-11.8286
holes	-11.8288
▁encapsulating	-11.8288
▁inexpensive	-11.8288
▁(1995)	-11.8288
▁analyser	-11.8289
weight	-11.8289
axial	-11.8293
olefin	-11.8294
valent	-11.8294
▁encapsulation	-11.8295
reactive	-11.8296
ola	-11.8297
▁precipitated	-11.8298
▁scatter	-11.8299
VE	-11.8301
▁student	-11.8302
2/	-11.8302
generated	-11.8302
▁scans	-11.8305
010	-11.8307
▁Neuro	-11.8307
nate	-11.8307
▁columnar	-11.8309
ations	-11.831
▁431	-11.8311
▁Nucleic	-11.8312
▁coin	-11.8312
-7,3′-	-11.8312
ions	-11.8313
▁PU	-11.8315
▁VC	-11.8316
▁ECC	-11.8317
▁Devices	-11.8319
▁fungal	-11.8321
cyclic	-11.8322
▁eluting	-11.8323
▁preferentially	-11.8324
▁mast	-11.8326
▁Class	-11.8328
▁Air	-11.8334
▁quantified	-11.8335
▁iodine	-11.8335
▁RAID	-11.8336
▁contribution	-11.8336
▁antioxidant	-11.8337
▁modeled	-11.8338
▁led	-11.8341
▁Exp	-11.8345
▁outboard	-11.8346
▁Incidentally	-11.8346
▁substituting	-11.8346
▁microcomputer	-11.8347
Mn	-11.8348
cta	-11.835
Sr	-11.835
▁TD	-11.8351
▁subunit	-11.8352
cross	-11.8352
▁thorough	-11.8355
2),	-11.8356
▁localization	-11.8357
▁rejection	-11.8359
▁citric	-11.836
▁vendor	-11.836
▁507	-11.836
negative	-11.8363
enabled	-11.8366
▁1204	-11.837
▁Three	-11.837
▁overlying	-11.837
▁considerably	-11.837
0)	-11.837
▁harvesting	-11.8373
▁ortho	-11.8374
(3,5-	-11.8374
▁keywords	-11.8374
▁nd	-11.8375
phen	-11.8375
▁anion	-11.8377
▁iteration	-11.838
▁YES	-11.838
▁imaginary	-11.8382
▁genetically	-11.8384
▁backplane	-11.8385
ana	-11.8387
iodo	-11.8391
▁dog	-11.8394
memory	-11.8398
▁personalized	-11.8399
▁minus	-11.84
▁constitution	-11.8402
▁shopping	-11.8405
▁tendency	-11.8405
▁quantized	-11.8406
▁renal	-11.8407
erg	-11.841
ject	-11.841
▁abstract	-11.8415
▁windshield	-11.8417
▁trait	-11.8419
int	-11.8424
▁issuing	-11.8428
▁toilet	-11.843
HP	-11.843
▁disadvantage	-11.843
▁constrained	-11.843
▁fibre	-11.8431
tro	-11.8434
1000	-11.8436
▁Index	-11.8437
.-%	-11.8437
▁1006	-11.8438
▁jump	-11.8438
▁demodulation	-11.844
ifier	-11.8442
ual	-11.8444
▁hydroxypropyl	-11.8445
trip	-11.8446
▁marketing	-11.8447
▁transcript	-11.8449
hydroxyphenyl	-11.8451
▁eluted	-11.8452
▁Indeed	-11.8452
▁Ce	-11.8453
▁refill	-11.8454
▁pumped	-11.8455
▁interruption	-11.8456
▁vitamin	-11.8459
▁micrometers	-11.8459
▁GB	-11.8462
BD	-11.8463
UL	-11.8464
MO	-11.8466
▁grounding	-11.8469
▁autoimmune	-11.8475
▁Figures	-11.8476
▁asynchronous	-11.8476
▁Good	-11.8477
▁pellets	-11.848
▁5.2	-11.8483
▁intraocular	-11.8487
ung	-11.8488
▁inertial	-11.849
▁RD	-11.8491
▁jobs	-11.8491
▁factory	-11.8492
▁notches	-11.8498
AI	-11.8498
▁rig	-11.8499
SW	-11.8499
▁encountered	-11.8502
220	-11.8503
istic	-11.8503
alone	-11.8505
▁VDD	-11.8511
▁intensities	-11.8511
▁consumers	-11.8513
KL	-11.8518
▁Object	-11.852
uff	-11.8521
▁ingress	-11.8523
▁tenth	-11.8526
▁photographing	-11.8532
yo	-11.8536
metric	-11.8539
cy	-11.8539
▁Tables	-11.8539
▁243	-11.8544
▁Present	-11.8547
▁anvil	-11.8547
[2,3,4	-11.8547
sta	-11.8547
▁rain	-11.8548
gaaa	-11.8552
minute	-11.8553
duct	-11.8555
=(	-11.8555
ener	-11.8555
HD	-11.8555
▁closes	-11.8555
▁deriving	-11.856
ionic	-11.8562
tat	-11.8563
▁1993	-11.8566
dic	-11.8568
▁elevational	-11.8569
▁stimulating	-11.8569
IX	-11.8571
ATCC	-11.8572
old	-11.8572
▁im	-11.8575
ature	-11.8576
▁Windows	-11.8585
▁excipient	-11.8585
Sp	-11.8587
▁recycled	-11.8587
▁FM	-11.8589
tab	-11.859
acyl	-11.8592
▁eukaryotic	-11.8594
▁limb	-11.8595
▁tRNA	-11.8597
▁rt	-11.8597
ural	-11.8601
▁interposer	-11.8606
away	-11.8608
▁logs	-11.8608
▁actively	-11.8609
▁retailer	-11.8617
mir	-11.8617
▁sweep	-11.8618
▁253	-11.8618
▁irradiating	-11.8618
▁sprocket	-11.8618
Se	-11.8623
typically	-11.8625
170	-11.8626
▁fits	-11.8626
▁hsa	-11.8631
▁plenum	-11.8642
ctt	-11.8648
▁boost	-11.8651
▁interconnecting	-11.8655
▁unused	-11.8655
thiazol	-11.8656
▁Sa	-11.8659
GC	-11.866
▁phosphoric	-11.866
5.4	-11.8662
▁reject	-11.8662
pyridyl	-11.8662
(1)	-11.8667
til	-11.8669
▁dryness	-11.867
oll	-11.867
▁356	-11.8672
sulfonic	-11.8675
▁344	-11.8678
▁conversation	-11.8678
▁HD	-11.8678
3-1	-11.8679
▁peg	-11.868
▁contemplates	-11.8682
▁enhancer	-11.8685
run	-11.8688
▁bucket	-11.869
5.3	-11.8692
▁indexing	-11.8693
▁Material	-11.8694
ned	-11.8695
FR	-11.8697
▁409	-11.8698
▁narrower	-11.8699
CDMA	-11.87
▁tagged	-11.87
mg	-11.8701
heat	-11.8702
▁Purification	-11.8702
▁restrict	-11.8702
▁breeding	-11.8702
nyl	-11.8703
▁solved	-11.8705
▁ASIC	-11.8705
▁triangle	-11.8707
5.6	-11.8708
▁442	-11.8708
-4-(	-11.871
▁SNR	-11.8713
▁retrieves	-11.8713
▁recirculation	-11.8714
▁fibrosis	-11.8714
▁vein	-11.8718
104	-11.872
TAG	-11.8729
▁FI	-11.8731
▁star	-11.8732
▁tunable	-11.8735
-43	-11.8738
▁annulus	-11.8738
▁Microsoft	-11.8739
▁914	-11.8739
▁thought	-11.8742
▁Software	-11.8742
▁revealed	-11.8743
▁swivel	-11.8751
gac	-11.8751
▁bad	-11.8752
▁VPN	-11.8753
▁hit	-11.8755
▁illuminate	-11.8756
8.2	-11.8759
▁melted	-11.876
▁rolled	-11.8762
▁firearm	-11.8763
▁Single	-11.8763
▁excited	-11.8765
▁flowable	-11.8768
"	-11.8768
▁delivers	-11.8768
parallel	-11.8769
eri	-11.8775
▁virtue	-11.8775
▁CHO	-11.8775
▁calibrated	-11.8778
▁lyophilized	-11.8779
▁proof	-11.8783
)-1-(	-11.8783
▁tracker	-11.8786
▁rectifier	-11.8787
▁textile	-11.8788
BT	-11.8788
EF	-11.8794
toluene	-11.8795
▁increasingly	-11.8797
▁HT	-11.8799
▁apoptosis	-11.8799
▁cleaned	-11.8802
NI	-11.8802
▁analyzes	-11.8807
bottom	-11.8807
▁Gas	-11.8809
▁stereoscopic	-11.8811
▁humanized	-11.8812
▁propulsion	-11.8812
▁impairment	-11.8812
▁diesel	-11.8813
▁tester	-11.8814
▁Frequency	-11.8818
▁193	-11.8818
▁SOC	-11.8819
▁latches	-11.8821
ess	-11.8822
fuel	-11.8822
[4	-11.8824
▁audience	-11.8824
cyto	-11.8824
si	-11.8827
▁John	-11.8828
pyrimidine	-11.8829
▁292	-11.8829
▁355	-11.8835
201	-11.8835
▁schema	-11.8836
▁(1997)	-11.8836
▁hydrocarbyl	-11.884
Time	-11.8849
ret	-11.8849
han	-11.8853
▁Effect	-11.8853
butan	-11.8855
▁NFC	-11.8856
▁525	-11.8857
anol	-11.8859
▁Procedure	-11.886
▁entropy	-11.886
▁garment	-11.886
▁professional	-11.886
▁loader	-11.8861
▁Resource	-11.8861
▁bowl	-11.8863
▁pivoted	-11.8864
▁programmer	-11.8865
▁wish	-11.8867
▁DD	-11.8868
▁mismatch	-11.8869
▁extreme	-11.8869
127	-11.8871
▁coherent	-11.8871
▁mate	-11.8871
▁outlined	-11.8871
▁scoring	-11.8873
▁watch	-11.8874
▁moles	-11.8876
▁clay	-11.8877
▁DI	-11.8882
360	-11.8882
▁ensured	-11.8891
center	-11.8892
▁tetrahydro	-11.8893
▁(9)	-11.8894
123	-11.8895
▁designer	-11.8896
▁judging	-11.8897
▁transponder	-11.8897
▁departure	-11.8897
▁NaHCO	-11.8897
ham	-11.8898
benzyloxy	-11.8898
▁Back	-11.89
256	-11.8901
)-3-(	-11.8901
▁demonstrates	-11.8902
▁trust	-11.8905
Patent	-11.8906
▁biodegradable	-11.8906
KT	-11.8907
240	-11.8907
▁undesired	-11.891
▁deform	-11.8913
byte	-11.8915
▁indoor	-11.8918
normal	-11.8918
column	-11.8918
▁raising	-11.8922
▁forwards	-11.8923
▁capping	-11.8926
▁Up	-11.8928
▁scaled	-11.893
▁smoke	-11.8934
▁airfoil	-11.8935
▁bisphenol	-11.8935
▁Nano	-11.8935
ended	-11.8937
▁stabilization	-11.8939
▁subjecting	-11.8941
▁338	-11.8943
▁American	-11.8943
▁indexes	-11.8946
▁displace	-11.895
▁meat	-11.895
Et	-11.8952
▁3-6	-11.8953
▁Resin	-11.8953
oy	-11.8953
nm	-11.8954
cho	-11.8954
▁regimen	-11.8956
▁542	-11.8958
WAN	-11.8959
ggc	-11.8959
▁stochastic	-11.8959
sion	-11.8961
-(5-	-11.8963
▁isobutyl	-11.8965
▁1800	-11.8965
▁excluded	-11.8966
▁Message	-11.8966
▁tan	-11.8967
▁backside	-11.8967
▁phenotype	-11.8971
▁sapiens	-11.8971
count	-11.8972
ms	-11.8973
▁Nb	-11.8976
▁codeword	-11.898
▁gets	-11.8983
▁bovine	-11.8984
▁(1999)	-11.8984
▁lying	-11.8986
▁replicated	-11.8988
▁Program	-11.8988
▁establishes	-11.8989
▁ITO	-11.8989
BM	-11.8989
▁runtime	-11.899
▁deal	-11.8991
-200	-11.8995
carboxy	-11.8996
ency	-11.8998
▁methodologies	-11.9001
▁distributions	-11.9001
▁booster	-11.9004
▁LOC	-11.9005
Cr	-11.9006
VC	-11.9007
logic	-11.9008
circumflex	-11.9009
▁bidirectional	-11.9009
▁acceptor	-11.9012
▁San	-11.9013
▁Rx	-11.9015
▁mould	-11.9015
▁435	-11.9016
▁brief	-11.9018
sensor	-11.9018
each	-11.9018
▁flavor	-11.9019
▁attitude	-11.9021
imethylformamide	-11.9021
▁reconstructed	-11.9024
▁inventor	-11.9025
tetramethyl	-11.9025
▁separates	-11.9026
▁combines	-11.9029
▁conduits	-11.903
ld	-11.9031
corresponding	-11.9031
▁ridges	-11.9031
▁chloroform	-11.9033
▁smoothly	-11.9033
▁erasing	-11.9034
▁histogram	-11.9034
▁bulb	-11.9034
aging	-11.9036
fl	-11.9037
▁triggers	-11.9041
directed	-11.9045
▁Corp	-11.9046
▁Korean	-11.9046
▁encrypt	-11.9047
▁endpoints	-11.9047
▁arch	-11.9048
▁gave	-11.9052
KE	-11.9052
tta	-11.9054
▁adjustments	-11.9056
▁restart	-11.9056
NN	-11.9058
▁(1998)	-11.9059
▁dependency	-11.9059
UA	-11.906
▁0.20	-11.9062
▁cube	-11.9062
1]	-11.9064
ica	-11.9065
▁mo	-11.9068
▁textual	-11.9071
▁oval	-11.9072
102	-11.9072
▁polished	-11.9073
▁microphones	-11.9075
▁guarantee	-11.9076
▁primitive	-11.9077
▁Bar	-11.9079
▁Link	-11.9081
FA	-11.9086
cast	-11.9089
FE	-11.909
▁197	-11.909
▁EDTA	-11.9092
▁SIP	-11.9094
▁sprayed	-11.9096
▁recovering	-11.9096
▁transporter	-11.9096
▁dehydrogenase	-11.9096
▁phantom	-11.9096
▁Pressure	-11.9096
▁subscribers	-11.9104
sulfonate	-11.9105
▁instruct	-11.9106
under	-11.9107
▁ratchet	-11.9109
▁virtualization	-11.9109
via	-11.9111
▁CRS	-11.9117
▁relational	-11.9119
Compound	-11.9119
ug	-11.9122
▁unitary	-11.9127
ttct	-11.9131
ulated	-11.9133
▁gyroscope	-11.9134
▁redirect	-11.9134
264	-11.9136
▁fitness	-11.9136
▁cabin	-11.9137
▁tightly	-11.9138
▁cloth	-11.914
ylation	-11.9141
▁usual	-11.9143
▁responds	-11.9144
▁experienced	-11.9145
▁predicting	-11.9146
▁morphology	-11.9146
▁synthase	-11.9146
▁rock	-11.9147
▁backhaul	-11.9148
▁He	-11.9148
▁cyan	-11.9148
▁briefly	-11.915
▁coupon	-11.9153
▁diversity	-11.9153
density	-11.9157
▁cis	-11.9158
▁ta	-11.9159
▁institution	-11.9161
UT	-11.9165
▁polysaccharide	-11.9167
▁lithographic	-11.9169
125	-11.917
ral	-11.9171
▁restraint	-11.9174
▁advertiser	-11.9174
cus	-11.9176
▁lasers	-11.9179
▁distinguished	-11.918
action	-11.918
▁wirings	-11.9181
▁million	-11.9181
OCH	-11.9181
▁parties	-11.9181
Au	-11.9181
▁healthy	-11.9182
▁exogenous	-11.9184
▁TI	-11.9187
ATION	-11.919
products	-11.9193
loaded	-11.9193
▁retains	-11.9195
▁collimator	-11.9197
▁perforated	-11.9197
▁LDPC	-11.9198
▁computerized	-11.9198
ode	-11.9199
▁5.8	-11.92
▁waterproof	-11.9201
▁ROS	-11.9202
▁lactate	-11.9203
▁Assay	-11.9204
FD	-11.9205
▁pulp	-11.9205
aniline	-11.9208
▁feel	-11.9209
103	-11.921
▁judges	-11.921
▁elliptical	-11.9211
RO	-11.9211
▁fetal	-11.9211
6.2	-11.9214
▁oxidant	-11.9217
▁Plate	-11.9218
▁adjuster	-11.9222
▁averaging	-11.9222
Mm	-11.9224
]-3-	-11.9226
▁hypo	-11.923
▁millimeter	-11.923
fen	-11.9234
▁exclude	-11.9235
▁luggage	-11.9235
▁ligation	-11.9235
▁subsets	-11.9239
len	-11.9239
API	-11.924
▁machined	-11.924
lig	-11.9243
WL	-11.9244
▁Oil	-11.9245
▁aldehyde	-11.9246
▁vertebral	-11.9246
▁Besides	-11.9248
▁atrial	-11.9248
▁spinning	-11.9248
▁signed	-11.9251
▁Max	-11.9251
-2-(	-11.9252
▁UAV	-11.9254
za	-11.9256
tent	-11.9258
▁law	-11.9259
▁tc	-11.9259
▁trained	-11.9261
▁digits	-11.9261
▁prosthetic	-11.9261
▁Solid	-11.9261
▁raster	-11.9261
▁pur	-11.9262
two	-11.9265
diyl	-11.9266
▁HE	-11.9266
▁conflict	-11.9271
▁NC	-11.9274
▁constituents	-11.9275
ological	-11.9275
ade	-11.9278
▁gels	-11.9279
▁1995	-11.9281
▁multiplicity	-11.9286
▁suffer	-11.9286
▁gcc	-11.9287
▁Organic	-11.9293
ress	-11.9294
▁clocks	-11.9297
▁behavioral	-11.9298
▁immersion	-11.9299
▁thumb	-11.9299
lets	-11.9301
coat	-11.9301
ck	-11.9307
aaat	-11.9307
Fc	-11.9309
reception	-11.9311
▁consistency	-11.9312
deoxy	-11.9312
▁selections	-11.9313
▁positively	-11.9314
VF	-11.9318
tive	-11.9319
▁decisions	-11.9319
▁BE	-11.9321
▁overview	-11.9324
▁symmetry	-11.9325
▁Office	-11.9325
▁VoIP	-11.9325
▁epithelial	-11.9328
ef	-11.9332
▁notes	-11.9332
▁534	-11.9336
▁femoral	-11.9338
▁discontinuous	-11.9338
▁creator	-11.9338
▁functionalities	-11.934
OFF	-11.9341
▁facilitated	-11.9341
▁lanes	-11.9342
▁twisted	-11.9342
▁amplify	-11.9343
indazol	-11.9344
▁movably	-11.9345
qua	-11.9347
▁keyword	-11.9347
toxic	-11.9349
▁pivotable	-11.935
▁cubic	-11.935
▁solving	-11.935
▁equals	-11.9353
ven	-11.9353
×2	-11.9354
▁STR	-11.9355
2.9	-11.9357
▁293	-11.9361
▁VR	-11.9361
using	-11.9361
hydrate	-11.9363
▁blast	-11.9363
▁(40	-11.9366
▁formulas	-11.9366
imidazol	-11.9366
▁advertisements	-11.9368
▁5.3	-11.9369
▁0.05%	-11.9369
rap	-11.9371
▁PTFE	-11.9371
▁632	-11.9373
ACC	-11.9373
▁raise	-11.9377
▁masks	-11.9378
tgtg	-11.9379
▁foldable	-11.9381
▁pyridyl	-11.9382
KI	-11.9382
▁constants	-11.9382
benzoate	-11.9384
▁edited	-11.9386
▁possess	-11.9387
HCl	-11.9387
▁quaternary	-11.9389
▁caching	-11.9389
▁Interview	-11.9389
DB	-11.9391
BR	-11.9391
▁clamped	-11.9394
▁)(	-11.9397
▁theoretical	-11.9399
▁conceptual	-11.9399
▁emulsions	-11.9399
sample	-11.94
▁serine	-11.9401
▁SRAM	-11.9402
350	-11.9402
lot	-11.9403
hydrogen	-11.9405
▁carbons	-11.9406
▁parenteral	-11.9412
▁conditioned	-11.9414
▁chance	-11.9415
9.0	-11.9416
▁supplement	-11.9417
▁instructing	-11.9423
▁reforming	-11.9423
▁(0.2	-11.9427
▁underneath	-11.9428
▁basically	-11.9434
▁organs	-11.9436
▁outlets	-11.9439
uro	-11.9439
2]	-11.944
degree	-11.9441
▁microscopy	-11.9441
▁sorbitol	-11.9441
▁Fiber	-11.9441
▁VCO	-11.9444
▁Serial	-11.9446
uck	-11.9446
▁collapse	-11.9447
▁notifications	-11.9449
▁0.18	-11.945
▁juice	-11.9454
▁275	-11.9454
▁wrist	-11.9454
urea	-11.9457
▁ob	-11.946
▁distally	-11.946
▁490	-11.946
▁8.6	-11.9465
▁winning	-11.9467
▁dec	-11.9468
▁propagate	-11.9468
▁oligomers	-11.9469
▁iris	-11.9469
▁SOI	-11.947
▁HMD	-11.9472
▁needles	-11.9475
▁finite	-11.9481
▁arrange	-11.9486
MR	-11.9486
▁periodicity	-11.9487
(3	-11.9487
either	-11.949
▁condensate	-11.9491
▁tris	-11.9491
▁disconnect	-11.9493
▁(1996)	-11.9493
▁centralized	-11.9493
▁heteroatom	-11.9494
▁tensioning	-11.9494
▁decide	-11.9495
▁planarization	-11.9497
▁observer	-11.9498
▁ledge	-11.9498
carb	-11.9499
▁670	-11.95
▁inverting	-11.9501
▁senses	-11.9501
▁El	-11.9501
oo	-11.9504
▁eV	-11.9505
-1,2,3-	-11.9506
▁eventually	-11.9507
▁plotted	-11.9507
▁Act	-11.9507
▁GW	-11.9511
▁expands	-11.9511
▁intent	-11.9511
ggag	-11.9513
naphthyl	-11.9515
▁shower	-11.9516
▁shallow	-11.9517
agt	-11.9517
▁DAC	-11.9518
▁bacterium	-11.9519
▁immersed	-11.9519
▁automotive	-11.9519
▁viscous	-11.9519
LF	-11.952
▁synchronize	-11.9522
▁addressing	-11.9524
4.9	-11.953
▁quote	-11.9532
phone	-11.9532
▁acceptance	-11.9533
▁pinned	-11.9533
▁covalently	-11.9536
▁sulfuric	-11.9537
print	-11.9544
▁assigns	-11.9545
▁eccentric	-11.9545
▁dialysis	-11.9545
▁tangential	-11.9546
▁940	-11.9546
▁prop	-11.9548
▁equilibrium	-11.9551
used	-11.9552
▁RAT	-11.9553
tt	-11.9553
▁POS	-11.9556
face	-11.9558
tu	-11.9559
▁articulation	-11.9559
▁(1991)	-11.9559
▁actuate	-11.9561
ple	-11.9563
lytic	-11.9564
▁neurons	-11.9567
▁317	-11.9568
▁Rate	-11.9571
▁elongation	-11.9572
alkynyl	-11.9573
▁resting	-11.9575
▁2100	-11.9576
▁annotation	-11.9581
▁visit	-11.9582
▁cracking	-11.9582
Glu	-11.9584
▁aft	-11.9586
▁notifying	-11.9587
▁MgSO	-11.9588
▁azimuth	-11.9589
cctg	-11.9592
▁Cap	-11.9595
▁346	-11.9595
▁spectrometry	-11.9598
▁sulfonic	-11.9603
▁4000	-11.9606
▁assisted	-11.9606
tom	-11.9607
▁805	-11.9607
case	-11.9607
▁restored	-11.961
▁naphthyl	-11.9611
▁maize	-11.9611
▁rivet	-11.9611
▁exchanging	-11.9611
”;	-11.9613
▁connectable	-11.9624
▁angiogenesis	-11.9625
▁thermosetting	-11.9625
ggg	-11.9629
▁adhesives	-11.963
▁degraded	-11.963
▁riser	-11.963
▁clustering	-11.963
▁VA	-11.9631
▁converters	-11.9631
▁Filter	-11.9632
▁Local	-11.9637
▁elimination	-11.9638
▁nucleus	-11.9638
270	-11.9639
▁DLL	-11.964
▁exhaustive	-11.9643
▁soon	-11.9645
woven	-11.9647
6.7	-11.9648
▁she	-11.9649
▁pillars	-11.9652
▁nasal	-11.9652
0000	-11.9653
▁bleed	-11.9657
▁ggc	-11.9657
▁instantaneous	-11.9661
LTE	-11.9662
ele	-11.9664
▁SM	-11.9664
▁densities	-11.9664
▁reusable	-11.9665
▁spent	-11.9667
ACTT	-11.9667
▁patches	-11.9668
▁reinforced	-11.9669
nucleotide	-11.9672
▁codons	-11.9678
▁Medical	-11.9679
▁Switch	-11.9679
RQ	-11.9679
▁bounding	-11.9682
▁disengaged	-11.9684
▁95%,	-11.9687
locked	-11.9688
fin	-11.9689
▁lymphoma	-11.9691
PY	-11.9692
-22	-11.9693
▁hop	-11.9695
▁rec	-11.9696
4°	-11.9696
▁lamps	-11.9696
▁spare	-11.9697
KA	-11.9698
▁oligo	-11.9699
▁Applications	-11.9699
▁maleic	-11.97
▁compressible	-11.9703
▁1101	-11.9706
▁indexed	-11.9709
▁cantilever	-11.9712
▁IDs	-11.9714
fused	-11.9715
▁satellites	-11.9715
▁contextual	-11.9719
▁lactic	-11.972
113	-11.972
=0,	-11.9721
▁Clin	-11.9721
▁167	-11.9722
▁heaters	-11.9722
page	-11.9724
▁polygonal	-11.9724
ogenic	-11.9724
▁Item	-11.9726
meric	-11.9728
-2,6-	-11.9732
▁inflated	-11.9733
▁Bo	-11.9735
omer	-11.9737
198	-11.974
uf	-11.9741
▁0.14	-11.9744
nexamined	-11.9744
photolithography	-11.9744
▁chiral	-11.9744
▁demodulator	-11.9745
▁Lo	-11.9746
▁attain	-11.9746
▁wavelet	-11.9746
gct	-11.975
ggaa	-11.9755
▁lug	-11.9756
▁Load	-11.9757
▁anticipated	-11.9758
rel	-11.976
SQ	-11.9768
DO	-11.977
▁0.11	-11.9771
▁intermediary	-11.9771
7.8	-11.9772
▁repeater	-11.9774
▁nanometers	-11.9775
▁prime	-11.9775
▁dish	-11.9776
▁observations	-11.9778
▁Measurement	-11.9779
▁1106	-11.9779
aS	-11.9781
▁pounds	-11.9782
▁bringing	-11.9782
119	-11.9782
▁resolved	-11.9783
▁aureus	-11.9785
▁aerial	-11.9785
absorbing	-11.9787
▁(1.0	-11.9788
▁allocate	-11.9789
DY	-11.9791
Ch	-11.9791
▁hooks	-11.9793
▁Gr	-11.9793
portion	-11.9794
ura	-11.9795
lit	-11.9797
▁arbitrarily	-11.9798
▁visceral	-11.9798
▁studied	-11.9798
GGG	-11.98
sol	-11.9801
▁1008	-11.9804
▁clothing	-11.9806
▁subsystems	-11.9806
▁1.25	-11.9807
▁la	-11.9807
▁comfort	-11.981
rear	-11.9814
▁highlighted	-11.9815
▁FD	-11.9816
▁cutout	-11.9817
▁Aspects	-11.9817
▁ttc	-11.9817
eck	-11.982
▁stacks	-11.9821
▁351	-11.9822
210	-11.9823
▁thirty	-11.9825
▁chest	-11.9827
▁outbound	-11.9828
▁GH	-11.9829
▁BM	-11.9829
106	-11.9831
tgaa	-11.9832
2′-	-11.9835
▁QC	-11.9836
▁coincide	-11.9836
▁operand	-11.9836
▁Journal	-11.9839
▁Given	-11.9839
dia	-11.9841
▁unlike	-11.9849
CCC	-11.985
▁crash	-11.9852
▁disparity	-11.9852
▁gl	-11.9853
ato	-11.9854
lat	-11.9854
▁suspending	-11.9857
▁progressively	-11.9857
▁reveal	-11.9858
phenylene	-11.9859
▁fly	-11.9859
▁completing	-11.9866
▁photochromic	-11.9866
▁ASTM	-11.9867
▁Im	-11.987
GD	-11.987
▁swelling	-11.987
roll	-11.987
▁Kit	-11.9871
▁microparticles	-11.9871
▁flank	-11.9872
▁serially	-11.9873
▁sea	-11.9875
▁decryption	-11.9877
▁blowing	-11.9878
▁computes	-11.9878
▁hypothesis	-11.9879
▁EEPROM	-11.988
▁341	-11.9881
▁intercept	-11.9881
▁adsorbed	-11.9883
aag	-11.9888
pon	-11.9889
232	-11.9889
▁TLC	-11.9889
yne	-11.989
▁AG	-11.9894
▁PDU	-11.9895
▁+1	-11.9896
▁photons	-11.9898
ank	-11.9899
▁mA	-11.9904
ev	-11.9904
numbered	-11.9904
391	-11.9905
▁avatar	-11.9906
▁therapies	-11.9906
▁latest	-11.9907
▁lo	-11.9908
▁0.30	-11.9909
fo	-11.9909
aft	-11.991
▁rider	-11.9915
tes	-11.9917
era	-11.9918
RM	-11.992
▁healthcare	-11.992
▁lactose	-11.992
▁greatest	-11.9921
▁night	-11.9922
▁caps	-11.9923
bearing	-11.9923
front	-11.9924
▁0.13	-11.9926
▁LA	-11.9927
▁LUT	-11.9927
CAT	-11.9929
▁onset	-11.9931
▁carbohydrate	-11.9932
acaa	-11.9932
RK	-11.9932
▁Representative	-11.9934
▁notebook	-11.9934
▁retract	-11.9935
▁Su	-11.9935
▁counters	-11.9937
-(1	-11.994
oli	-11.994
PDCCH	-11.9948
room	-11.9948
▁Rh	-11.9949
234	-11.9949
▁marrow	-11.995
aromatic	-11.9951
region	-11.9951
▁synthesizer	-11.9952
▁registering	-11.9955
▁uneven	-11.9955
effect	-11.9957
▁Direct	-11.9958
▁tt	-11.9959
▁volumetric	-11.9961
▁infectious	-11.9961
▁deploy	-11.9963
▁0.45	-11.9964
▁objectives	-11.9965
▁0.01%	-11.9965
layered	-11.9965
vas	-11.9966
lated	-11.9968
▁enhances	-11.9971
▁centering	-11.9971
rc	-11.9973
▁ASP	-11.9974
▁polynomial	-11.9975
▁registry	-11.9975
GH	-11.9978
▁3.8	-11.9979
referred	-11.9983
▁Random	-11.9986
▁365	-11.9987
penta	-11.9987
▁torsion	-11.9987
▁biocompatible	-11.9989
▁printers	-11.9989
▁releases	-11.999
▁724	-11.9995
▁captures	-11.9995
▁Compositions	-11.9997
▁ahead	-12.0002
▁entertainment	-12.0002
ctg	-12.0004
pending	-12.0008
▁GSM	-12.0012
▁grounded	-12.0012
▁Engine	-12.0013
▁ejector	-12.0013
propan	-12.0015
ony	-12.0016
▁arbitration	-12.0016
▁Evaluation	-12.0017
;1	-12.0022
▁urge	-12.0023
(3,4-	-12.0023
▁177	-12.0024
ze	-12.0025
morph	-12.0025
▁1-1	-12.0026
▁0.35	-12.003
▁seek	-12.003
▁formatted	-12.003
▁slower	-12.003
▁assumes	-12.0031
RG	-12.0031
array	-12.0032
random	-12.0034
▁2.9	-12.0034
▁fluorinated	-12.0036
▁granted	-12.0038
▁moderate	-12.0038
▁gaa	-12.0041
TION	-12.0043
▁corrugated	-12.0044
▁ter	-12.0046
▁kb	-12.0047
▁shortest	-12.0048
▁employee	-12.0056
▁adhering	-12.0057
▁widget	-12.0057
▁hull	-12.0058
▁receptacles	-12.0058
pol	-12.0059
▁plasmids	-12.006
1-2	-12.0061
▁Ne	-12.0061
-2,	-12.0061
▁outcomes	-12.0063
▁antibiotics	-12.0064
▁TCR	-12.0064
▁aware	-12.0066
▁ctc	-12.007
▁flushing	-12.007
[1	-12.0071
▁manipulating	-12.0071
▁significance	-12.0071
▁Wiley	-12.0071
▁454	-12.0072
▁5.9	-12.0073
152	-12.0076
▁VII	-12.0077
▁instructed	-12.0077
)-5-(3-	-12.0078
▁SRS	-12.0079
▁designating	-12.008
▁si	-12.0081
(1-	-12.0083
▁upwards	-12.0084
▁intention	-12.0084
abbreviation	-12.0085
▁disposition	-12.0086
▁influenza	-12.0088
▁centrifuged	-12.009
▁REF	-12.009
▁reactants	-12.0091
▁topic	-12.0092
▁decided	-12.0093
▁GA	-12.0099
▁abrasion	-12.0099
▁artisan	-12.0099
▁dropping	-12.01
▁(2000)	-12.0102
▁436	-12.0102
map	-12.0102
▁premises	-12.0102
tatt	-12.0105
CAGC	-12.0107
ich	-12.0108
▁variability	-12.0113
7)	-12.0114
▁rated	-12.0115
▁evolution	-12.0117
−2	-12.012
▁pushes	-12.012
▁Term	-12.0122
▁Methyl	-12.0123
▁fractional	-12.0123
▁meanings	-12.0124
4.8	-12.0127
9.8	-12.0129
▁torch	-12.0131
utter	-12.0132
▁Electro	-12.0136
iz	-12.0139
▁coiled	-12.0139
▁DISCLOSURE	-12.0141
▁marine	-12.0141
▁season	-12.0141
▁polysiloxane	-12.0142
▁35%	-12.0142
▁wishes	-12.0142
ace	-12.0149
ND	-12.0153
▁transceivers	-12.0154
▁Cy	-12.0154
▁concern	-12.0155
▁depiction	-12.0159
▁glue	-12.0162
sulf	-12.0165
6.8	-12.0168
▁valley	-12.0169
=8	-12.0169
hour	-12.0179
QS	-12.0181
▁Transmission	-12.0183
▁cake	-12.0183
13,	-12.0183
phi	-12.0184
▁239	-12.0188
▁desire	-12.0191
▁logged	-12.0197
▁trapped	-12.0197
-2,3-	-12.0197
filled	-12.0198
we	-12.0205
▁chunks	-12.0207
bra	-12.021
▁Prepared	-12.0211
▁accommodation	-12.0211
▁collects	-12.0212
select	-12.0212
uring	-12.0212
▁lean	-12.0212
▁membered	-12.0213
▁transversely	-12.0214
▁237	-12.0216
▁stretched	-12.0218
nn	-12.0219
▁Eu	-12.0221
▁Alzheimer	-12.0225
▁visibility	-12.0225
▁Antibodies	-12.0225
micro	-12.0226
▁770	-12.0228
▁MW	-12.0229
▁skid	-12.0231
▁nt	-12.0231
▁526	-12.0231
▁Pet	-12.0232
▁0.004	-12.0232
butane	-12.0233
pyr	-12.0233
NHC	-12.0236
osa	-12.0236
▁appearing	-12.0237
139	-12.0237
les	-12.0238
▁Bacillus	-12.0239
▁potent	-12.0239
▁WiFi	-12.0239
▁heights	-12.0239
▁credits	-12.024
▁disruption	-12.024
party	-12.0241
▁1320	-12.0241
▁buyer	-12.0242
▁Lu	-12.0246
▁521	-12.0246
▁des	-12.0247
▁Average	-12.0248
▁IFN	-12.025
▁GalNAc	-12.0252
▁drawbacks	-12.0252
▁children	-12.0253
▁DMRS	-12.0253
▁candle	-12.0253
▁monovalent	-12.0253
▁basal	-12.0253
mographic	-12.0255
▁imply	-12.0255
▁interlocking	-12.0259
)-8-	-12.0263
▁meal	-12.0263
NL	-12.0266
▁optimizing	-12.0267
▁Machine	-12.0267
▁aryloxy	-12.0269
▁tightening	-12.0269
sign	-12.0269
▁RLC	-12.027
▁expander	-12.027
sense	-12.027
▁6.1	-12.0271
7.7	-12.0273
Mg	-12.0273
▁358	-12.0274
▁97%	-12.0277
▁6.2	-12.0277
▁paragraphs	-12.0282
▁aaa	-12.0284
▁responding	-12.0285
trifluoro	-12.0285
▁downloading	-12.0286
machine	-12.0286
▁allyl	-12.029
▁276	-12.0293
du	-12.0294
▁cradle	-12.0295
▁dispersant	-12.0295
▁slab	-12.0296
▁shipment	-12.0296
▁Immuno	-12.0297
GV	-12.0298
176	-12.0299
▁RP	-12.0302
▁listening	-12.0303
▁notice	-12.0305
▁artifacts	-12.0306
ram	-12.0306
▁Blue	-12.0307
▁(1989)	-12.0309
▁restoring	-12.0309
▁viability	-12.031
▁freezing	-12.0315
▁523	-12.0318
rating	-12.0318
▁approved	-12.0319
▁kinetic	-12.0319
ari	-12.0321
▁0.16	-12.0322
▁loudspeaker	-12.0323
mut	-12.0324
▁alteration	-12.0326
▁Event	-12.0327
ply	-12.0327
▁adversely	-12.0328
1)+(	-12.0329
▁incremented	-12.033
switch	-12.0331
pair	-12.0334
omycin	-12.0334
▁screened	-12.034
azo	-12.0341
▁Product	-12.0341
▁keeps	-12.0342
reflective	-12.0344
▁cytokines	-12.0344
index	-12.0344
ute	-12.0344
▁simplify	-12.0345
▁confer	-12.0352
filter	-12.0353
bol	-12.0355
compound	-12.0358
VR	-12.0361
ibility	-12.0362
▁weighing	-12.0362
enic	-12.0362
▁pivotal	-12.0364
tggg	-12.0364
▁[0002]	-12.0366
▁[0008]	-12.0366
▁companies	-12.0366
▁striking	-12.0366
▁sinusoidal	-12.0366
▁tokens	-12.0368
counterclockwise	-12.037
▁enriched	-12.0371
circular	-12.0372
VT	-12.0375
ccag	-12.0376
▁digest	-12.0378
3°	-12.0379
▁you	-12.0379
▁[0005]	-12.038
▁deleting	-12.038
▁waist	-12.038
▁digestion	-12.0381
▁metallization	-12.0382
▁considerations	-12.0382
126	-12.0387
▁populations	-12.0389
▁paraffin	-12.0389
▁6.3	-12.039
112	-12.0391
TX	-12.0392
▁AB	-12.0393
▁vortex	-12.0395
020	-12.0397
▁ABC	-12.0399
▁competitive	-12.04
▁designates	-12.0401
▁384	-12.0403
▁orifices	-12.0407
▁Detailed	-12.0409
taaa	-12.041
▁voids	-12.041
▁509	-12.0411
QA	-12.0413
elecommunication	-12.0413
▁dispatch	-12.0414
▁HO	-12.0417
▁Gu	-12.0417
▁endless	-12.0417
▁manufacturers	-12.042
▁7.2	-12.042
▁anchors	-12.042
▁twist	-12.042
hilst	-12.0423
tron	-12.0423
ographic	-12.0429
▁achieves	-12.0429
▁statistically	-12.0432
▁CQI	-12.0432
▁polygon	-12.0432
atur	-12.0433
▁effluent	-12.0438
▁Disease	-12.0438
▁hexagonal	-12.0438
▁5.6	-12.044
▁publisher	-12.0446
ccc	-12.0447
▁02	-12.0449
▁extractor	-12.045
▁codec	-12.045
coded	-12.045
▁Size	-12.0451
▁heartbeat	-12.0452
=1,	-12.0452
▁diaper	-12.0452
▁embedding	-12.0453
▁increments	-12.0454
▁shortened	-12.0456
long	-12.0458
idin	-12.0458
SY	-12.0459
pyrrolidine	-12.046
indazole	-12.0461
▁179	-12.0466
▁European	-12.0466
▁[0007]	-12.0466
▁Activity	-12.0467
▁lesser	-12.0467
▁digitized	-12.0468
▁5.7	-12.0468
)/(	-12.0471
▁DQ	-12.0474
▁dicarboxylic	-12.0476
gran	-12.0476
▁MU	-12.0477
▁negatively	-12.0479
touch	-12.048
▁816	-12.048
▁quantification	-12.0481
▁expert	-12.0481
004	-12.0481
▁Agent	-12.0482
/5	-12.0485
▁5×10	-12.0486
▁broader	-12.0488
▁Electronic	-12.0491
▁Fi	-12.0492
▁woven	-12.0494
▁Ka	-12.0495
▁lifted	-12.0495
▁observe	-12.0497
▁278	-12.0501
available	-12.0501
▁breathing	-12.0502
pp	-12.0504
molded	-12.0505
YS	-12.0506
▁concurrent	-12.0507
▁ER	-12.0507
134	-12.0508
▁[0003]	-12.051
▁discount	-12.051
▁513	-12.0511
▁Col	-12.0514
ani	-12.0515
▁372	-12.0515
sensing	-12.0517
▁tickets	-12.0519
▁ended	-12.0524
▁FFT	-12.0524
RNTI	-12.0525
carbonate	-12.0525
oxopiperidin	-12.0527
conazole	-12.0528
▁229	-12.0529
ai	-12.0533
▁phosphatase	-12.0533
gcg	-12.0534
▁na	-12.0534
▁averaged	-12.0536
▁irrespective	-12.0539
▁characterised	-12.054
▁kPa	-12.054
7.9	-12.054
▁embryo	-12.054
▁sugars	-12.0541
▁hitch	-12.0542
/(	-12.0542
▁Formulation	-12.0542
▁never	-12.0543
▁simulate	-12.0546
aluminum	-12.0546
MeO	-12.0548
▁VN	-12.0551
▁271	-12.0551
shi	-12.0552
▁combinatorial	-12.0553
-36	-12.0553
▁cooperation	-12.0554
▁Min	-12.0555
▁retinal	-12.0555
▁analogue	-12.0556
▁calcd	-12.0558
inch	-12.0558
1-3	-12.0559
9.3	-12.0564
▁binders	-12.0567
▁corpus	-12.0568
▁weapon	-12.0568
▁canal	-12.0568
▁Tissue	-12.0569
5.8	-12.057
▁smoothing	-12.057
▁arrive	-12.0577
▁caa	-12.0578
▁residence	-12.0582
▁Fab	-12.0583
MOS	-12.0584
▁untreated	-12.0585
ek	-12.0586
▁1410	-12.0586
▁1112	-12.0587
proof	-12.0588
][	-12.0595
▁[0017]	-12.0597
▁elevator	-12.0597
▁numeric	-12.0597
▁(1990)	-12.0597
▁dashboard	-12.0597
cur	-12.0598
▁Virtual	-12.0601
▁IO	-12.0602
▁Function	-12.0604
▁bet	-12.0605
▁diamine	-12.0607
▁acc	-12.0607
when	-12.0607
▁accepts	-12.0607
▁Op	-12.0607
▁2000,	-12.061
▁comp	-12.0611
▁approval	-12.0611
▁phosphorylation	-12.0612
▁cracks	-12.0613
pine	-12.0614
▁Mon	-12.0614
▁plays	-12.0615
▁dimer	-12.0616
▁implanting	-12.0616
▁300°	-12.0619
)).	-12.062
▁1-10	-12.0622
rid	-12.0622
▁cart	-12.0623
▁potentials	-12.0624
Invitrogen	-12.0626
▁[0016]	-12.0626
▁chromosomal	-12.0626
▁webpage	-12.0628
▁dopants	-12.0629
▁Nat	-12.0629
▁Found	-12.0629
▁364	-12.0631
▁CDMA	-12.0632
▁aging	-12.0635
▁1700	-12.0636
▁hardened	-12.0638
new	-12.0639
structure	-12.0641
▁hammer	-12.0641
▁synthesizing	-12.0641
▁laminating	-12.0641
▁Unlike	-12.0642
▁(2001)	-12.0642
gal	-12.0644
▁cleaved	-12.0646
▁HIP	-12.0647
dihydroxy	-12.0647
alk	-12.0649
▁CASS	-12.0651
▁[0011]	-12.0655
▁talc	-12.0656
▁terminus	-12.0659
030	-12.066
emp	-12.0662
▁reversible	-12.0663
scanning	-12.0664
▁711	-12.0664
▁linkages	-12.0665
▁dissolve	-12.0665
▁1402	-12.0665
▁tens	-12.0667
▁5.4	-12.0667
▁Amino	-12.0669
ination	-12.0669
▁Therapeutic	-12.067
▁anomaly	-12.067
▁pollen	-12.0672
:7	-12.0672
▁rd	-12.0676
solvent	-12.0679
▁let	-12.0681
▁transparency	-12.0685
▁unchanged	-12.0685
▁wants	-12.0686
▁diabetic	-12.0687
quinolin	-12.0688
ink	-12.0695
▁#1	-12.0699
▁invitation	-12.07
edge	-12.0701
▁toothed	-12.0706
▁decrypt	-12.0706
▁What	-12.0706
pore	-12.0706
UP	-12.0713
▁yielding	-12.0714
▁sulfo	-12.0714
▁residing	-12.0714
▁Manual	-12.0714
▁Cross	-12.0714
▁cardiovascular	-12.0715
▁sa	-12.0716
▁sat	-12.0716
▁70%,	-12.0717
▁multifunction	-12.0717
▁foods	-12.0718
▁conservative	-12.0718
▁CNT	-12.0718
Ac	-12.0719
mat	-12.072
▁ggg	-12.0721
▁718	-12.0721
uch	-12.0723
str	-12.0726
▁instrumentation	-12.0726
(0)	-12.0727
▁[0006]	-12.0729
▁[0015]	-12.0729
▁drone	-12.0729
transmitting	-12.0735
▁374	-12.0736
beta	-12.0736
▁accelerate	-12.0737
▁Volume	-12.074
▁905	-12.0741
▁[0009]	-12.0744
▁commence	-12.0744
▁venue	-12.0744
▁misalignment	-12.0744
▁palm	-12.0746
▁fired	-12.0746
▁SMS	-12.0746
naphthalene	-12.0747
6.9	-12.0749
▁nonionic	-12.075
bound	-12.0752
▁incline	-12.0753
▁logically	-12.0755
▁shields	-12.0756
▁[0010]	-12.0759
▁graphically	-12.0759
frames	-12.0764
▁gct	-12.0765
▁interleaved	-12.0766
▁opioid	-12.0766
bl	-12.0767
▁Division	-12.077
▁462	-12.077
▁frequent	-12.0771
▁served	-12.0773
2-1	-12.0774
ko	-12.0775
▁prolonged	-12.0776
▁IQ	-12.0777
▁exclusion	-12.0778
124	-12.0778
▁Coating	-12.0778
▁2,2-	-12.078
▁].	-12.0783
▁285	-12.0784
tumor	-12.0784
▁Host	-12.0784
520	-12.0785
▁induces	-12.0787
▁terminator	-12.0788
▁Consider	-12.0788
halo	-12.0791
▁van	-12.0793
▁blends	-12.0794
▁8.8	-12.0797
▁osteo	-12.0798
▁2006,	-12.0798
gta	-12.08
▁WAN	-12.08
UI	-12.0801
▁arsenic	-12.0803
▁fabrics	-12.0806
▁funds	-12.0808
▁par	-12.0809
▁suggests	-12.0809
▁arises	-12.081
▁op	-12.0812
5]	-12.0817
▁[0004]	-12.0818
▁Support	-12.0818
▁Background	-12.0818
file	-12.0819
▁cached	-12.0822
▁hosted	-12.0823
computer	-12.0827
Dimethyl	-12.0829
rn	-12.083
▁limiter	-12.0832
tip	-12.0833
▁latched	-12.0834
blocking	-12.0834
▁+/−	-12.0837
ju	-12.0839
▁knot	-12.084
ases	-12.0842
8.3	-12.0843
▁statements	-12.0844
▁orally	-12.0844
▁occasion	-12.0847
▁Culture	-12.0848
▁[0021]	-12.0848
▁versatile	-12.0848
▁photoconductor	-12.0848
oth	-12.0849
▁Provider	-12.0849
▁gat	-12.085
▁tcc	-12.0851
▁TT	-12.0853
▁intersect	-12.0853
▁perhaps	-12.0857
▁diet	-12.0858
▁65%	-12.0858
▁readers	-12.0863
▁unstable	-12.0864
Hydroxy	-12.0865
▁photographic	-12.0868
arily	-12.0869
▁uppermost	-12.087
ACE	-12.0875
▁surge	-12.0875
▁Cold	-12.0875
▁[0013]	-12.0878
▁reasonable	-12.0885
▁yes	-12.0886
specified	-12.0888
▁nervous	-12.0893
▁Selection	-12.0893
▁Soc	-12.0894
▁perfusion	-12.0894
▁decides	-12.0898
▁444	-12.09
4′-	-12.09
bits	-12.09
cel	-12.0904
▁Response	-12.0904
750	-12.0904
▁Tg	-12.0904
▁Briefly	-12.0908
▁discriminant	-12.0908
ocytes	-12.0908
▁stabilizers	-12.091
▁mother	-12.0912
▁456	-12.0912
loc	-12.0913
9.4	-12.0914
▁382	-12.0921
▁[0018]	-12.0923
▁serious	-12.0923
▁telemetry	-12.0923
▁overload	-12.0923
▁planned	-12.0924
▁powdered	-12.0926
▁biotin	-12.0927
▁deflecting	-12.0929
▁ESD	-12.093
▁Semiconductor	-12.093
acting	-12.093
rea	-12.0937
▁333	-12.0938
▁[0022]	-12.0938
▁RI	-12.094
▁Auto	-12.094
▁fluctuation	-12.0942
9.6	-12.0942
▁overhang	-12.0946
▁pinch	-12.0946
ccaa	-12.0947
curable	-12.0951
rays	-12.0953
▁convergence	-12.0953
▁monocyclic	-12.0954
▁payout	-12.0955
▁workspace	-12.0955
lysis	-12.0956
▁administrative	-12.0956
▁Chip	-12.0957
▁MI	-12.0961
▁rocker	-12.0962
▁Bus	-12.0962
▁cyclopropyl	-12.0963
TB	-12.0964
▁cassettes	-12.0964
▁assessing	-12.0966
▁wearing	-12.0966
▁ij	-12.0966
▁divisional	-12.0968
▁imbalance	-12.0968
▁seller	-12.0968
▁earphone	-12.0969
▁alerts	-12.097
▁tat	-12.0972
▁motif	-12.0972
▁malignant	-12.0974
lute	-12.0976
▁hydrate	-12.098
mid	-12.0983
[1,2-	-12.0984
▁occupancy	-12.0984
▁strategies	-12.0984
▁pop	-12.0984
PK	-12.0984
▁HB	-12.0984
▁disconnection	-12.0985
▁undergoes	-12.0986
▁PDSCH	-12.0987
aaa	-12.0987
dioxo	-12.0987
izes	-12.0987
▁gathered	-12.0988
ture	-12.0989
▁archive	-12.0992
etic	-12.0993
▁Ko	-12.0994
turn	-12.0994
release	-12.0994
lon	-12.0996
▁traits	-12.0996
diamine	-12.0997
▁bridges	-12.0997
▁[0019]	-12.0999
▁splicing	-12.0999
▁footwear	-12.0999
▁trough	-12.0999
▁680	-12.1
emia	-12.1002
▁tct	-12.1002
▁siloxane	-12.1004
▁macroblock	-12.1004
Hz	-12.1007
▁numbered	-12.1009
▁ISO	-12.1009
▁extensive	-12.1011
pyrrole	-12.1011
▁initialized	-12.1012
▁Acids	-12.1013
▁1212	-12.1013
▁Technologies	-12.1014
▁ophthalmic	-12.1014
▁pockets	-12.1014
136	-12.1016
▁LEU	-12.1019
close	-12.1021
tga	-12.1022
▁GT	-12.1022
▁mod	-12.1023
▁outflow	-12.1024
electric	-12.1024
://	-12.1025
▁progenitor	-12.1029
▁murine	-12.1029
▁farther	-12.103
▁1989	-12.103
▁paid	-12.103
▁pivotably	-12.1031
-108	-12.1035
VP	-12.1035
amin	-12.1036
GM	-12.1036
▁[0014]	-12.1044
▁relevance	-12.1044
▁reversing	-12.1044
▁shaking	-12.1044
choline	-12.1045
NV	-12.1047
▁1130	-12.1049
325	-12.1049
▁Patient	-12.1051
event	-12.1053
ik	-12.1055
▁impregnated	-12.1057
▁Sen	-12.1057
shell	-12.1057
atter	-12.1058
▁Deposit	-12.1059
▁[0012]	-12.106
▁[0023]	-12.106
▁dissociation	-12.106
▁ganaxolone	-12.106
▁hypothetical	-12.106
▁squares	-12.1061
▁mal	-12.1062
▁combustor	-12.1062
ESS	-12.1064
sk	-12.1068
▁626	-12.1069
▁anneal	-12.107
blast	-12.1075
▁RNAs	-12.1076
▁3.7	-12.1076
▁perceived	-12.1078
pan	-12.1079
ATE	-12.108
ASIC	-12.1084
▁hinged	-12.1085
effective	-12.1086
ery	-12.109
▁taught	-12.109
▁glycoprotein	-12.109
▁stir	-12.1091
▁heteroalkyl	-12.1092
ker	-12.1092
yt	-12.1092
7°	-12.1095
▁milli	-12.1096
▁-(	-12.1097
▁Carbon	-12.1101
var	-12.1101
▁energized	-12.1104
▁glycine	-12.1105
▁Vin	-12.1105
charged	-12.1105
▁ferroelectric	-12.1106
chlor	-12.1106
▁radiated	-12.1109
▁cac	-12.1111
▁Gaussian	-12.1112
▁egg	-12.1112
trop	-12.1112
▁abut	-12.1114
▁formaldehyde	-12.1116
permeable	-12.1117
▁transcriptional	-12.1117
▁(2×	-12.1119
▁popular	-12.112
▁optoelectronic	-12.1121
▁cycling	-12.1121
▁blanket	-12.1123
▁8.7	-12.1125
caga	-12.1135
▁[0020]	-12.1136
▁femur	-12.1136
▁2005,	-12.1137
×1	-12.1139
▁markup	-12.1142
▁FL	-12.1144
▁EGR	-12.1147
▁tac	-12.115
▁QoS	-12.1151
isclosed	-12.1151
▁culturing	-12.1152
▁meniscus	-12.1152
▁stub	-12.1153
▁bundles	-12.1153
▁Dial	-12.1154
▁guidewire	-12.1155
▁lymphocytes	-12.1158
pl	-12.1164
men	-12.1165
▁cornea	-12.1165
▁locks	-12.1167
▁[0024]	-12.1167
▁ocular	-12.1167
▁hrs	-12.1168
▁retractable	-12.1169
▁annealed	-12.1172
20°	-12.1173
▁lengthwise	-12.1173
now	-12.1175
ote	-12.1177
omb	-12.1178
Type	-12.1179
▁RX	-12.1181
har	-12.1181
▁commit	-12.1182
▁subassembly	-12.1185
▁sports	-12.1186
rol	-12.1189
116	-12.119
▁intersects	-12.1195
▁gc	-12.1196
▁[0025]	-12.1198
▁twelve	-12.1198
▁translating	-12.1198
▁deionized	-12.1198
▁stained	-12.1199
▁costly	-12.1202
▁roles	-12.1205
▁0.17	-12.1206
▁FA	-12.1208
▁Wide	-12.1211
▁Electrical	-12.1211
▁traverse	-12.1212
rb	-12.1213
▁correlating	-12.1214
▁cultivar	-12.1214
ctcc	-12.1216
▁284	-12.1217
▁imposed	-12.1218
emission	-12.122
▁zooming	-12.1222
des	-12.1223
diamino	-12.1225
▁Value	-12.1226
thermal	-12.1227
▁Growth	-12.1229
▁coherence	-12.1229
▁mutagenesis	-12.1229
▁mimic	-12.1229
▁evolved	-12.1231
▁influenced	-12.1232
▁DO	-12.1232
▁ski	-12.1233
LCD	-12.1235
IK	-12.1235
▁BP	-12.1236
naturally	-12.1238
▁pointers	-12.1238
▁Mean	-12.1238
▁microprocessors	-12.124
sheet	-12.1241
▁[0030]	-12.1245
▁depletion	-12.1245
▁loci	-12.1245
▁methylation	-12.1245
inal	-12.1245
▁adjoining	-12.1248
cgg	-12.1249
▁MSC	-12.1253
25°	-12.1254
▁464	-12.1255
▁alkylthio	-12.1259
▁Harbor	-12.126
▁Packet	-12.126
▁glycosylation	-12.1261
▁CK	-12.1262
▁reminder	-12.1262
▁submit	-12.1265
demand	-12.1273
jAZ	-12.1277
▁refraction	-12.1277
▁bores	-12.1278
▁Hydro	-12.1279
▁Steps	-12.1281
▁classifying	-12.1282
▁demands	-12.1283
▁suffering	-12.1285
▁TGF	-12.1285
▁451	-12.1285
▁ram	-12.1286
ATT	-12.1289
▁fills	-12.1291
gtc	-12.1291
▁priming	-12.1291
▁(−	-12.1292
tur	-12.1293
▁sulfonate	-12.1293
Method	-12.1295
▁(3-	-12.1296
MV	-12.1301
ulating	-12.1302
▁1991	-12.1303
▁str	-12.1303
▁adjuvant	-12.1305
▁constantly	-12.1305
▁arrives	-12.1305
▁integrate	-12.1306
▁anisotropy	-12.1307
▁collaborative	-12.1307
▁gastric	-12.1307
▁malfunction	-12.1307
▁Biology	-12.1308
▁vaccines	-12.1308
▁mesa	-12.1309
▁COM	-12.1309
▁inject	-12.131
▁shim	-12.131
▁pretreatment	-12.131
▁reactivity	-12.131
▁attenuated	-12.1312
volume	-12.1314
▁subpixel	-12.1315
114	-12.1315
▁resolve	-12.1316
▁bitmap	-12.1316
mus	-12.1318
▁stronger	-12.1318
CVD	-12.1319
▁cca	-12.1321
▁replaceable	-12.1321
SU	-12.1321
▁552	-12.1322
▁divides	-12.1323
▁[0028]	-12.1323
▁casino	-12.1323
▁inferior	-12.1323
▁Blood	-12.1323
▁inform	-12.1323
▁1990	-12.1324
▁03	-12.1325
butene	-12.1325
▁cuts	-12.1327
▁permissions	-12.1328
▁cyclohexane	-12.1329
▁manifest	-12.1331
▁BD	-12.1331
ctct	-12.1332
oral	-12.1338
▁agricultural	-12.1339
▁compensator	-12.1339
▁Int	-12.1339
▁pipette	-12.1339
▁Position	-12.1339
▁conditioner	-12.134
amid	-12.1342
▁gca	-12.1343
onate	-12.1345
dec	-12.1345
▁reserve	-12.1347
media	-12.1348
▁=(	-12.1349
▁Open	-12.1349
metry	-12.135
▁friends	-12.135
▁dip	-12.1351
video	-12.1352
▁[0029]	-12.1354
▁cartilage	-12.1354
▁Western	-12.1354
▁rheumatoid	-12.1354
▁stamping	-12.1358
▁96%	-12.1361
▁Ver	-12.1361
▁footprint	-12.1361
stamp	-12.1363
bio	-12.1366
osing	-12.1366
▁swinging	-12.1367
▁listener	-12.1369
▁watermark	-12.1369
silicate	-12.1369
▁Between	-12.137
▁WTRU	-12.137
▁plugged	-12.137
information	-12.137
▁Generation	-12.137
▁polycyclic	-12.1372
To	-12.1372
▁resection	-12.1373
▁percentages	-12.1373
▁1×	-12.1377
▁healing	-12.1377
▁fence	-12.1377
▁Va	-12.1377
▁625	-12.1382
▁GFP	-12.1385
▁Celsius	-12.1386
▁obesity	-12.1386
▁synergistic	-12.1386
some	-12.1387
▁ACT	-12.1387
▁clad	-12.139
als	-12.1391
mination	-12.1392
174	-12.1392
saccharide	-12.1394
▁tones	-12.1394
▁1/2	-12.1396
▁VS	-12.1396
▁Logic	-12.1398
▁=1	-12.1399
▁1992	-12.1399
gag	-12.14
260	-12.1401
▁banner	-12.1402
▁complementarity	-12.1402
▁recipe	-12.1402
▁lining	-12.1402
▁fabricate	-12.1402
▁STI	-12.1402
▁succession	-12.1403
▁Card	-12.1405
▁grasp	-12.1405
▁barium	-12.1406
IE	-12.1406
▁invasive	-12.1407
▁amp	-12.1407
cro	-12.1408
▁diffused	-12.1412
▁iterative	-12.1414
6.6	-12.1414
▁trifluoromethyl	-12.1416
▁[0026]	-12.1417
▁accessories	-12.1417
isoquinolin	-12.1418
▁liposomes	-12.1419
▁snow	-12.142
▁letters	-12.1421
▁Long	-12.1424
▁breath	-12.1424
▁reacts	-12.1426
▁Universal	-12.1428
transmission	-12.143
DVD	-12.143
▁295	-12.1431
▁oxynitride	-12.1433
▁envisioned	-12.1434
▁tune	-12.1434
▁Fr	-12.1435
6.3	-12.1436
▁mutants	-12.1436
▁607	-12.144
▁drinking	-12.144
SiH	-12.1442
▁2007,	-12.1442
▁manners	-12.1445
upper	-12.1446
neu	-12.1449
▁CAC	-12.1452
▁banking	-12.1454
▁savings	-12.1455
▁Sh	-12.1456
▁Hf	-12.1456
amyl	-12.1457
▁labor	-12.1457
period	-12.146
press	-12.1461
sodium	-12.1465
▁accompanied	-12.1465
▁chute	-12.1465
▁bioactive	-12.1466
-1-(	-12.1466
triazine	-12.1467
quant	-12.1467
▁bromo	-12.147
▁shells	-12.147
para	-12.1471
5,000	-12.1471
▁bare	-12.1476
003	-12.1476
▁isolates	-12.1477
phospho	-12.1477
optionally	-12.148
▁mitigate	-12.1481
▁vertices	-12.1481
▁shrinkage	-12.1481
▁2:1	-12.1482
SIG	-12.1483
006	-12.1483
▁fibroblasts	-12.1483
▁IE	-12.1486
▁INV	-12.1489
▁mp	-12.1492
crystalline	-12.1496
▁Summary	-12.1497
▁aforesaid	-12.1497
▁collapsible	-12.1497
▁obstruction	-12.1498
▁2,3-	-12.1498
▁scintillator	-12.1499
▁characterizing	-12.1499
480	-12.1499
▁corona	-12.1501
▁Ln	-12.1502
▁structurally	-12.1505
sn	-12.1507
DG	-12.151
135	-12.151
▁aluminium	-12.1513
▁inhalation	-12.1513
▁filing	-12.1516
▁lag	-12.1516
▁LV	-12.1517
▁(4-	-12.1518
▁disengage	-12.1521
bus	-12.1523
▁wick	-12.1523
▁producer	-12.1525
▁ccc	-12.1525
imino	-12.1526
▁proximally	-12.1526
▁validate	-12.1528
▁(11)	-12.1528
▁halves	-12.1529
▁(2002)	-12.153
▁WS	-12.1531
197	-12.1532
▁iii	-12.1532
▁attaches	-12.1534
▁bounded	-12.1535
▁polyols	-12.1536
▁arrayed	-12.1537
▁2011,	-12.1537
PET	-12.1537
▁Institute	-12.1538
▁ever	-12.1538
▁Mask	-12.1539
▁9.0	-12.1542
▁ovarian	-12.1545
▁supplementary	-12.1545
▁diffractive	-12.1545
▁polyisocyanate	-12.1545
▁mud	-12.1545
▁compiled	-12.1547
▁4,4′-	-12.1547
162	-12.155
255	-12.1551
▁splice	-12.1554
▁microstructure	-12.1556
▁phthalate	-12.1558
▁clicking	-12.156
▁SYSTEM	-12.1561
▁framing	-12.1561
▁Electrode	-12.1564
▁inspecting	-12.1564
▁halogenated	-12.1565
mine	-12.1566
▁tca	-12.1566
▁slid	-12.1568
011	-12.1568
raw	-12.1569
▁photographed	-12.157
eration	-12.1573
silicon	-12.1575
▁plain	-12.1577
▁descriptive	-12.1577
▁examining	-12.1577
▁navigate	-12.1577
▁sponge	-12.1577
▁skirt	-12.1577
▁FB	-12.1579
▁SNP	-12.1581
GPS	-12.1582
lateral	-12.1583
▁additions	-12.1583
)-2-(	-12.1583
▁pusher	-12.1584
▁LP	-12.1585
▁scrap	-12.1586
▁7.1	-12.159
FPGA	-12.1593
wavelength	-12.1593
▁pancreatic	-12.1593
▁turbocharger	-12.1593
▁dump	-12.1593
▁speaking	-12.1596
TK	-12.1598
TGGT	-12.1599
▁mu	-12.16
Arg	-12.1601
▁pico	-12.1603
▁translational	-12.1604
▁secreted	-12.1607
standard	-12.1609
▁biochemical	-12.161
▁startup	-12.1611
▁spike	-12.1617
▁perforations	-12.1619
spherical	-12.1619
▁hardly	-12.162
▁stranded	-12.162
▁su	-12.1621
▁SU	-12.1622
▁EA	-12.1622
▁alkylamino	-12.1622
planar	-12.1624
polarized	-12.1624
▁1206	-12.1625
▁spreadsheet	-12.1626
GK	-12.1627
▁(0)	-12.163
▁960	-12.1633
▁GS	-12.1633
cagg	-12.1634
▁glycols	-12.1639
more	-12.164
▁feasible	-12.1642
▁observing	-12.1642
▁holders	-12.1643
299	-12.1644
condition	-12.1645
▁gg	-12.1648
=8.4	-12.165
“	-12.1654
▁shielded	-12.1654
▁CU	-12.1655
RELATED	-12.1658
▁companion	-12.1658
▁sapphire	-12.1658
▁decay	-12.1658
▁hopping	-12.1658
▁gga	-12.166
scan	-12.166
▁EN	-12.1664
▁Element	-12.1669
▁uni	-12.167
▁aids	-12.1672
critical	-12.1674
▁ply	-12.1674
gastrointestinal	-12.1674
unt	-12.1675
▁10-20	-12.1675
▁(2-	-12.1679
mono	-12.168
▁supplier	-12.1682
▁multiplex	-12.1684
▁SG	-12.1687
▁GP	-12.1687
ech	-12.1687
1°	-12.1688
Bio	-12.1689
tail	-12.1691
▁Gd	-12.1691
▁infant	-12.1692
▁(°	-12.1693
▁stringent	-12.1694
ctgc	-12.1695
▁retardant	-12.1695
▁circles	-12.1695
MU	-12.1698
▁luminescence	-12.1699
223	-12.1703
▁explicit	-12.1703
▁plots	-12.1704
▁intensive	-12.1705
CV	-12.1707
▁silyl	-12.1707
▁deviations	-12.171
▁incorrect	-12.171
hol	-12.1712
del	-12.1712
alo	-12.1713
▁adapters	-12.1715
▁suppressor	-12.1715
▁ttg	-12.1717
▁8%	-12.1718
▁pyr	-12.1719
Pa	-12.1719
▁rinsed	-12.1719
made	-12.172
▁posted	-12.172
▁reuse	-12.1723
▁toggle	-12.1723
third	-12.1723
hill	-12.1723
-2,4-	-12.1724
myc	-12.1724
/100	-12.1726
▁mV	-12.1726
▁stain	-12.1727
)—,	-12.1728
▁polymerized	-12.173
thiazepino	-12.1734
▁erroneous	-12.1736
▁blur	-12.1739
▁[0027]	-12.1739
▁magenta	-12.1739
▁burden	-12.1739
▁col	-12.1739
▁agarose	-12.1739
▁truss	-12.1739
▁AGC	-12.174
▁anywhere	-12.1745
122	-12.1746
-9-	-12.1747
▁DT	-12.1747
AAT	-12.1748
▁715	-12.1751
▁vibrator	-12.1753
▁coagulation	-12.1756
▁dressing	-12.1756
▁insurance	-12.1756
▁tomography	-12.1756
▁−7	-12.1758
▁soldering	-12.1758
▁Region	-12.1758
▁firmly	-12.1758
▁tunneling	-12.176
pent	-12.1762
ctgg	-12.1765
▁depths	-12.1766
nu	-12.177
▁(12)	-12.1771
▁deactivation	-12.1772
▁trading	-12.1772
▁payee	-12.1772
▁settlement	-12.1772
ula	-12.1773
▁SER	-12.1773
here	-12.1774
▁199	-12.1777
▁sh	-12.1778
▁coaxially	-12.1782
DSP	-12.1782
▁id	-12.1786
▁thyristor	-12.1788
▁venous	-12.1788
TCC	-12.1789
▁hardening	-12.1793
slot	-12.1793
▁webs	-12.1794
▁late	-12.1794
133	-12.1795
REF	-12.1798
imidazo	-12.1798
▁belts	-12.1799
▁combiner	-12.1801
▁exert	-12.1801
▁Pb	-12.1804
relative	-12.1806
▁0.33	-12.1806
▁remained	-12.1806
.,"1	-12.1808
▁Hu	-12.1808
:30	-12.1809
cer	-12.1809
CCTG	-12.1809
Max	-12.1809
YY	-12.1809
trade	-12.181
▁learned	-12.181
▁pyruvate	-12.181
setting	-12.1811
▁803	-12.1811
▁Communications	-12.1812
gcag	-12.1814
▁inflow	-12.1817
shaft	-12.1818
▁currency	-12.1821
▁ferrule	-12.1821
▁datum	-12.1823
:8	-12.1823
variate	-12.1824
DD	-12.1828
Sn	-12.1829
▁gland	-12.1829
▁contention	-12.1829
▁dealer	-12.1834
▁fishing	-12.1834
Trans	-12.1835
transfer	-12.1837
▁arterial	-12.1838
▁reformer	-12.1838
]-2′(1′	-12.1838
▁redox	-12.1839
▁Report	-12.184
▁flags	-12.184
mass	-12.184
rp	-12.1843
▁rad	-12.1844
▁LSB	-12.1848
drop	-12.1851
▁hypervisor	-12.1854
▁1024	-12.1855
PDU	-12.1855
glycine	-12.1855
▁gac	-12.1857
▁minimizes	-12.1858
▁822	-12.1858
▁DATA	-12.1863
▁subband	-12.1864
▁cookie	-12.1864
▁reactors	-12.1864
▁2,6-	-12.1868
▁inertia	-12.187
▁BB	-12.187
▁proportions	-12.187
▁broker	-12.1871
▁geometries	-12.1871
▁coronary	-12.1871
oxadiazol	-12.1872
WS	-12.1872
▁818	-12.1873
288	-12.1876
▁IJ	-12.1878
Pt	-12.1878
▁1108	-12.188
▁avoids	-12.1882
▁glycerin	-12.1883
Te	-12.1883
▁rot	-12.1884
▁Str	-12.1885
380	-12.1886
▁Substrate	-12.1887
▁familiar	-12.1887
▁reversal	-12.1887
▁refractory	-12.1888
▁monoxide	-12.1888
ography	-12.1888
vascular	-12.1889
octahydro	-12.1889
▁Fluid	-12.1889
▁diffracted	-12.189
▁Array	-12.189
▁bristles	-12.1895
▁proliferative	-12.1896
▁(100)	-12.1896
▁flood	-12.1897
3]	-12.1897
▁ESI	-12.1898
]-4-	-12.19
▁diethylene	-12.1902
▁waits	-12.1903
▁0.95	-12.1905
▁thousands	-12.1905
▁methionine	-12.1906
forward	-12.1907
pixels	-12.1907
▁281	-12.1907
RV	-12.1908
▁Experimental	-12.1911
▁slices	-12.1914
▁eject	-12.1917
▁vaginal	-12.192
butadiene	-12.1921
drug	-12.1922
▁SSD	-12.1923
▁restrictions	-12.1924
323	-12.193
▁286	-12.1931
▁threading	-12.1934
▁phen	-12.1936
▁Calc	-12.1937
▁SoPEC	-12.1937
▁constellation	-12.1937
▁irrigation	-12.1937
▁rinsing	-12.1937
▁storm	-12.1937
▁jitter	-12.1938
caca	-12.1938
▁bottles	-12.1939
pyrazole	-12.1941
▁totally	-12.1941
▁datasets	-12.1945
atory	-12.1946
▁microparticle	-12.1948
940	-12.1949
▁descriptors	-12.195
microcrystalline	-12.195
▁Delivery	-12.1954
▁[0032]	-12.1954
▁legal	-12.1955
▁GR	-12.1956
▁cations	-12.1956
▁1502	-12.1958
▁brewing	-12.1959
aR	-12.196
▁1005	-12.196
ulin	-12.1961
▁subfield	-12.1962
ser	-12.1963
=10	-12.1964
195	-12.1964
▁628	-12.1965
▁1404	-12.1965
960	-12.1968
6]	-12.1968
propoxy	-12.1971
▁Identification	-12.1971
▁shading	-12.1971
▁interfacing	-12.1972
thiol	-12.1973
OUT	-12.1973
▁embodying	-12.1974
▁investigated	-12.1975
▁ARG	-12.1976
▁MV	-12.1976
005	-12.1976
▁Release	-12.1977
ments	-12.1979
▁stud	-12.1979
▁sorbent	-12.1979
▁gp	-12.198
▁Effects	-12.1981
▁mist	-12.1982
TAC	-12.1983
▁319	-12.1983
▁decodes	-12.1984
she	-12.1984
Wi	-12.1984
▁sal	-12.1986
lipid	-12.1987
▁flexure	-12.1988
265	-12.1988
coupling	-12.1988
▁confirming	-12.1989
cgc	-12.199
340	-12.1993
138	-12.1994
ttca	-12.1998
▁hybridize	-12.1998
▁Error	-12.1998
3′	-12.1998
▁1040	-12.1998
▁uploaded	-12.1999
▁lightweight	-12.2001
thia	-12.2002
▁contributes	-12.2002
bp	-12.2004
▁quadrant	-12.2004
▁transdermal	-12.2004
▁Medium	-12.2005
ulate	-12.2006
injection	-12.2006
▁LF	-12.2007
HR	-12.2009
▁counterpart	-12.2009
gat	-12.2012
▁Post	-12.2013
▁ME	-12.2016
▁[0001]	-12.2017
local	-12.2019
168	-12.2021
▁scientific	-12.2021
▁ventricle	-12.2021
▁rope	-12.2022
GGGG	-12.2024
▁wideband	-12.2026
HPLC	-12.2027
▁sleeves	-12.2032
▁replay	-12.2032
Butyl	-12.2034
5.7	-12.2035
▁economic	-12.2036
▁turbo	-12.2038
▁birefringent	-12.2038
▁deficiency	-12.2038
▁stripping	-12.204
application	-12.204
▁multimeric	-12.204
ern	-12.2042
registered	-12.2042
▁stitching	-12.2043
▁hereinbelow	-12.2043
ttaa	-12.2044
▁sloped	-12.2045
▁3-(	-12.2046
8.9	-12.2046
▁assemble	-12.2047
▁MAT	-12.2051
▁sw	-12.2054
▁stirrer	-12.2055
▁carboxylate	-12.2059
▁degrade	-12.2059
202	-12.206
▁wordline	-12.206
▁saliva	-12.2061
morpholino	-12.2065
▁etchant	-12.2068
lam	-12.2069
▁offering	-12.2069
▁requestor	-12.2069
▁facsimile	-12.2072
▁Silicon	-12.2072
ema	-12.2073
▁confined	-12.2074
▁fl	-12.2074
PN	-12.2076
▁deflected	-12.2077
▁hip	-12.2077
▁manipulator	-12.2077
▁dia	-12.2077
7-1	-12.208
▁824	-12.208
PB	-12.2081
▁penetrates	-12.2081
aat	-12.2083
▁PX	-12.2085
agca	-12.2087
▁pit	-12.2087
TER	-12.2087
▁[0031]	-12.2089
▁erasable	-12.2089
▁hologram	-12.2089
▁eddy	-12.2089
▁luminous	-12.2089
▁sulphate	-12.209
▁goals	-12.2091
▁rice	-12.2091
▁cyclone	-12.2093
▁monolayer	-12.2094
▁gating	-12.2098
aatg	-12.2098
▁Etch	-12.2099
760	-12.21
Data	-12.21
▁fungi	-12.2102
▁antioxidants	-12.2103
wn	-12.2105
▁debug	-12.2106
▁hafnium	-12.2106
▁Solvent	-12.2106
▁foreground	-12.2106
▁microscopic	-12.2106
BU	-12.2106
ij	-12.2108
▁2014,	-12.2109
aata	-12.2109
▁GI	-12.2111
▁294	-12.2111
tgtt	-12.2117
▁exploit	-12.2117
virus	-12.2118
▁buy	-12.2119
ara	-12.2119
ATA	-12.212
▁thermostat	-12.2121
agag	-12.2121
▁(1988)	-12.2123
mb	-12.2123
▁depleted	-12.2123
▁inspected	-12.2125
▁com	-12.2126
▁TF	-12.2126
▁struts	-12.2127
▁Work	-12.2127
▁fingerprints	-12.2128
emi	-12.2129
▁PLC	-12.2131
▁My	-12.2132
fi	-12.2136
▁maximal	-12.2137
▁shrink	-12.2139
▁Command	-12.214
▁Nevertheless	-12.214
▁preclude	-12.214
▁playlist	-12.214
tilde	-12.214
▁Database	-12.2141
▁customization	-12.2141
▁coincides	-12.2143
▁island	-12.2144
▁shaker	-12.2144
▁Dr	-12.2145
CCA	-12.2148
▁Location	-12.2149
wa	-12.215
PU	-12.2151
acca	-12.2156
6°	-12.2156
▁1610	-12.2159
hop	-12.2159
ense	-12.216
▁cleared	-12.2162
▁tgc	-12.2164
▁OMe	-12.2166
VII	-12.2166
Bi	-12.2169
▁TFTs	-12.217
▁1014	-12.217
▁SEL	-12.217
)+	-12.2171
situ	-12.2173
▁kiosk	-12.2174
▁0.19	-12.2174
▁idea	-12.2174
UGU	-12.2178
encoded	-12.218
organic	-12.218
GTG	-12.2182
▁invoke	-12.2184
33,	-12.2185
uth	-12.2185
▁finely	-12.2189
▁Computing	-12.2191
▁sorbitan	-12.2191
▁valuable	-12.2191
▁pyrolysis	-12.2191
▁correlate	-12.2192
▁decompression	-12.2194
▁stepping	-12.2194
text	-12.2195
▁learn	-12.2195
▁780	-12.2205
▁455	-12.2206
▁stringency	-12.2209
sequence	-12.2209
(2′	-12.2209
▁microarray	-12.2209
9.9	-12.2209
▁hundreds	-12.2211
▁imparted	-12.2217
illa	-12.2224
▁cct	-12.2224
▁Binding	-12.2225
▁auditory	-12.2225
▁recommendations	-12.2227
▁903	-12.2228
pad	-12.2228
RB	-12.223
RN	-12.223
▁photon	-12.223
plastic	-12.2238
nis	-12.2239
▁telescoping	-12.2242
▁gasoline	-12.2242
853	-12.2243
▁thermocouple	-12.2243
▁xylene	-12.2243
▁allele	-12.2243
▁288	-12.2247
▁NOS	-12.225
▁vertebrae	-12.2252
▁characterize	-12.2253
4]	-12.2256
▁plasticizer	-12.2256
▁Common	-12.2256
▁responder	-12.2259
▁repetitive	-12.2259
▁rectifying	-12.2259
VIII	-12.226
▁attacks	-12.226
▁predominantly	-12.2261
▁spanning	-12.2261
▁generalized	-12.2261
▁Stage	-12.2261
glycerol	-12.2261
imide	-12.2262
▁(1.5	-12.2263
▁PVC	-12.2264
enol	-12.2264
lis	-12.2265
En	-12.2267
war	-12.2269
▁disperse	-12.227
HF	-12.2271
▁burning	-12.2272
▁Problem	-12.2272
▁533	-12.2273
▁agar	-12.2273
chrom	-12.2274
▁Ink	-12.2276
rush	-12.2276
▁potato	-12.2277
▁hermetically	-12.2277
▁pest	-12.228
▁country	-12.228
▁Core	-12.2281
Con	-12.2281
▁taps	-12.2284
▁examine	-12.2284
▁arginine	-12.2285
din	-12.2286
6.4	-12.2286
▁6%	-12.2287
Bromo	-12.2289
▁comment	-12.229
▁0.2%	-12.229
DSL	-12.2291
▁Edition	-12.2294
▁imidazole	-12.2295
oxycarbonyl	-12.2295
[...]
