[PAD]
[MASK]
[UNK]
[CLS]
[SEP]
the
##,
##.
of
a
to
and
in
is
##-
(
or
be
The

an
for
,
##s
##)
with
as
may
that
by
.
are
1
from
at
on
one
In
2
FIG
##;
first
can
which
##/
second
device
A
data
3
example
such
invention
##:
wherein
system
embodiment
more
other
present
##e
not
##),
each
4
method
##g
C
used
layer
portion
least
signal
between
information
##or
claim
said
this
unit
5
10
embodiments
surface
user
)
according
has
control
“
was
it
##H
6
image
include
described
##A
shown
when
into
includes
also
time
having
than
##C
using
##”
about
through
##(
light
further
##).
end
For
R
comprising
any
material
12
above
will
some
7
two
have
plurality
process
S
value
side
provided
formed
##S
8
B
apparatus
As
##ing
group
20
power
position
step
memory
##d
within
set
network
circuit
acid
comprises
processing
display
direction
##B
member
number
b
another
configured
reference
11
based
-
so
##m
element
100
being
application
substrate
output
input
including
##_
computer
14
different
##2
same
then
herein
storage
operation
##1
This
part
line
where
structure
body
view
9
voltage
region
communication
use
H
—
cell
form
N
connected
##ed
current
temperature
selected
##a
non
high
corresponding
devices
module
source
16
means
if
area
block
electrode
been
case
associated
section
30
but
state
preferably
flow
over
provide
optical
FIGS
were
all
13
##&#39;
film
base
component
15
e
0
various
sensor
pressure
lower
via
particular
##i
P
##O
assembly
terminal
amount
thereof
D
interface
third
cells
type
##R
T
its
It
##D
22
content
only
water
contact
elements
sequence
channel
18
frame
plate
server
M
##N
L
semiconductor
components
order
like
after
during
c
liquid
compound
level
ID
metal
access
##]
these
object
transmission
range
g
point
U
performed
50
following
support
made
illustrated
composition
solution
No
frequency
J
out
processor
controller
less
configuration
110
n
vehicle
upper
accordance
shows
both
target
##yl
signals
received
gas
function
I
24
art
connection
fluid
addition
##3
Example
).
low
along
V
field
##b
coupled
determined
receiving
single
weight
obtained
##ly
m
stored
location
medium
there
specific
without
mode
40
i
air
limited
When
well
21
while
response
##in
result
heat
##M
exemplary
An
program
applied
d
outer
diagram
methods
forming
F
below
If
predetermined
possible
102
disposed
disclosure
200
mobile
electronic
those
##4
housing
provides
gate
17
under
X
top
μ
known
##c
##t
media
O
120
rate
no
service
cross
length
phase
product
preferred
values
portions
size
wall
p
substantially
reaction
axis
comprise
##n
detection
message
NO
defined
suitable
multiple
magnetic
three
G
chamber
relative
32
code
generated
wireless
inner
drive
whether
E
request
pattern
##—
added
opening
OF
systems
main
filter
valve
respective
etc
combination
mixture
##E
front
agent
desired
node
##er
arranged
illustrates
Thus
supply
sub
amino
path
conductive
26
determine
##r
+
aspect
active
##l
However
their
should
electrical
respectively
containing
shape
switch
up
25
video
manner
et
edge
period
al
mg
change
panel
certain
computing
generally
##L
sample
greater
transfer
104
head
##P
60
resin
pixel
similar
digital
##F
t
##y
test
determining
engine
located
mechanism
receive
distance
=
energy
THE
treatment
respect
23
beam
operating
providing
oxide
sheet
additional
protein
thus
space
19
software
alkyl
bottom
Further
lines
##I
table
motor
description
transistor
layers
way
polymer
angle
external
back
28
##methyl
),
thickness
cover
machine
examples
carbon
ring
thereby
ratio
According
shaft
re
instructions
steps
speed
port
array
showing
materials
results
300
address
attached
threshold
does
groups
features
##gt
##CH
[
K
##6
At
substituted
force
lens
s
screen
##-1
upon
conditions
disclosed

compounds
##lt
battery
##T
client
Hz
subject
carrier
##+
&
higher
available
either
W
would
##G
SEQ
color
organic
130
given
adjacent
##5
file
illustrating
station
31
perform
tube
required
patient
42
center
##V
internal
management
volume
34
solid
bit
##p
##x
(1
transmitted
guide
key
included
positioned
new
event
container
fuel
measurement
read
coating
reduced
106
fixed
driving
laser
Y
112
x
physical
diameter
##al
To
pre
activity
condition
generate
equal
##based
database
particles
silicon
parts
measured
per
These
core
even
optionally
##);
movement
##-2-
units
pair
mm
small
insulating
host
electric
detected
36
virtual
resistance
packet
f
operations
particularly
width
##to
total
mounted
effect
load
scope
parallel
tool
Therefore
before
they
face
recording
applications
prior
due
could
crystal
rotation
general
images
model
types
##&
mL
tissue
large
together
capable
generating
analysis
incorporated
210
audio
nm
Each
extending
claims
formula
regions
multi
fourth
parameters
term
mmol
DESCRIPTION
oil
individual
fiber
increase
left
##X
understood
implemented
70
##type
150
##able
typically
allow
central
concentration
DNA
conventional
##=
electrodes
hydrogen
human
command
pump
buffer
radio
right
difference
mass
clock
functions
performance
stream
Accordingly
displayed
link
Such
referred
hole
108
k
primary
integrated
expression
##f
related
After
;
consisting
characteristics
antenna
removed
need
52
open
plane
electrically
vertical
coupling
members
common
rear
detecting
##not
101
because
logic
44
times
27
schematic
connector
intended
selection
most
secondary
35
anti
local
directly
detail
400
changes
nucleic
##K
receiver
surfaces
140
arrangement
environment
four
placed
produced
##7
Examples
arm
Referring
touch
list
off
transmitting
prepared
resulting
appropriate
heating
points
##8
maximum
##ic
202
33
relates
column
##phenyl
store
around
stage
processes
spring
Pat
500
web
motion
chain
gene
against
INVENTION
standard
allows
##es
drawings
hand
setting
communications
connecting
##on
dielectric
profile
camera
41
average
structures
board
switching
38
hardware
intermediate
Z
claimed
forms
indicated
transmit
aspects
h
increased
mounting
feature
driver
onto
114
error
80
disk
performing
receives
imaging
antibody
identified
glass
%
acids
thermal
gear
ink
matrix
since
vector
card
opposite
therefore
determination
distribution
instance
##z
techniques
wire
Alternatively
Furthermore
modified
cause
skilled
binding
many
##the
poly
solvent
un
moving
pulse
long
inside
compared
approximately
now
sequences
′
formation
agents
chip
charge
represents
determines
One
By
##v
page
controlled
index
perspective
distal
segment
produce
potential
carried
##o
found
presence
variable
##9
parameter
conversion
effective
##.","
Also
radiation
blocks
resource
remote
54
otherwise
Q
##0
objects
polypeptide
design
search
detector
##w
separate
specifically
discussed
calculated
properties
##U
obtain
manufacturing
document
flexible
220
roller
site
necessary
46
hours
outside
48
reduce
still
122
game
coil
UE
cable
positive
window
equipment
monitoring
terms
Table
identifier
procedure
CH
cooling
ends
taken
users
filed
positions
contains
domain
thin
##)-
among
atoms
bus
90
##-3-
adapted
ground
−
executed
62
##side
Ser
longitudinal
29
horizontal
sensors
combined
free
indicating
generator
generation
extends
##-2
band
inserted
select
production
smaller
indicates
levels
larger
relatively
item
blood
##sectional
down
encoding
##-4-
specified
105
limit
controlling
variety
work
supplied
With
channels
##h
sodium
until
##up
independently
toward
represented
previously
initial
series
0.5
alternative
0.1
linear
catalyst
however
204
do
circuitry
pixels
##k
Step
compositions
negative
release
y
timing
##shaped
de
116
##one
closed
contain
sensing
constant
minutes
Then
delay
##W
wavelength
prevent
refers
next
pin
delivery
inlet
several
ml
normal
noted
particle
quality
injection
seal
storing
discharge
actuator
##′
probe
##[
capacitor
##-1-
partially
direct
##ation
place
cavity
Patent
instruction
make
employed
lead
##and
64
identification
bits
products
feed
noise
characteristic
measuring
45
310
entire
##see
aqueous
forth
room
chemical
RF
cycle
51
plant
short
##amino
functional
move
plasma
##Y
modules
very
words
##ED
printing
cylinder
print
density
nozzle
##at
peripheral
Moreover
status
wheel
protocol
drain
enable
height
Other
#
corresponds
wafer
##th
seat
wt
wave
micro
emitting
adhesive
action
That
(2
groove
loop
strength
paper
call
outlet
start
103
##for
r
useful
di
56
ion
passage
salt
membrane
cases
word
becomes
vacuum
factor
complex
across
Application
scanning
identify
real
format
sent
intensity
pipe
transport
depending
mask
areas
rod
disease
On
medical
row
sound
improved
near
show
cancer
##step
degree
basis
growth
indicate
pH
72
must
execution
##butyl
oxygen
extend
locking
name
##an
security
handle
designed
counter
CPU
orientation
terminals
detailed
platform
##FIG
package
##dimensional
CD
correction
methyl
purpose
sets
therein
nodes
cost
vessel
combinations
authentication
zone
write
modifications
able
sufficient
Although
utilized
302
peptide
detect
Preferably
slot
HS
context
button
interior
entity
die
attachment
holes
rotating
37
contained
piece
2-
reduction
molecular
powder
160
124
cap
mechanical
min
applying
supporting
holding
pad
sections
implementation
molecule
gap
transparent
uses
exposed
43
identifying
61
##as
Next
inter
samples
/
bar
person
forward
conductor
services
occur
sides
resources
Additionally
cutting
##”,
sealing
patent
alignment
While
mirror
proteins
230
items
depicted
easily
circuits
relationship
automatically
interest
changed
traffic
##10
feedback
separated
making
atom
BRIEF
movable
cylindrical
illustrative
outputs
scan
turn
250
amplifier
flowchart
generates
bearing
efficiency
text
composite
performs
pass
full
reducing
212
58
##,”
comparison
acceptable
plug
selecting
post
positioning
increases
mixed
molecules
appreciated
##−
become
##SEQ
player
contents
transmitter
axial
tank
##Z
transition
[0
rotor
stack
600
toner
##."
minimum
torque
customer
apparent
seen
gain
derived
More
partial
specification
111
operator
stop
yet
cut
directed
co
MHz
controls
achieved
account
register
ethyl
reading
track
proximal
technique
transaction
processed
monitor
purposes
treated
adjustment
##di
##-3
subsequent
exposure
causes
118
shift
increasing
206
degrees
##alkyl
create
original
converter
Embodiment
tag
j
map
technology
moved
portable
continuous
close
flat
nitrogen
##containing
w
distributed
depth
compression
mold
illustrate
##ity
pharmaceutical
antibodies
lock
##readable
implementations
update
tip
extracted
session
locations
aperture
LED
132
collection
electromagnetic
dried
screw
contacts
(1)
:
skill
door
66
presented
communicate
##ethyl
projection
algorithm
##time
half
sleeve
wiring
actual
occurs
piston
sources
administration
IP
considered
priority
TABLE
adjusted
tubular
voice
destination
created
disc
interval
extension
double
problem
##re
box
separation
lateral
away
plates
random
deposition
##ally
##emitting
##en
Since
##ion
producing
55
hard
assigned
thereto
cartridge
(3
analog
zero
##,"
aryl
complete
DRAWINGS
entry
readable
wide
graph
115
plastic
240
indicator
##such
supported
return
allowing
acetate
heated
SUMMARY
take
record
stirred
effects
printed
stores
packets
capacity
segments
operate
final
etching
personal
mixing
304
installed
correspond
fibers
Internet
follows
blade
represent
aluminum
transferred
201
##like
selectively
needle
route
reception
significant
tape
##u
phone
sense
residue
peak
engagement
chloride
caused
##out
photo
advantages
insertion
gel
Another
annular
variations
indication
##described
##amp
structural
180
logical
spaced
identical
representation
Formula
followed
53
DC
plan
loss
patterns
##from
extended
foregoing
elastic
needed
transmits
remaining
instrument
MS
cellular
holder
74
how
transistors
offset
observed
activated
instead
candidate
39
Here
barrier
messages
fixing
410
RNA
resolution
edges
170
driven
bone
later
##×
fully
]
320
DETAIL
unique
functionality
self
receptor
sectional
facilitate
v
accompanying
skin
glycol
cache
introduced
coding
drug
protection
##ate
previous
expansion
mM
coated
displaying
eye
again
exhaust
recorded
matter
achieve
provider
isolated
simultaneously
magnet
nitride
mentioned
identity
perpendicular
check
illustration
flange
desirable
copper
query
article
often
##14
define
equivalent
adjusting
recess
belt
126
manager
frames
administered
1.5
visual
secure
insulation
starting
although
events
ports
removal
encoded
strip
##off
existing
measure
send
z
variation
matching
(“
208
##line
NMR
improve
cannot
spectrum
ball
402
aligned
Note
circular
moves
121
charging
##ol
removing
ether
BACKGROUND
1000
printer
dry
Specifically
fifth
networks
dynamic
##-5
collected
##-7
give
percent
joint
There
electron
overall
every
Similarly
itself
remove
differential
mean
rotational
##”)
ester
##20
ability
purified
held
##Q
details
##TM
title
Co
header
duration
activation
diode
circumferential
depicts
−1
configurations
therapeutic
calculation
(2)
oligonucleotide
##ray
##brain
run
IC
bond
maintained
divided
0.2
longer
task
cm
causing
yield
##ized
modulation
700
whereby
mapping
preferable
openings
quantity
dose
CO
##J
coefficient
switches
representing
constructed
defining
filtered
interaction
WO
maintain
##1,
combustion
construction
measurements
once
82
calculating
flash
##specific
sending
deposited
reverse
symbol
214
71
numbers
testing
exchange
preparation
reservoir
bias
scale
white
alloy
4-
compressed
makes
expressed
75
characterized
washed
changing
consumption
fields
picture
68
casing
concentrated
job
designated
working
interference
##hydroxy
##end
silica
128
score
polymers
require
regarding
called
walls
alcohol
##ization
class
contrast
##=1
curve
##NR
fragment
cleaning
##bit
passes
##amine
##axis
tri
fabric
natural
bandwidth
recognition
conjunction
master
relation
enables
adding
125
processors
##):
##us
suspension
displays
ordinary
match
emission
hub
##12
reactor
last
nucleotide
shaped
execute
obtaining
##min
Once
First
anode
65
##AL
radial
development
connect
factors
3-
towards
pivot
##j
AC
steel
programming
hollow
limitation
refer
shared
Al
basic
allowed
mono
Cl
76
hydraulic
electro
string
turned
modification
113
##um
might
assay
sheets
salts
##ability
protective
manufactured
shell
##ated
day
executing
##11
l
47
operated
510
secured
seed
connections
views
count
passing
dispersion
running
impedance
142
requests
downstream
implement
catheter
policy
molding
formulation
rather
species
107
vary
linked
readily
appended
##oxy
velocity
strain
directions
programs
updated
conduit
departing
important
II
template
approach
days
stress
rail
decrease
acquired
cathode
vibration
lid
had
turbine
representative
implant
##-4
pieces
usage
hold
enzyme
134
illumination
scheme
##co
63
difficult
copy
insert
incident
instances
All
visible
##of
latch
treating
except
tracking
stable
chromatography
captured
five
rotary
whose
fine
expected
cam
drawing
System
##18
dissolved
precursor
heater
files
explained
copolymer
Leu
synchronization
unsubstituted
waveguide
trigger
broadcast
##propyl
capture
Data
drum
carrying
much
##ml
fragments
##16
222
##ment
property
rubber
isolation
substrates
152
dimension
converted
biological
good
facing
bracket
502
vapor
ethylene
capacitance
ions
alternatively
programmable
##30
##dimethyl
##limiting
straight
surgical
84
operational
##pharmaceutically
limiting
defines
animal
enhanced
amplitude
chart
subjected
leg
calibration
black
polynucleotide
fusion
inputs
420
##ID
entirety
404
conductivity
stability
lithium
49
curved
grid
rule
##50
rules
currently
typical
roll
better
substance
prediction
log
graphical
92
tray
bonding
##level
failure
800
resistor
reflected
vectors
rotate
fan
aromatic
acoustic
requires
flows
simple
inorganic
PCR
##OR
course
attribute
whole
recited
pairs
spirit
needs
comparing
10%
extraction
relevant
background
notification
##ating
promoter
completely
operable
genes
306
detects
already
preventing
##-6
home
##15
adjust
language
##ii
hot
presentation
phenyl
interfaces
evaluation
advantage
residues
##it
subset
radially
independent
significantly
figures
synthetic
Si
benefit
spatial
Compound
planar
cloud
symbols
apply
thereon
aforementioned
here
synthesis
Pro
Some
pitch
loaded
rectangular
telephone
##MS
During
shield
exterior
##cm
##ene
decoding
focus
slide
heart
sends
routing
1.0
middle
estimated
risk
hybrid
Re
composed
205
charged
displacement
especially
wires
problems
330
amounts
travel
surrounding
highly
78
acquisition
version
PRO
312
date
resist
impact
servers
PC
developing
##NH
##-5-
proximity
tumor
them
facility
usually
food
best
boundary
antigen
completed
elongated
comprised
fact
derivative
flowing
##fluoro
utilizing
auxiliary
emitted
panels
embedded
chosen
porous
uplink
written
##ness
##ers
integer
drop
57
##ive
downlink
metadata
inhibitor
stem
carbonate
marker
50%
replaced
creating
polyethylene
halogen
viewing
repeated
thread
requirements
report
electrolyte
hydrocarbon
links
derivatives
solutions
schematically
conducting
##tri
gateway
rotated
##way
who
filled
sliding
floor
##ar
upstream
94
dosage
consumer
96
payment
paths
drying
films
regard
##st
amplification
ethanol
##le
##ine
throughout
dimensions
ensure
contacting
act
compressor
##section
immediately
absorption
speech
reset
TO
##methoxy
continuously
established
##2,
proceeds
lever
infrared
waveform
culture
arrow
131
atmosphere
ceramic
tab
sidewall
203
arms
sum
registration
##chloro
##et
commonly
##ant
spacer
passed
reflective
##oxo
effectively
ppm
temperatures
##ac
mount
apart
350
##II
Because
mol
sampling
2.5
patients
therapy
developed
216
character
0.3
brake
business
301
plants
mixtures
81
titanium
records
gaming
metallic
frequencies
86
monomer
oriented
partition
suction
compartment
saturated
supports
##is
procedures
signature
advantageous
serial
cellulose
signaling
##de
foam
leading
subscriber
260
computers
association
##pyridin
IL
criteria
cooled
lighting
##phase
##CO
ambient
public
likely
cluster
architecture
##un
slurry
slots
loading
engage
##ur
press
carry
Method
dependent
reader
##ase
subsequently
engaging
diffusion
occurrence
144
##q
sites
73
states
(3)
contemplated
commands
##channel
additionally
clamp
installation
610
SO
addresses
accuracy
remains
sulfate
manufacture
bound
discrete
just
recombinant
uniform
##mentioned
intake
see
ranges
q
##IP
##13
decision
##.","1
applicable
special
covering
label
##1-
##state
reflection
##block
capability
semi
automatic
##layer
adapter
Any
coordinate
virus
EXAMPLE
lamp
equation
communicating
engaged
beams
relay
dioxide
sufficiently
o
what
109
simply
##00
play
red
moiety
radius
maintaining
grooves
extract
opened
omitted
clear
Using
Comparative
fed
##el
foot
viscosity
receptacle
inches
5%
900
predefined
stacked
transceiver
serving
correct
504
##40
##kg
trench
indicative
social
calcium
essentially
pressing
own
relating
major
branch
##ES
inventive
Ala
0.01
necessarily
mouse
5-
complementary
bonded
95
filtering
##including
threaded
406
308
analyzed
done
recovery
rows
fit
211
piezoelectric
delivered
fluorescent
safety
Ex
##24
branched
fatty
option
##down
allocated
polymerization
browser
##output
136
reduces
transducer
damage
extent
decoder
1-6
91
##which
separately
optional
add
Japanese
mechanisms
requested
##frequency
efficient
alone
exchanger
shapes
##19
conveyor
encoder
##]-
soft
##id
settings
square
sequentially
De
six
conducted
pins
224
heavy
navigation
acceleration
tested
tension
dispensing
attributes
iron
bridge
oxidation
cyclic
speaker
occurring
rigid
Val
exists
sealed
fitting
describes
ligand
NR
bore
unless
anchor
alkoxy
98
mice
85
enabling
reactive
polypeptides
lumen
filters
avoid
hour
Control
##amide
serve
polarization
th
##per
protrusion
123
##CD
dual
×
alternate
green
queue
88
waves
periphery
plural
67
training
vehicles
inspection
sensitive
stationary
enter
ultrasonic
0.00
##less
sixth
phosphate
interconnect
refractive
NH
situation
correlation
assemblies
vertically
Na
utilize
##MQ
takes
AP
principles
overlap
varying
reagent
steering
sheath
inclined
collector
135
1.00
refrigerant
raw
##meth
faces
vinyl
retaining
pads
pole
finger
handling
##:1
optic
##Cl
heteroaryl
decreased
wound
viewed
operates
leads
##1)
cycloalkyl
alkenyl
hinge
released
entitled
0.05
probability
magnitude
executable
feeding
embodied
super
clutch
Description
selects
waste
450
primer
blue
chips
verification
ways
adjustable
inverter
responsive
gradient
modes
exceeds
520
diagrams
Li
##mL
supplying
##In
Embodiments
developer
fastener
subsystem
friction
practice
Various
Gly
closure
UV
##band
prevented
mesh
CF
100%
diseases
monitored
remain
orthogonal
converting
too
behavior
objective
microphone
##volatile
absolute
tire
automated
RAM
##′′
blocking
percentage
calculate
acts
Field
exist
amine
pulses
Glu
flag
exit
1-4
definition
340
59
smart
polishing
private
compensation
##act
Cell
consists
##ul
doped
voltages
pages
##il
162
floating
intervals
602
Typically
variant
##22
binder
aircraft
transverse
connects
satellite
global
9.
polymeric
entities
valid
enough
appliance
enlarged
opposing
concentrations
models
reliability
allocation
returns
covered
##OH
concave
##transitory
bag
710
packaging
columns
##32
though
routine
fastening
La
parent
##ad
spacing
MAC
welding
serves
nature
substituents
190
robot
forces
arc
etch
absence
static
##ent
hereby
##ring
##45
sizes
health
Inc
##The
mark
lift
socket
clip
streams
estimate
##by
referring
recognized
his
##izing
##related
luminance
potassium
Generally
machines
rollers
recognize
winding
2000
430
spray
solar
bed
drives
wet
radical
moisture
history
232
actions
coordinates
kit
fast
##dd
sensitivity
accomplished
split
residual
token
hydroxy
cycles
crystalline
resistant
##age
administering
switched
advance
##35
spot
Lys
upward
downward
incoming
slightly
implementing
programmed
completion
thermoplastic
##sensitive
fraction
reported
decreases
tablet
##17
merely
removable
liner
401
##2)
enclosure
documents
##AP
methanol
##3,
pressed
commercial
Optionally
writing
##90
Cu
##no
library
##CF
dedicated
##)-2-
stations
##SO
RELATED
yellow
From
stator
seconds
spectral
labeled
peptides
balance
push
2.0
preset
layout
154
Reference
Methods
differences
magnesium
building
far
##est
carriers
151
mRNA
excellent
washing
##ry
injected
Invention
u
wheels
##-10
##What
tools
—(
alarm
glucose
apparatuses
412
we
permit
molded
##man
teeth
highest
describing
photosensitive
opposed
accessed
Non
90%
##°
normally
party
III
##CROSS
modulated
preparing
Chem
life
##26
0.4
##ary
flux
permanent
elongate
retention
assumed
angles
reaches
transform
##)-3-
construct
keyboard
iso
tree
SP
assembled
filler
amorphous
218
##60
(4
separating
describe
therebetween
inhibitors
additive
icon
enhance
antennas
division
tubes
FIELD
microprocessor
rates
fabrication
protruding
83
optimal
oscillator
##ting
equivalents
hook
fault
capturing
silver
Suitable
deformation
reached
joined
category
270
filling
silicone
involves
identifies
nucleotides
codes
estimation
enabled
continues
##bis
help
manifold
drawn
melt
translation
##21
##am
apertures
jet
parking
stages
Publication
keys
proper
77
polyester
critical
314
formulations
tables
listed
fluorescence
resonance
taking
diffraction
simulation
##70
##tetrahydro
##28
vivo
Arg
hydroxyl
tasks
scanner
(5
surfactant
coefficients
##25
##3-
506
realized
##ab
thick
##US
aid
99
disorder
##ling
strap
bi
512
133
##0.0
understanding
consistent
combining
alert
angular
executes
individually
transformation
360
predicted
eight
discloses
compact
##dihydro
Of
Consequently
drilling
workpiece
##ter
concept
clamping
protocols
actuation
registered
drill
locked
wind
trace
beyond
novel
environmental
commercially
pull
soluble
figure
Upon
denotes
outputting
##br
20%
##ROM
AND
Thr
collecting
selector
whereas
ranging
hydroxide
conductors
selective
chassis
scheduling
##)—
Ar
male
epoxy
produces
few
esters
valves
applies
errors
junction
equipped
unsaturated
easy
securing
overlapping
supplies
updating
##be
calculates
integral
3′
advantageously
bulk
1%
brightness
axially
adhesion
graphics
modulator
##ia
rotates
##cell
AD
141
##iv
plunger
replacement
pilot
expanded
others
serum
sized
timer
disorders
##PD
ejection
past
##ST
cards
closing
induced
menu
##DC
pickup
tert
convex
turning
##PC
138
##-6-
rotatable
##38
evaluated
accessible
strand
email
RFID
##100
microns
##34
##ial
nanoparticles
maintenance
shutter
study
fashion
separator
coverage
##ium
nickel
##80
involved
transcription
wired
_
collar
integrally
analyzing
affect
##-(
protected
credit
146
periods
instant
synthesized
stand
##Si
(4)
preceding
##ir
registers
binary
excess
default
702
ST
steam
pack
3.0
604
trans
appearance
router
similarly
initially
improving
Me
##-8
curvature
barrel
Exemplary
corner
outward
bank
pro
stroke
capabilities
reason
diagnostic
ingredient
narrow
##data
bending
reach
fall
connectors
password
215
cold
accordingly
##trifluoromethyl
diluted
SC
Preparation
LC
##%
zinc
round
protrusions
defect
returned
interactive
proximate
proposed
kept
population
305
##ance
manually
nano
Subsequently
Ni
attaching
halo
encryption
117
improvement
tunnel
slave
Web
Based
observation
solvents
dot
0.8
root
fabricated
acrylic
diaphragm
##ex
##IV
always
role
rest
stimulation
backup
##thio
(10
##ted
408
activities
reactions
nut
convert
##NO
simplified
tapered
##frame
sink
aliphatic
##2-
69
93
propylene
playback
oral
##mail
excitation
coupler
enters
slider
purification
affinity
managing
spread
donor
ROM
price
stirring
schedule
options
fluids
##rate
ammonium
440
alpha
bolt
620
alternating
projecting
##back
starts
plating
coils
firmware
Ti
bacteria
influence
##AC
shorter
varied
deployed
melting
car
rings
identifiers
future
inductor
conveying
interact
prevents
volatile
technical
##acrylate
placement
##hereinafter
technologies
##ethoxy
operatively
fill
transformed
animals
exhibit
##con
television
placing
##ies
ON
numerals
filtration
folded
IV
perimeter
modifying
##ut
specify
measures
algorithms
distinct
##PS
raised
covers
##ill
degradation
rack
##65
hash
meaning
numerous
Art
efficiently
encrypted
gases
entering
Additional
domains
Asp
′′
issued
Thereafter
##well
laminated
##ro
bio
tissues
bodies
minute
pure
172
Device
ticket
DL
##lo
resultant
smooth
transferring
profiles
EMBODIMENTS
vicinity
proxy
156
computed
outputted
bent
hydrophobic
manual
attempt
immune
female
##forming
reads
LCD
interconnection
fitted
##set
##-12
322
resins
arrays
226
GPS
solder
mail
underlying
##ator
properly
establish
USB
See
##-9
probes
stated
classification
501
##chlorophenyl
characters
##99
APPLICATIONS
fin
dispersed
requirement
pathway
guiding
clinical
updates
acrylate
##te
road
##27
deviation
strong
acquiring
containers
dispenser
mating
appropriately
hereinafter
5′
restriction
geometry
photoresist
leakage
vitro
##point
structured
variables
temporary
subframe
Network
phases
##free
discharged
assays
##top
amplified
##+1
infection
##29
ice
##im
IR
chambers
impurity
Di
legs
intra
brush
couple
##×10
patterned
hybridization
corrected
##III
##pressure
lenses
pigment
##RF
fire
continue
##part
cDNA
%,
accurate
0°
streaming
316
cannula
##if
slow
brought
##hi
405
dynamically
family
##ton
CA
##3)
nozzles
810
accommodate
Phe
##23
arrangements
substances
Nos
OH
0.6
entries
scene
fat
clearly
endpoint
##water
spin
Equation
3.5
numerical
actually
creates
sensed
constituting
learning
regulator
matches
receipt
payload
Provisional
##4-
insulator
rim
framework
rolling
##64
online
st
tags
curing
sulfur
mobility
inhibit
Group
reflecting
pool
focal
148
beginning
hence
chains
communicates
280
photoelectric
kind
mapped
quickly
bypass
share
irradiation
##fold
1200
##over
stent
find
##Step
EL
modify
compatible
##ose
primers
deliver
##RS
##carbonyl
introducing
##PE
physiological
accessing
BL
lipid
##IN
303
ingredients
##44
Synthesis
beacon
tetra
164
multimedia
introduction
##bromo
##oc
recessed
circumference
##tert
530
keep
foil
##ous
purchase
DRAM
metals
requesting
155
##mol
bacterial
bind
minimize
assist
duct
##AT
continuation
grating
plasmid
requiring
colors
slit
242
integration
resonator
certificate
suture
analyte
firing
Type
sugar
extracting
gold
##mer
##pass
0.02
begins
experience
batch
tooth
PEG
come
passive
laminate
approaches
##op
deep
508
employ
##Al
##39
financial
User
employing
grain
1.2
inhibition
ear
deployment
spherical
##36
repair
follow
cured
electrostatic
teachings
##mm
inserting
Br
##ag
ultraviolet
enzymes
lengths
compare
retained
inert
dye
##hole
incubated
restricted
gravity
construed
physically
Second
outwardly
multilayer
Ile
##μ
emulsion
copolymers
##board
latter
bands
tests
##-20
414
DMSO
ten
TFT
cassette
grown
bonds
advanced
guided
##la
put
recipient
comparator
etched
projected
started
blades
Ethernet
##TT
##also
##98
Access
##0.1
weeks
##ably
##ra
bis
pointer
##TS
##indol
experiments
utilization
pain
occurred
radicals
13.
elevation
##carboxylic
shifted
##CC
EP
resonant
cone
shock
Hence
naturally
##canceled
##ist
converts
##position
analyzer
closer
stopper
Bio
meter
axes
shoulder
1100
genetic
Mo
##[2,3-
company
brain
cleavage
145
crude
720
nonvolatile
wavelengths
##CR
child
##Me
Ga
sidewalls
evaporated
demand
1-3
hair
accumulation
laterally
native
affected
batteries
relate
protecting
neutral
advertisement
Where
substituent
costs
care
##REFERENCE
##01
Many
markers
monomers
little
appear
dividing
rotatably
flip
##SC
depends
accurately
##ne
dimensional
manipulation
propagation
circle
integrity
Finally
Gln
256
microscope
Two
rib
##75
##only
UL
biasing
catalytic
##4,
wear
matched
appreciate
calls
rendering
joining
alkali
US
screening
##53
strips
references
cup
##tic
swing
interlayer
0.0
Fe
gesture
consideration
therefrom
retrieved
satisfied
yeast
##_1
##ative
##07
music
##-7-
225
emitter
vent
bath
##48
thermally
reports
powered
HPLC
CSI
threads
years
eNB
synchronous
fused
mixer
97
axle
##PP
704
reflector
responses
stopped
(400
additives
beta
airflow
proportion
suitably
##benzyl
##68
##96
muscle
pipeline
##right
Test
OR
4.0
twice
creation
involve
TCP
##ri
##substituted
recesses
##TA
##aryl
neighboring
servo
##RAM
rapidly
##binding
802
concepts
geographic
focusing
79
##ethylene
polarity
PCT
marking
Ca
neck
252
119
permits
USA
prevention
##known
decreasing
paste
capacitive
essential
##CT
##son
tubing
disks
overnight
polysilicon
methacrylate
implantable
infrastructure
microwave
wild
depend
earth
world
traveling
blank
606
industry
##PA
bars
##IC
optimized
shielding
managed
ramp
prepare
##speed
spaces
Poly
alkynyl
inputted
optimization
exploded
##-(2-
graphic
rapid
latency
##57
macro
PA
SiO
appears
summary
activate
discussion
OS
peer
##ip
kernel
possibility
##55
##non
distortion
entered
merchant
##IR
explanation
550
LEDs
5.0
built
weld
intersection
SW
DVD
computation
limits
182
##7-
acting
##ch
##ING
retainer
##receiving
max
viral
dimethyl
manage
##OS
##72
reproduction
sharing
lip
treat
##47
Related
##ite
##pyridine
##second
221
temporarily
##order
metric
showed
##46
attach
Those
engages
Mar
prescribed
RT
linking
HCl
##ta
varies
wearable
communicated
127
grip
##/2
operably
2002
age
capacitors
##voltage
alkaline
ANISO
##33
##rs
##iii
true
operative
live
##CN
polynucleotides
establishing
Biol
4.5
multiplexer
gradually
offer
PE
Chemical
clean
auto
modular
targeted
periodically
substantial
Document
interactions
##−1
acquire
kinds
lowered
evaporation
hydro
break
industrial
traditional
variants
MC
##benzene
And
alkylene
absorbing
activating
soybean
##02
rise
articles
tracks
initiate
Memory
transformer
ignition
electronics
termination
duty
recovered
diagnosis
JP
30%
potentially
he
##called
actuating
induction
##port
optically
sign
612
St
hydrophilic
capsule
##95
Preferred
fluorine
mid
biometric
issue
substitutions
CT
protect
confirmed
flexibility
##em
cables
environments
ATOM
##86
drugs
review
##37
guard
##me
##terminal
403
##31
5′-
compute
Micro
0.25
forwarding
inch
polyurethane
kg
80%
carries
genome
retrieve
EtOAc
similarity
horizontally
coli
Both
Time
##”),
ratios
resilient
2004
temporal
carboxylic
orifice
ray
holds
ultrasound
87
sorting
Ltd
213
sputtering
Res
##ard
##8-
afford
boot
##dependent
Con
week
depositing
implantation
##sulfonyl
transactions
oscillation
##6-
pedal
magnets
complexes
regular
inventors
toluene
Asn
##defined
##ear
shifting
projections
regardless
folding
decoded
Still
##oma
interconnected
linkage
−2
CC
##200
initiated
′,
accessory
curves
cyano
15.
##OC
PM
earlier
##Re
standards
##78
##ian
166
weighted
##ma
##NMR
meet
loads
injector
mainly
possibly
##EC
##AD
collision
##(1
##′)
##5-
TE
pore
proportional
attenuation
conjugate
##lin
studies
##processing
extracts
provision
recent
##5%
tail
(5)
projector
Likewise
minimal
starch
TV
transit
422
inclination
descriptions
##500
sometimes
Pa
constitute
Sci
market
##:1,
fold
311
detectable
IgG
flap
Meanwhile
158
regulating
##-15
228
con
antisense
envelope
inward
tensile
windows
immuno
##att
##ER
161
##ang
##SR
almost
boron
fingerprint
40%
entirely
902
diamond
suppressed
directional
accumulated
##soluble
zones
buttons
##88
89
LAN
balloon
beads
interpreted
IEEE
tone
##56
assignment
60%
We
reagents
suspended
namely
##ize
meta
polyvinyl
174
##oxide
##)-1
##97
GUI
effector
##ible
PCB
TS
progress
Protocol
##silane
receptors
416
braking
CMOS
lost
Computer
International
##day
issues
207
organization
##ve
albumin
##ESI
0.03
rails
Service
versus
implanted
High
##-(4-
pp
experiment
CP
910
##Ph
##range
specifying
graft
altered
17.
leaving
numeral
cord
6-
);
THF
precise
##%,
fasteners
syndrome
polar
##ell
##ler
seventh
specimen
knowledge
verify
pocket
234
consist
vacuo
facilitates
##:2
periodic
origin
linker
carriage
inhibiting
coat
##58
heterocyclic
particulate
scanned
##io
New
networking
siRNA
CDR
##na
diodes
availability
fresh
##light
pseudo
precision
cool
mechanically
##-(3-
exhibits
regulation
inverted
##let
dummy
##(2-
gates
##vinyl
biomass
project
viewer
coatings
get
##EP
elastomer
##use
differ
##pro
setup
##PT
##IL
satisfy
##all
retain
pulled
##wave
emit
dust
checking
reflect
patch
##2%
look
obtains
LTE
zoom
expressing
plus
repeat
630
meant
##08
denoted
315
mole
bearer
8.0
##her
hyper
actuated
##phenol
nM
318
broken
324
##BACKGROUND
##drain
wellbore
Information
##com
##lic
beverage
substitution
anhydrous
ex
##ph
configure
##SE
enhancement
understand
primarily
polypropylene
##RE
behind
refresh
relationships
PREFERRED
furnace
dark
##DI
shall
turns
train
ready
##CA
##view
genomic
utility
231
PS
cylinders
505
##air
constituted
##poly
IN
−3
grinding
locally
##ti
##with
##94
insulin
”
delivering
sacrificial
tilt
topology
coded
##SS
##TE
##conductive
Specific
##carboxylate
##ca
API
Water
##go
handset
37°
casting
atomic
vascular
Tyr
25°
moveable
bead
0.1%
candidates
184
##active
coolant
leaf
names
buffers
##bi
##membered
fabricating
insulated
complexity
lowest
baseline
arbitrary
adaptive
quantum
ease
did
electrons
traces
Hereinafter
153
cameras
comes
DP
540
practical
cushion
##La
MOS
asset
syringe
##user
(100
OFDM
mix
infusion
impurities
passageway
bytes
##ence
pressurized
charges
eliminate
texture
inverse
binds
##direction
##TP
positional
##3%
falling
moment
scenario
interposed
##66
Block
participant
volumes
##MP
##43
##IT
question
slope
abnormal
Even
lattice
##cyclopropyl
early
##SD
hydrochloride
corrosion
broad
thereafter
tungsten
##ide
draw
Following
nerve
therapeutically
Channel
hose
##tag
seven
514
ribs
memories
reporting
modeling
solenoid
##SA
therethrough
cores
concurrently
utilizes
solids
polymerase
ammonia
clarity
helical
scattering
##1%
601
depicting
begin
804
foreign
affixed
##63
DE
editing
0.7
exemplified
jacket
##9-
##shown
TR
sequential
##ities
replace
patterning
stock
stainless
configuring
##first
printhead
Number
sector
XML
reinforcing
likelihood
spindle
##ure
mutation
tower
selectable
weather
irradiated
##(4-
marked
incorporating
Wi
2010
damping
administrator
##pyrimidin
##67
PO
##49
bottle
empty
website
##59
##ped
dichloromethane
##0.5
##4)
reliable
PR
Gene
deck
gum
370
collect
tuning
##CDCl
bundle
slip
##stage
principle
cast
successive
##DP
stops
wedge
gauge
##SP
presently
net
##max
clearance
margin
kinase
sp
Expression
##code
modulus
breast
##69
successfully
molar
usable
humidity
defects
##pentyl
##piperidin
exposing
parity
pick
passages
##acetyl
##)(
uniformly
pivotally
##os
rpm
##AG
CCD
aggregation
cavities
expensive
95%
NMOS
poor
challenge
##form
correcting
spiral
290
2001
##pyrrolo
answer
Human
rods
shear
##nt
##phosphate
playing
19.
repeating
spectra
60°
50°
phrase
They
retracted
209
initiator
historical
##ib
frequently
reel
BS
contiguous
demonstrated
compares
correspondence
warning
plot
evaporator
90°
2.4
collagen
messaging
seeds
her
specifies
##AM
##alkylene
delayed
quick
throughput
doping
planes
suppress
##mode
practiced
carbide
##AR
aggregate
radar
##85
##field
benzyl
Bluetooth
##5,
deflection
catalysts
1.1
OD
explaining
##itis
460
wells
corn
##sh
nitro
##OL
##120
polyimide
##PG
##74
byte
surfactants
##value
Cells
##ap
##04
608
##table
PP
##NT
upwardly
wash
##tan
168
650
0.9
lubricant
##41
lifting
##sub
175
annealing
cutter
##4%
locating
tolerance
chemically
say
absorbent
fixation
##54
replication
##linear
sender
formulated
flask
meeting
fewer
143
sequencing
extrusion
quantities
manufacturer
(20
passenger
multiplexing
barcode
emergency
##)-4-
##mo
##GA
analyze
##circuit
##low
conditioning
psi
golf
tablets
PBS
PD
##42
fingers
conduction
distances
##scale
maintains
##benzo
advertising
alumina
searching
Under
inventory
CN
expandable
scheduled
grams
locate
actuators
broadcasting
##current
##acetic
##but
therewith
192
partly
nor
brine
bladder
lung
go
inflammatory
##-3′
notch
cage
enhancing
situated
players
weighting
bases
internet
runs
##ning
##1.1
classified
extremely
ultra
reinforcement
divider
contour
accesses
##ish
pushed
transmissions
build
published
##tr
0.001
newly
authorization
releasing
171
anhydride
gasket
people
artificial
fluoro
##sec
sterile
##art
universal
simultaneous
elevated
met
tap
laptop
handheld
extra
presenting
damper
blend
##76
eliminated
##LS
widely
screws
##flow
express
enclosed
##000
shoe
convenience
Among
differs
##03
dB
mammalian
ECU
):
##Na
##77
Due
bend
acute
synchronized
molten
tile
copies
Corporation
calendar
cardiac
conveyance
##ner
acetic
lane
controllers
##ox
236
(50
monoclonal
##8%
##ME
Depending
##%)
relief
tabs
throttle
MP
fibrous
CDCl
greatly
##:3
coaxial
##SI
100°
targeting
proceed
modem
conveyed
RS
Mass
roof
cationic
goes
pen
##ci
transfers
deleted
Process
##LE
condenser
believed
##linked
2009
##ak
longitudinally
254
mutant
accommodating
###
databases
scores
##chain
2012
sleep
##MC
##5°
loops
##length
backing
oils
styrene
##=“
##—(
##CP
weights
discharging
targets
daily
beneficial
503
checks
monitors
continued
successful
1500
polarized
faster
packages
angled
fins
droplets
responsible
statistical
comparative
##TL
nanotube
dis
download
agonist
exception
gives
##BP
##MA
Ph
flight
NaCl
##79
##-11
##GG
1.8
crossing
129
##7%
simulated
##87
Met
heads
##CL
##trans
normalized
drivers
##ward
1002
neural
750
optimum
##09
Not
choice
NAND
GHz
codon
##piece
convenient
moieties
saline
enterprise
235
cat
##color
individuals
coarse
absorber
Dec
limitations
alloys
##resistant
##DL
machining
approximate
##that
falls
##ran
##optical
develop
MR
old
##cyclohexyl
acquires
growing
designs
damaged
##Fi
induce
club
validation
##high
Phase
##iso
##EL
Multiple
1,3-
encode
book
Mn
##CI
routes
chronic
subjects
guidance
retrieval
Proc
##”).
backbone
712
Sub
gelatin
polarizer
droplet
##BL
(300
oxides
dd
feeder
Bi
antagonist
##ga
##An
SA
Pre
Jun
820
confidence
reality
176
##human
marks
peaks
epitaxial
25%
His
great
airbag
modulating
motors
respond
reacting
##ens
organism
2%
trajectory
##term
##05
##ha
##agg
ridge
##SM
excessive
lack
benefits
indicators
##=0
##9%
PUCCH
peroxide
165
##)-1-
fuse
Calif
hierarchical
evaluating
transportation
(6
##through
discovery
trap
DB
latching
rays
##0%
##tion
##carboxamide
categories
ng
##ON
6.5
clients
saturation
overhead
SS
##-1,3-
splitter
##52
conjugated
finished
liver
alternately
haptic
superior
mineral
migration
pumping
interfere
Layer
displaced
remotely
deposit
app
accept
##fluorophenyl
WL
904
##alkoxy
Cys
##06
URL
##110
alter
vessels
solubility
concrete
expose
situations
Mobile
Sequence
##LC
reasons
circulation
shelf
1010
Sep
Mol
yl
atmospheric
thio
surrounded
trade
feet
repeatedly
formats
0.15
olefin
cooking
exceed
##pre
706
##=2
Cr
(6)
classes
currents
wood
hardness
##93
0.04
##gate
confirmation
##CS
themselves
locus
1-2
IF
alcohols
regulatory
mill
explanatory
strings
##ping
leak
removably
solve
730
snap
Se
##UE
hydrocarbons
custom
##,5
(%)
gaseous
##stranded
##li
##73
Science
platinum
directing
244
transgenic
connectivity
HTTP
aligning
##pyrazol
stiffness
satisfies
micron
##MM
flex
prism
graphite
##ps
adsorption
80°
kHz
mutations
authorized
baseband
magnetization
Image
##TC
dead
elastomeric
Ba
blocked
##89
##furo
experimental
constraints
customers
##′-
##implemented
toxin
tin
absorbed
gaps
1300
pointing
anisotropic
deletion
balls
##400
##-13
##nd
crosslinking
trailing
STA
##,6
IoT
flame
permitted
transported
react
##DS
suppression
##po
REFERENCE
70%
paint
eq
downwardly
urea
tumors
sulfide
GaN
criterion
##link
##lu
secret
ADC
saving
stamp
Instead
burst
640
geometric
en
##sis
##AS
oven
Comp
##600
Ta
microcontroller
##nitro
##OP
OC
attempts
rising
##induced
##00°
reproducing
indirectly
332
Light
drops
butyl
##ised
consecutive
3.2
AA
collectively
involving
##system
focused
ionic
15%
facilitating
realize
transporting
insect
referenced
##ke
resistors
electrochemical
##RP
inclusion
PWM
immunoglobulin
planetary
arrows
polarizing
sec
passivation
pulling
exact
transmittance
Acad
clusters
acidic
516
statistics
##cal
##ix
325
configurable
queries
Tr
closest
cement
equally
crank
membranes
adhered
326
providers
OFF
ms
dopant
418
saw
fixture
symptoms
##about
proliferation
repository
223
CVD
MPa
cobalt
desktop
614
Server
255
##RA
safe
listing
resistive
Sample
##61
262
months
preview
##62
constituent
##chip
##-14
interpolation
redundant
closely
Analysis
##stream
##7.5
##0.3
##300
##plate
owner
persons
replica
visually
phenol
##(2
##ob
##ty
initialization
FET
vaccine
applicator
tier
NM
packaged
##3.1
##2.1
principal
generic
##SF
linearly
321
##TI
undesirable
preference
office
attack
##derived
incorporate
style
137
##ast
evaluate
doses
May
initiation
##source
Press
6.0
##fu
##PO
circumstances
TM
##84
##OX
pouch
minor
replacing
filtrate
##ho
Multi
rearward
tend
CS
##—,
carcinoma
dots
randomly
roughness
biased
ideal
AF
photovoltaic
multiplexed
timestamp
remainder
##red
(0.1
Per
##′,
Acid
##Ga
amide
drawer
##plane
ca
encodes
##bar
detectors
overcome
Thereby
Ge
##IS
chlorine
estimates
##001
receivers
##6)
land
cyclo
DCM
0.08
VL
metrics
##SH
cladding
##lk
equations
##tetra
Particularly
rating
Systems
mirrors
186
note
##where
importance
nose
##terminus
Protein
##write
CL
1.7
specificity
feedstock
411
Use
##ical
rendered
deterioration
spacers
##IM
triggered
symmetric
incubation
se
inwardly
OUT
mammal
FOR
span
slidably
Oct
preferences
##ata
##0,
medicament
##/10
##determined
“1”
isopropyl
acetonitrile
diethyl
ACK
reacted
##ce
decode
oxidizing
interrupt
380
##ates
##6%
Nd
know
console
0.06
contacted
##dichloro
electricity
##CU
##log
##image
welded
##gel
##ud
pores
##-100
strains
freely
##PI
238
waiting
assistant
delta
0.5%
encapsulated
quantization
speeds
##ver
phosphor
inkjet
##ot
anterior
aggregated
counting
##6,
75%
assessment
automobile
exercise
Similar
deformed
1:1
##modified
indicia
employs
##gene
hr
weak
trip
##BA
assigning
lowering
MIMO
saved
unnecessary
aerosol
##-21
dispersing
##car
border
##RNA
Results
SF
combine
##NS
tongue
1,4-
TA
701
vol
communicatively
MB
##functional
slowly
hydrolysis
)—
##0,000
electrolytic
deformable
endoscope
amplifiers
gears
Turning
complement
IT
shot
cursor
vision
##-1)
AS
MOSFET
trenches
judgment
correlated
yarn
preamble
##Pro
reserved
##1.5
promote
colored
##HT
brand
unknown
ch
backward
transitions
standby
burner
##/1
representations
##isation
vs
##liquid
Part
MT
##pixel
mouth
drift
##DNA
wafers
securely
##GPP
##pr
mutually
313
belongs
##/4
penetration
##130
suggested
idle
1110
living
##tin
arcuate
nominal
##ification
##3.0
launch
##:5
neuro
##head
Molecular
Operation
522
glycerol
lies
springs
constraint
##aza
##MD
fermentation
##do
surgery
Processing
eighth
pivoting
drag
##carbon
##VA
##ie
##enyl
[1
HC
fundamental
checked
portal
dataset
shafts
UI
carboxyl
708
Power
##base
viewpoint
##CM
cultured
##film
DMF
scaling
tetrahydrofuran
expand
outcome
argon
encompasses
##prop
##TR
finding
2008
##lower
exclusive
stick
electronically
precisely
fractions
1:
##−1)
2013
nuclear
efficacy
##led
1.3
pan
adequate
##control
belonging
vial
maps
424
permission
crystallization
oxidized
wearer
1.6
purity
##3.5
chloro
##ins
Rather
480
##ba
sustain
##temperature
failed
warm
optimize
ND
specifications
##metal
ferromagnetic
3.3
edit
##resolution
stacking
241
Apparatus
IPv
2.3
251
##display
Plant
##ans
isolating
##MI
terminated
Nature
achieving
twenty
boundaries
dosing
Most
encompass
Certain
1400
806
spreading
jaw
injecting
aberration
buried
##Example
##prediction
spinal
effected
RE
SR
##propane
establishment
##EN
gamma
labels
wider
washer
##Co
##1.0
##pt
SD
sales
40°
gray
vane
places
engines
MEMS
race
confirm
IM
gripping
instruments
Aug
##flop
obstacle
##PEG
grade
##meter
branches
scattered
accelerator
coal
##NA
Un
policies
knob
Cancer
improves
transient
baffle
##hr
acetyl
##ified
##)-(
HARQ
2006
##92
ensures
indium
##51
cc
PDCCH
precipitate
odd
hetero
sole
##purpose
goal
mat
Inter
##0.2
##91
retrieving
asymmetric
99%
regarded
##1.2
##treated
robotic
parasitic
##linking
##wise
sun
605
thermoelectric
5.5
depression
##ane
optics
##TH
##IF
posts
tends
boom
Anti
##cyano
##domain
nine
purchased
##ons
quantitative
0.07
assume
promoters
volts
trusted
void
knee
fixedly
autonomous
pictures
Pd
screens
Current
3.6
Compounds
author
85%
customized
cysteine
wake
para
posture
##DM
##SG
corners
inflatable
decomposition
antimicrobial
Java
keeping
absent
352
1999
suited
Dis
##anti
##hand
##power
##ick
##4.5
estimating
offers
false
consider
silane
heteroatoms
backlight
##ice
digit
lists
##path
##protein
Sodium
lookup
PMOS
thermo
CG
rat
##indole
##ack
returning
##uc
magneto
crystals
920
Flow
consumed
slides
##ow
JA
##-0
engineered
##GS
sampled
CB
##ov
releasably
photodiode
So
mandrel
boxes
HF
heterocyclyl
downloaded
pneumatic
couples
compensate
Advantageously
pipes
Nov
##aca
externally
Interface
penetrating
##sc
injury
classifier
##PR
##ile
purge
##ylmethyl
expressly
wax
fluoride
##83
incidence
General
##coming
##izer
chimeric
hearing
visualization
br
constitutes
elapsed
stopping
leaves
##ay
##executable
hormone
##800
compliance
245
conduct
gun
##160
##inter
missing
scheduler
##DR
##ric
##most
wirelessly
Med
##IG
Jan
epitope
regulated
##dr
##AA
NCL
majority
Jul
forced
NT
##:4
%)
pawl
explicitly
VH
pay
examination
616
powders
01
research
##associated
grains
supplemental
188
2003
##RL
20°
Total
Laid
##magnetic
470
##+1)
float
polycarbonate
Natl
medication
##GT
bushing
milling
largest
recommended
spool
advances
1.4
align
##7,
##5.0
dyes
conical
334
posterior
fastened
Am
##lan
reflux
##LP
publication
guides
palladium
capsules
##are
##1.3
reside
render
intervention
##[4,3-
adds
insufficient
Sp
##qui
##tgg
triangular
##yloxy
bromide
560
examined
UEs
nanoparticle
ES
##GE
##connected
depict
##LD
geo
comb
thrust
adaptor
joints
Read
7.5
join
calling
entrance
differentiation
ART
Pr
ballistic
##81
TFA
##8,
sealant
Otherwise
##arm
worm
likewise
waveforms
##2.5
graphene
##component
##-16
circulating
Liquid
##pin
307
##GL
fix
propyl
script
amplifying
rounded
latent
recover
##manufactured
##-18
clone
breaker
thresholds
LD
2.1
191
HA
latex
man
hydrochloric
wing
labeling
slice
Composition
##rad
filament
ligands
##fa
bearings
##-30
introduce
178
4.2
gallium
##RD
reaching
rare
##)-7-
##71
concerning
##ue
##4.1
icons
smartphone
cabinet
convey
organ
##isopropyl
mini
1020
1102
APPLICATION
charger
Or
analogous
partitions
hierarchy
thicknesses
VLAN
recently
812
truck
194
##LT
##BS
endonuclease
DSP
FGF
7.0
differently
benzene
##gram
217
inductance
##ET
docking
calculations
versions
0.10
games
##heterocycloalkyl
downhole
tracked
##EM
originating
Communication
microfluidic
##aaaa
ranking
##DA
163
upright
associate
precursors
chromosome
directory
isocyanate
##coupled
assistance
blending
housed
stereo
##fer
coffee
blind
analogs
##alpha
correspondingly
pellet
occupant
Sn
##PL
kDa
conditional
polyamide
verified
##-[
acyl
inactive
Feb
emits
HDD
415
permeability
movements
beneath
##AB
dental
147
nanowires
##82
##contact
##ole
quartz
2005
analytical
603
routed
played
immediate
AAV
nearly
OLED
scaffold
2007
2.2
reporter
PL
methoxy
pumps
initiating
capillary
Unit
##PM
##Chloro
rolls
rigidity
802.11
pigments
athletic
##key
##core
dashed
##oxa
##-17
##TG
181
boards
lubricating
##node
##3.2
illuminated
antigens
##=3
(8
pertain
shipping
avoided
bp
##%).
##RI
511
adopted
##eno
magnification
inductive
automation
silicide
264
##RT
##angle
viruses
Model
treatments
predictive
masking
grayscale
enzymatic
bump
persistent
phones
denote
colon
ABS
##que
strut
RA
HIV
wavefront
flush
overlay
EC
blow
flanges
##2.0
ketone
reproduced
##3.3
reversed
##coated
accepted
seam
isolator
triggering
shifts
##triazol
attention
##so
polymerizable
##onic
##open
##book
Yet
8.5
explain
brackets
3%
##pos
##IA
##mediated
##den
173
defective
halide
reservation
ds
correctly
save
1-5
constructs
yaw
sync
interfering
pressures
tear
supernatant
′.
ceiling
##tone
bin
##)-6-
singular
predict
occupied
233
pushing
Tri
dilution
2.7
orders
acetone
1,2-
##size
Be
##BI
finally
terminating
distinguish
lights
Prior
##rich
##od
##cut
workflow
##LL
readout
432
##Fe
schemes
amines
theory
##benzamide
doctor
feeds
Ag
##vo
sort
contamination
alterations
artery
##king
##rin
Apr
##7.1
counts
slits
routines
PT
##5.1
assembling
boat
suppressing
Only
cash
sold
distributor
Ra
seals
dependence
##ru
CE
ejected
##group
##","
MPEG
##doped
arithmetic
unwanted
dropwise
click
##AU
Vol
342
##mod
reliably
computational
contrary
##hen
##acetate
##NP
##ain
dropped
stabilizer
4.4
supra
intracellular
extruder
##hexane
##900
##700
Digital
##ub
spectrometer
Herein
##Di
##50°
libraries
##our
workout
accounts
punch
(7)
easier
house
##held
##5)
##ier
##ni
exerted
addressed
sol
compressive
##target
dictionary
shroud
conference
532
pillar
tantalum
nip
##DE
illustrations
former
exhibited
Au
choose
##cap
##kin
MeOH
soil
##sized
##late
intervening
##-1,4-
progression
##diphenyl
##AF
vertex
login
##][1,4]
##-25
##Zn
70°
Zr
##ok
##lock
Mg
##oid
me
languages
##ttg
##=4
Low
interconnects
##DF
methodology
##cycloalkyl
pulley
microelectronic
##ber
##polymer
coming
transforming
00
exceeding
2015
participants
##gen
##NC
sand
RRC
alternatives
obvious
1210
minimized
Through
extruded
1×10
##row
pallet
platen
##au
##vi
anionic
##LU
sharp
##directional
Treatment
wiper
##VI
##can
surround
assign
##luminescent
4.3
phosphorus
##pyran
poles
Wireless
exactly
328
##SL
##sin
4.6
DNS
chat
272
##preferably
strands
fail
spp
##digital
##VL
wait
##surface
eliminating
inputting
##ening
assessed
antagonists
cryptographic
##electrode
##processor
Th
median
widths
stably
##ule
##fit
##life
dispensed
fracture
830
##OD
##2.2
808
impeller
cited
contribute
drainage
##unit
cumulative
vias
inflammation
contract
##NF
centers
spatially
##-8-
inserts
##sp
yarns
humans
catch
diameters
Again
##name
comparable
my
##MH
##EG
##280
giving
cyclohexyl
conform
Structure
##Li
3.4
##0.9
139
calculator
diabetes
##propylene
##FP
##ism
indices
broadband
promoting
##AN
8.3
arrival
##4.0
dial
taper
##dimethylamino
Polymer
30°
##-19
##1/
##charge
Mode
skeleton
evident
boiling
effort
##ther
pinion
248
protease
cooler
1.9
molybdenum
##heptan
affecting
##ML
removes
phage
AV
partitioned
407
fails
##7.2
curable
1998
spine
funnel
##ax
hu
Color
regeneration
surrounds
pupil
(30
##PRO
clockwise
Within
##pi
##nless
cleaner
haloalkyl
tilted
modifier
definitions
##cin
##ester
##ero
##element
Da
DA
cation
endogenous
dissolution
“0”
Fc
nonwoven
bill
preparations
##109
community
Target
isolate
)=
mis
1104
chunk
##mechanical
grouping
524
##mit
##dis
nanotubes
##LAN
##ust
implements
##EK
##ular
tactile
##+2
714
precipitation
Surface
##See
lamination
09/
195
absorb
##SiO
##SV
##spite
recombination
accepting
ATM
milk
1004
refrigerator
##loop
0.09
none
inhibits
ML
subscription
flu
sale
workstation
RB
##ach
expanding
##Cs
chuck
State
crankshaft
resulted
threat
yields
nanowire
exiting
imaged
survey
##difluoro
0.75
penta
##5.2
##res
Production
shunt
permitting
CM
stabilized
##ino
BoNT
##No
centered
##rd
headset
merge
##ept
reward
yoke
Base
##9.1
Input
##facing
149
vice
##pa
intravenous
outgoing
carboxy
ejecting
##shape
radiator
resume
meets
shaping
GC
##net
##val
##CG
distillation
polycrystalline
guest
246
##(5-
United
Zn
Different
##controlled
SIM
##ts
grouped
196
interferon
forwarded
##-1,2-
overlaps
##width
185
Te
##module
abutment
complicated
multicast
layered
##hydr
##2°
##CPU
Node
malicious
ensuring
##0°
##Open
puncture
simplicity
elasticity
3000
sucrose
projects
geographical
adjusts
##diameter
##treatment
citrate
AR
##ron
shank
##gga
routers
handled
##positive
hopper
opens
##dimethoxy
##ened
##read
ethers
##zero
stearate
Storage
bipolar
##thiophene
622
##noise
compensating
verifying
##Ti
##ect
steady
improvements
##)-5-
protrude
##cat
redundancy
##tle
dies
functionally
worker
facet
metering
accommodated
##)=
handler
##PCR
Literature
##cu
States
photodetector
preliminary
meters
prostate
altering
906
inhibited
orientations
dense
depressed
difficulty
Ed
##;128
chromium
##EI
compliant
518
##ash
##ether
Le
DS
accumulator
##MT
benzo
##my
##LG
##OT
##111
polyol
##Br
networked
bolts
426
740
SL
minimizing
graphs
##ology
Ro
##GI
luminescent
##5.5
polyether
statement
219
Third
hydride
phenomenon
157
prompt
##beam
##(3-
DMA
offered
microorganisms
tips
266
##benzoic
metabolic
strategy
Sr
Sb
spraying
425
850
##work
demonstrate
multiplying
paddle
synchronizing
cream
##par
##0.4
selectivity
pathways
templates
telecommunicati
##signal
zeolite
personnel
NF
surgeon
permeable
photoreceptor
Standard
variance
Radio
helps
DR
associating
concentrate
ride
platforms
differing
assuming
plated
##acc
localized
acknowledgement
tangible
leave
##/0
brown
Component
fluidic
anchoring
45°
##cyclo
##generation
ctg
facilities
exhibiting
3.1
accelerometer
##De
cosmetic
##mounted
lifetime
##alkenyl
inducing
##Cu
transfected
internally
##bo
debris
windings
##0.8
reflects
engineering
EXAMPLES
8.1
TP
##da
##ometer
##101
MD
homogeneous
breaking
shifter
paired
0.005
travels
##screen
CRC
physician
extracellular
ozone
boss
cancel
locator
##FIELD
installing
##128
gradation
##9,
##/3
susceptible
rank
4.1
##process
CR
##0.6
##server
SE
standing
retail
Display
death
##wire
Com
intrinsic
distributing
En
Length
scroll
##methanone
##mi
##cos
LCMS
handover
##dione
assess
Signal
##mal
eyes
##ave
dome
Out
clones
stabilizing
##solid
implants
##FC
trapping
restore
CLK
##sorb
facial
freedom
2016
##piperazin
follower
excipients
##ten
##ka
disadvantages
straps
##lum
1997
clips
successively
##crystal
##140
##trimethyl
sin
##space
letter
bright
##stat
counted
−0.2
##pyrido
progressive
patents
accomplish
##gas
Set
##refer
98%
##characterization
##graph
situ
Code
elsewhere
hereinabove
pulsed
unlocked
ECG
appliances
colorless
seats
inclusive
disposable
audible
Homo
Said
plastics
##GF
bubbles
consequently
##1.4
MA
trial
##av
grant
diagonal
methylene
WT
bring
NS
incorporation
vi
beamforming
severity
##ook
outline
##ACT
effectiveness
Now
##last
4.8
##8.1
poured
matrices
presents
GPU
##comprising
canister
##ise
1600
magazine
immobilized
restrictive
Like
animation
##load
##1.7
sessions
1202
##hydro
distilled
interpretation
compartments
##mark
##TV
##3.8
prosthesis
cancellation
##FI
Area
medicine
segmentation
##250
sounds
##spiro
rinse
##MAC
331
930
##mp
deflector
##service
##LA
pyridine
cultures
##sen
GD
##ster
##nic
rechargeable
##number
##cl
our
##lim
modulate
Ab
##va
##rum
TNF
suspensions
paragraph
piping
maximize
recommendation
##wheel
ferrite
arranging
crack
manipulated
##sum
publications
interferometer
subcarriers
##Ta
##tra
NI
condensation
##sel
703
silicate
year
##site
NA
##0.00
Temperature
protrudes
VI
gripper
coloring
Processor
##aqueous
folder
Yes
oblique
organisms
superimposed
DCI
staining
month
##ail
stimulus
losses
##MG
##LV
##3.4
credential
1,000
kidney
polystyrene
zirconium
conventionally
##hexyl
MME
vegetable
stripe
##2.3
MO
2.8
##ger
avoiding
tight
##002
transducers
inherent
WLAN
granules
##ants
controllable
borehole
Iso
doing
Yield
approximation
urethane
##4.2
##8.0
Pt
consumable
leukemia
##)-6-(4-
infections
##-50
1120
PN
Company
functioning
##generating
duplex
fruit
Before
fatigue
sintering
permanently
sc
sandwiched
robust
honeycomb
opportunity
##St
##allyl
SDS
##1.6
##-40
##land
##SN
photograph
designing
install
hosts
(—
##hydroxyethyl
activates
Intermediate
termed
packed
distribute
912
660
nitrate
detachable
##formed
disconnected
musical
Red
##DT
Several
nylon
##Hsd
##IB
furthermore
movie
8.2
oscillating
336
CMP
150°
polyolefin
MRI
##met
knife
impulse
transmitters
works
aralkyl
##[3,4-
egress
ELISA
258
##LK
##PF
restricting
rectangle
worn
bubble
##8°
heterologous
participate
Fourier
##NACK
Reaction
##silyl
tract
##ble
harmonic
emissions
##test
crown
withdrawn
symmetrical
##7.3
##ert
##Amino
##osis
##acrylic
augmented
nail
presses
polyoxyethylene
sustained
Module
##change
abnormality
shooting
contaminants
spots
solely
##NG
Sch
##body
##yn
570
705
sintered
odor
discovered
##6.5
isometric
heel
quenched
Video
##lar
infected
But
named
homologous
##AK
endothelial
##TU
pot
hands
inhibitory
##address
##chi
mathematical
rats
HP
agonists
908
monolithic
Car
##-(1-
Port
##GR
EM
##chemical
##selected
delays
ordered
##methane
##flu
##1.8
##operation
shade
readings
##CLK
##biphenyl
harness
somewhat
##rr
TB
divalent
planning
(9
lipids
filaments
Tris
buses
Scheme
balancing
SH
conjugates
dispense
Tx
Pharmaceutical
Having
authority
goods
354
manages
ribbon
sieve
452
retransmission
lot
insoluble
adaptation
PF
##VM
Rev
Content
##mon
##nal
515
dissolving
lithography
pacing
slidable
workload
##average
Ir
adhere
copied
335
##7.0
##acid
Do
PH
lie
blended
intelligent
laboratory
neither
2500
methane
##tgt
glasses
##ylamino
overlapped
hood
consequence
interacting
##ulation
bumps
##VS
rich
deceleration
sn
Optical
searches
nonlinear
1012
##Fluoro
exchanged
pointed
durability
resistivity
concerns
systemic
##FIGS
##)]
chemistry
Level
dissipation
−6
##idine
impart
##3.6
caller
tertiary
incorporates
##he
centre
Raman
breakdown
signs
keypad
##cag
license
##ACK
Trans
##FL
heterocycle
Request
reconstruction
ref
transmissive
transfection
versa
radiating
PI
##product
inversion
##ath
stay
PET
##2.8
##PV
fish
611
terminology
judged
RC
##450
descriptor
GL
heterogeneous
##[2.2.1]
##1),
##octyl
##TO
(7
##FT
vanes
triple
grow
##ux
##AV
exceeded
##HA
FF
PDE
Ad
2-(
shut
billing
recognizing
credentials
##bu
assets
VM
##180
reciprocating
detachably
##TD
4.9
##box
interrupted
crosslinked
firewall
hanger
disabled
##der
PCI
concentric
##FF
bumper
quadrature
elastically
tether
##tolyl
adsorbent
jack
Active
specialized
questions
##area
originally
neighbor
bromine
respiratory
armature
Namely
frictional
##pe
outermost
diffuser
echo
signatures
cloned
adult
##118
##device
condensed
##ttt
Man
indications
##][1,3]
##place
branching
null
1996
SI
inverters
cure
(200
collapsed
DM
Ma
formulae
invalid
colloidal
##LI
##sch
##TF
##ically
uniformity
ATCC
##EE
stepped
618
seated
sphere
uniquely
##tal
money
Controller
##PDA
##propanol
"
freeze
##ong
##energy
950
##boronic
metabolism
##mann
cuff
packing
regulate
##carrier
designation
421
centrifugal
semantic
RNC
unable
topical
belong
ending
##ethane
282
handles
nitric
##gan
splitting
hexane
##ogen
epi
refrigeration
rely
looking
MG
##oil
##ethanol
##ft
265
interchangeably
NP
slight
evidence
309
2.6
interacts
solvate
hexa
Trp
##CSF
titled
pharmacological
OP
frozen
translated
(8)
prodrug
##benzoyl
largely
workers
preform
##rit
pending
##card
thinner
HCV
waveguides
##4.7
illuminating
disulfide
2,4-
0.002
6.6
4.7
Immunol
irregular
7.4
partner
beat
##FS
unauthorized
teaching
##2000
colour
##ify
searched
7.8
##uniform
proton
Laboratory
##:6
##NE
MFP
##azabicyclo
penetrate
##cr
abrasive
##EV
activator
stretch
intact
things
##ella
notify
Intron
virtually
writes
literature
parallax
##Table
compatibility
analytics
261
iodide
AT
mutual
overflow
shuttle
##optic
diluent
##DMSO
Client
authenticated
##LR
TiO
2011
manipulate
0.12
##tttt
smallest
finish
hospital
upload
ablation
Vi
recorder
##812
disturbance
2-6
1310
hidden
Section
absorbance
##ient
ga
##fect
agreement
##phenoxy
##dy
TX
household
##network
IS
##location
##2.4
ventilation
constructing
5000
##UM
bellows
impossible
sake
productivity
##lip
Day
##lation
##eth
sight
biopsy
##access
undergo
##hydroxymethyl
existence
Drug
picked
submitted
##cyclohexane
(0.5
##ender
##;&
##eye
operators
##cc
##genic
seating
##aga
organized
Ru
GM
underside
cutoff
diagrammatic
##4.4
##YL
##furan
##polar
##methoxyphenyl
catalog
bicycle
180°
copying
thiol
disable
pulmonary
##9)
multiplied
triethylamine
toxic
landing
##otic
compressing
Without
716
severe
##eo
##ory
antibiotic
##hy
quarter
terminates
1001
##++
##styrene
HTML
scalable
Factor
SEM
arise
accelerated
burn
analyses
390
allowable
liquids
##KK
##BC
SN
##xi
##transferase
##This
##driven
ii
stylus
urging
ninth
IMD
##word
secretion
Po
Materials
spark
##list
mature
Photo
##photographic
indirect
arthritis
propagating
0.50
tyrosine
814
snapshot
PV
159
##SK
opaque
dimensioned
PLL
10.0
broadly
adverse
##left
speakers
##om
##butoxy
subframes
NE
suggest
immunogenic
dotted
##Ca
erase
200°
else
decorative
estimator
bicarbonate
8.4
chair
##ley
##ries
##ful
##ct
reactant
Over
progeny
propellant
considering
##-23
tiles
120°
##rod
Source
3.9
##mic
discs
##lay
##acetamide
##cul
containment
##oriented
cotton
going
cooperate
PB
skew
multiplier
##carbamoyl
FC
##132
recognizes
##methylene
##activated
Ha
compress
substitute
Solution
7.9
stretching
0.003
##operative
desirably
Accession
buffered
introducer
vibrations
##GP
##ns
##ano
discarded
4°
##mers
ttt
##heteroaryl
cholesterol
801
##ising
incision
excluding
translate
harvested
segmented
oxy
bid
##TECHNIC
##izable
duplicate
##107
tuned
Column
biologically
phrases
PG
362
outdoor
##MB
##ration
323
TH
coordination
##2.7
chemicals
##coding
delete
flashing
touchscreen
##1.9
AN
##ENT
mattress
ordering
//
granular
Output
##hexahydro
##3.7
(25
particulates
affects
noble
isomers
team
##YES
Configuration
exits
##ding
logging
LO
##itol
##HS
carbonyl
strongly
Return
RGB
retardation
840
reply
##square
Cas
generators
electrophoresis
technician
tracing
##9.5
balanced
microorganism
##4.6
dominant
es
bitstream
walking
success
722
expressions
rights
Address
##1-1
advancing
Hall
TECHNIC
##pyrazolo
10,000
adder
mediated
##ifying
##-60
##rac
expiration
homology
consuming
##quite
SiC
standardized
Circuit
pose
##Mo
NaOH
Ch
considerable
##col
gram
privacy
413
LB
##ivity
buffering
floppy
##Ni
##input
274
##ou
##205
plugs
disclosures
None
##108
428
Metal
LE
##static
designate
−4
York
bonus
Research
hydrogel
rises
##1;
evenly
thicker
##GW
##oct
adapt
exp
(500
finishing
##hu
##Pr
cos
transgene
##ng
centrifugation
Design
##6.0
architectures
doors
##sil
repeats
##ious
cancers
AM
Typical
PDA
##sided
manganese
TC
##pir
FR
Conversely
(1993)
apex
elution
##4.3
buckle
uptake
Frame
580
##iss
wrap
NOs
tie
##vis
sorted
##CK
Technical
stabilize
allocating
hundred
624
##Ex
brace
##Ar
##peptide
laid
news
ethoxy
abutting
##ock
street
pod
encompassed
##dot
rough
##imidazole
##sulfonamide
cloning
cargo
disclose
##[3
provisional
diffuse
applicant
regression
favorable
Media
6.8
Manager
chord
Et
authenticate
exclusively
microbial
##6.1
blower
##BE
basket
##cre
bow
increment
modulators
rotationally
##ome
345
hydrogenated
repetition
tobacco
SB
terminate
syn
trailer
−5
integrating
harmful
detached
##benzodioxole
oligomer
Conventional
campaign
##=5
##molecular
cag
##cis
magnetically
eliminates
##cit
protector
EX
nearby
peeling
constructions
holographic
##NK
millimeters
tilting
fluidly
colorant
escape
##320
QA
10°
##labeled
1994
resident
expense
##RR
##gain
trunk
3′-
##agaa
##vehicle
pet
##propionic
##vert
##ever
cartridges
dialog
760
##wall
(0
##RY
##und
orange
notified
##ref
cognitive
##ren
##8)
##bs
Film
federated
trademark
##0.7
conveniently
##comp
##LED
prefix
wrapped
initiates
183
1030
##ll
ED
##having
staple
terephthalate
##wt
sensory
##3.9
congestion
##LY
##bed
kits
Physical
Line
##ctc
227
detent
retraction
withstand
emotion
contraction
directs
homo
##diol
##cent
tgg
Key
##UV
Tag
trim
cytotoxic
insulative
survival
jig
Name
##lf
##9.2
continuing
compensated
PHY
porosity
trend
pairing
##discharge
Buffer
multiplication
spectroscopy
(10)
lysine
subtracting
intersecting
268
FIFO
##7.6
##VD
##2.6
Detection
permeation
##methylphenyl
sectors
80%,
Bit
##8.5
gtg
##circle
##pyrazin
blot
Eq
trays
0%
##cellular
covalent
##,12
notifies
excessively
dipole
##0]
##105
##cca
partitioning
satisfying
germanium
##su
##jet
inflation
medial
##137
want
##-24
##293
derive
2-4
stresses
4%
telephony
National
Samples
wager
4-(
##rine
(1994)
reflectance
Green
1220
shadow
##med
SLC
integers
Japan
pedestal
ventricular
6.7
extensions
##agc
perpendicularly
##cept
deactivated
diisocyanate
stimulate
2+
provisioning
##app
vibrating
198
scenarios
queues
deemed
reticle
##eli
##tight
##start
touching
resides
divide
##cycle
subcutaneous
banks
##LO
Technology
proprietary
tuner
##ammonium
seismic
6.4
##af
##other
##methanol
traction
%.
incremental
assumption
ATP
pertains
Add
##resistance
##:1)
End
##EX
##:10
satisfactory
##tens
##oyl
##function
fee
##7]
dryer
##ethynyl
##arc
##iness
##pH
attained
##EA
##-&
gag
(1992)
petroleum
##pyrrolidin
##131
2014
615
lymph
901
tread
##ost
instructs
antigenic
EMBODIMENT
##nc
Sc
Ac
heading
Spring
whenever
truncated
Weight
##ign
##piperidine
##ction
##qu
##]-2-
FPGA
434
##azine
##-2)
thumbnail
##picture
nearest
##7.4
##[3,2-
simulator
Point
conformal
roughly
FGFR
##eal
##cells
##VG
Heat
tg
##member
stomach
inbred
VP
endo
phospho
##inflammatory
supplemented
HER
Flash
LS
1-8
##rim
fillers
Biochem
wetting
##HC
deletions
##morpholin
journal
paging
crop
polling
##cet
organo
abuts
agitation
legacy
541
detergent
validity
##Methyl
##UC
prepolymer
##MF
1302
Transfer
ultimately
Form
##closing
subcarrier
ct
centrally
centerline
Management
disposing
(15
summarized
##80°
Ho
BC
cytokine
##clo
0.000
toxicity
Appl
participating
##dt
LT
##reference
##150
propagated
##CE
loose
5.1
##holes
encapsulating
inexpensive
(1995)
analyser
##weight
##axial
##olefin
##valent
encapsulation
##reactive
##ola
precipitated
scatter
##VE
student
##2/
##generated
scans
##010
Neuro
##nate
columnar
##ations
431
Nucleic
coin
##-7,3′-
##ions
PU
VC
ECC
Devices
fungal
##cyclic
eluting
preferentially
mast
Class
Air
quantified
iodine
RAID
contribution
antioxidant
modeled
led
Exp
outboard
Incidentally
substituting
microcomputer
##Mn
##cta
##Sr
TD
subunit
##cross
thorough
##2),
localization
rejection
citric
vendor
507
##negative
##enabled
1204
Three
overlying
considerably
##0)
harvesting
ortho
##(3,5-
keywords
nd
##phen
anion
iteration
YES
imaginary
genetically
backplane
##ana
##iodo
dog
##memory
personalized
minus
constitution
shopping
tendency
quantized
renal
##erg
##ject
abstract
windshield
trait
##int
issuing
toilet
##HP
disadvantage
constrained
fibre
##tro
##1000
Index
##.-%
1006
jump
demodulation
##ifier
##ual
hydroxypropyl
##trip
marketing
transcript
##hydroxyphenyl
eluted
Indeed
Ce
refill
pumped
interruption
vitamin
micrometers
GB
##BD
##UL
##MO
grounding
autoimmune
Figures
asynchronous
Good
pellets
5.2
intraocular
##ung
inertial
RD
jobs
factory
notches
##AI
rig
##SW
encountered
##220
##istic
##alone
VDD
intensities
consumers
##KL
Object
##uff
ingress
tenth
photographing
##yo
##metric
##cy
Tables
243
Present
anvil
##[2,3,4
##sta
rain
##gaaa
##minute
##duct
##=(
##ener
##HD
closes
deriving
##ionic
##tat
1993
##dic
elevational
stimulating
##IX
##ATCC
##old
im
##ature
Windows
excipient
##Sp
recycled
FM
##tab
##acyl
eukaryotic
limb
tRNA
rt
##ural
interposer
##away
logs
actively
retailer
##mir
sweep
253
irradiating
sprocket
##Se
##typically
##170
fits
hsa
plenum
##ctt
boost
interconnecting
unused
##thiazol
Sa
##GC
phosphoric
##5.4
reject
##pyridyl
##(1)
##til
dryness
##oll
356
##sulfonic
344
conversation
HD
##3-1
peg
contemplates
enhancer
##run
bucket
##5.3
indexing
Material
##ned
##FR
409
narrower
##CDMA
tagged
##mg
##heat
Purification
restrict
breeding
##nyl
solved
ASIC
triangle
##5.6
442
##-4-(
SNR
retrieves
recirculation
fibrosis
vein
##104
##TAG
FI
star
tunable
##-43
annulus
Microsoft
914
thought
Software
revealed
swivel
##gac
bad
VPN
hit
illuminate
##8.2
melted
rolled
firearm
Single
excited
flowable
##"
delivers
##parallel
##eri
virtue
CHO
calibrated
lyophilized
proof
##)-1-(
tracker
rectifier
textile
##BT
##EF
##toluene
increasingly
HT
apoptosis
cleaned
##NI
analyzes
##bottom
Gas
stereoscopic
humanized
propulsion
impairment
diesel
tester
Frequency
193
SOC
latches
##ess
##fuel
##[4
audience
##cyto
##si
John
##pyrimidine
292
355
##201
schema
(1997)
hydrocarbyl
##Time
##ret
##han
Effect
##butan
NFC
525
##anol
Procedure
entropy
garment
professional
loader
Resource
bowl
pivoted
programmer
wish
DD
mismatch
extreme
##127
coherent
mate
outlined
scoring
watch
moles
clay
DI
##360
ensured
##center
tetrahydro
(9)
##123
designer
judging
transponder
departure
NaHCO
##ham
##benzyloxy
Back
##256
##)-3-(
demonstrates
trust
##Patent
biodegradable
##KT
##240
undesired
deform
##byte
indoor
##normal
##column
raising
forwards
capping
Up
scaled
smoke
airfoil
bisphenol
Nano
##ended
stabilization
subjecting
338
American
indexes
displace
meat
##Et
3-6
Resin
##oy
##nm
##cho
regimen
542
##WAN
##ggc
stochastic
##sion
##-(5-
isobutyl
1800
excluded
Message
tan
backside
phenotype
sapiens
##count
##ms
Nb
codeword
gets
bovine
(1999)
lying
replicated
Program
establishes
ITO
##BM
runtime
deal
##-200
##carboxy
##ency
methodologies
distributions
booster
LOC
##Cr
##VC
##logic
##circumflex
bidirectional
acceptor
San
Rx
mould
435
brief
##sensor
##each
flavor
attitude
##imethylformamide
reconstructed
inventor
##tetramethyl
separates
combines
conduits
##ld
##corresponding
ridges
chloroform
smoothly
erasing
histogram
bulb
##aging
##fl
triggers
##directed
Corp
Korean
encrypt
endpoints
arch
gave
##KE
##tta
adjustments
restart
##NN
(1998)
dependency
##UA
0.20
cube
##1]
##ica
mo
textual
oval
##102
polished
microphones
guarantee
primitive
Bar
Link
##FA
##cast
##FE
197
EDTA
SIP
sprayed
recovering
transporter
dehydrogenase
phantom
Pressure
subscribers
##sulfonate
instruct
##under
ratchet
virtualization
##via
CRS
relational
##Compound
##ug
unitary
##ttct
##ulated
gyroscope
redirect
##264
fitness
cabin
tightly
cloth
##ylation
usual
responds
experienced
predicting
morphology
synthase
rock
backhaul
He
cyan
briefly
coupon
diversity
##density
cis
ta
institution
##UT
polysaccharide
lithographic
##125
##ral
restraint
advertiser
##cus
lasers
distinguished
##action
wirings
million
##OCH
parties
##Au
healthy
exogenous
TI
##ATION
##products
##loaded
retains
collimator
perforated
LDPC
computerized
##ode
5.8
waterproof
ROS
lactate
Assay
##FD
pulp
##aniline
feel
##103
judges
elliptical
##RO
fetal
##6.2
oxidant
Plate
adjuster
averaging
##Mm
##]-3-
hypo
millimeter
##fen
exclude
luggage
ligation
subsets
##len
##API
machined
##lig
##WL
Oil
aldehyde
vertebral
Besides
atrial
spinning
signed
Max
##-2-(
UAV
##za
##tent
law
tc
trained
digits
prosthetic
Solid
raster
pur
##two
##diyl
HE
conflict
NC
constituents
##ological
##ade
gels
1995
multiplicity
suffer
gcc
Organic
##ress
clocks
behavioral
immersion
thumb
##lets
##coat
##ck
##aaat
##Fc
##reception
consistency
##deoxy
selections
positively
##VF
##tive
decisions
BE
overview
symmetry
Office
VoIP
epithelial
##ef
notes
534
femoral
discontinuous
creator
functionalities
##OFF
facilitated
lanes
twisted
amplify
##indazol
movably
##qua
keyword
##toxic
pivotable
cubic
solving
equals
##ven
##×2
STR
##2.9
293
VR
##using
##hydrate
blast
(40
formulas
##imidazol
advertisements
5.3
0.05%
##rap
PTFE
632
##ACC
raise
masks
##tgtg
foldable
pyridyl
##KI
constants
##benzoate
edited
possess
##HCl
quaternary
caching
Interview
##DB
##BR
clamped
)(
theoretical
conceptual
emulsions
##sample
serine
SRAM
##350
##lot
##hydrogen
carbons
parenteral
conditioned
chance
##9.0
supplement
instructing
reforming
(0.2
underneath
basically
organs
outlets
##uro
##2]
##degree
microscopy
sorbitol
Fiber
VCO
Serial
##uck
collapse
notifications
0.18
juice
275
wrist
##urea
ob
distally
490
8.6
winning
dec
propagate
oligomers
iris
SOI
HMD
needles
finite
arrange
##MR
periodicity
##(3
##either
condensate
tris
disconnect
(1996)
centralized
heteroatom
tensioning
decide
planarization
observer
ledge
##carb
670
inverting
senses
El
##oo
eV
##-1,2,3-
eventually
plotted
Act
GW
expands
intent
##ggag
##naphthyl
shower
shallow
##agt
DAC
bacterium
immersed
automotive
viscous
##LF
synchronize
addressing
##4.9
quote
##phone
acceptance
pinned
covalently
sulfuric
##print
assigns
eccentric
dialysis
tangential
940
prop
equilibrium
##used
RAT
##tt
POS
##face
##tu
articulation
(1991)
actuate
##ple
##lytic
neurons
317
Rate
elongation
##alkynyl
resting
2100
annotation
visit
cracking
##Glu
aft
notifying
MgSO
azimuth
##cctg
Cap
346
spectrometry
sulfonic
4000
assisted
##tom
805
##case
restored
naphthyl
maize
rivet
exchanging
##”;
connectable
angiogenesis
thermosetting
##ggg
adhesives
degraded
riser
clustering
VA
converters
Filter
Local
elimination
nucleus
##270
DLL
exhaustive
soon
##woven
##6.7
she
pillars
nasal
##0000
bleed
ggc
instantaneous
##LTE
##ele
SM
densities
reusable
spent
##ACTT
patches
reinforced
##nucleotide
codons
Medical
Switch
##RQ
bounding
disengaged
95%,
##locked
##fin
lymphoma
##PY
##-22
hop
rec
##4°
lamps
spare
##KA
oligo
Applications
maleic
compressible
1101
indexed
cantilever
IDs
##fused
satellites
contextual
lactic
##113
##=0,
Clin
167
heaters
##page
polygonal
##ogenic
Item
##meric
##-2,6-
inflated
Bo
##omer
##198
##uf
0.14
##nexamined
##photolithography
chiral
demodulator
Lo
attain
wavelet
##gct
##ggaa
lug
Load
anticipated
##rel
##SQ
##DO
0.11
intermediary
##7.8
repeater
nanometers
prime
dish
observations
Measurement
1106
##aS
pounds
bringing
##119
resolved
aureus
aerial
##absorbing
(1.0
allocate
##DY
##Ch
hooks
Gr
##portion
##ura
##lit
arbitrarily
visceral
studied
##GGG
##sol
1008
clothing
subsystems
1.25
la
comfort
##rear
highlighted
FD
cutout
Aspects
ttc
##eck
stacks
351
##210
thirty
chest
outbound
GH
BM
##106
##tgaa
##2′-
QC
coincide
operand
Journal
Given
##dia
unlike
##CCC
crash
disparity
gl
##ato
##lat
suspending
progressively
reveal
##phenylene
fly
completing
photochromic
ASTM
Im
##GD
swelling
##roll
Kit
microparticles
flank
serially
sea
decryption
blowing
computes
hypothesis
EEPROM
341
intercept
adsorbed
##aag
##pon
##232
TLC
##yne
AG
PDU
+1
photons
##ank
mA
##ev
##numbered
##391
avatar
therapies
latest
lo
0.30
##fo
##aft
rider
##tes
##era
##RM
healthcare
lactose
greatest
night
caps
##bearing
##front
0.13
LA
LUT
##CAT
onset
carbohydrate
##acaa
##RK
Representative
notebook
retract
Su
counters
##-(1
##oli
##PDCCH
##room
Rh
##234
marrow
##aromatic
##region
synthesizer
registering
uneven
##effect
Direct
tt
volumetric
infectious
deploy
0.45
objectives
0.01%
##layered
##vas
##lated
enhances
centering
##rc
ASP
polynomial
registry
##GH
3.8
##referred
Random
365
##penta
torsion
biocompatible
printers
releases
724
captures
Compositions
ahead
entertainment
##ctg
##pending
GSM
grounded
Engine
ejector
##propan
##ony
arbitration
Evaluation
##;1
urge
##(3,4-
177
##ze
##morph
1-1
0.35
seek
formatted
slower
assumes
##RG
##array
##random
2.9
fluorinated
granted
moderate
gaa
##TION
corrugated
ter
kb
shortest
employee
adhering
widget
hull
receptacles
##pol
plasmids
##1-2
Ne
##-2,
outcomes
antibiotics
TCR
aware
ctc
flushing
##[1
manipulating
significance
Wiley
454
5.9
##152
VII
instructed
##)-5-(3-
SRS
designating
si
##(1-
upwards
intention
##abbreviation
disposition
influenza
centrifuged
REF
reactants
topic
decided
GA
abrasion
artisan
dropping
(2000)
436
##map
premises
##tatt
##CAGC
##ich
variability
##7)
rated
evolution
##−2
pushes
Term
Methyl
fractional
meanings
##4.8
##9.8
torch
##utter
Electro
##iz
coiled
DISCLOSURE
marine
season
polysiloxane
35%
wishes
##ace
##ND
transceivers
Cy
concern
depiction
glue
##sulf
##6.8
valley
##=8
##hour
##QS
Transmission
cake
##13,
##phi
239
desire
logged
trapped
##-2,3-
##filled
##we
chunks
##bra
Prepared
accommodation
collects
##select
##uring
lean
membered
transversely
237
stretched
##nn
Eu
Alzheimer
visibility
Antibodies
##micro
770
MW
skid
nt
526
Pet
0.004
##butane
##pyr
##NHC
##osa
appearing
##139
##les
Bacillus
potent
WiFi
heights
credits
disruption
##party
1320
buyer
Lu
521
des
Average
IFN
GalNAc
drawbacks
children
DMRS
candle
monovalent
basal
##mographic
imply
interlocking
##)-8-
meal
##NL
optimizing
Machine
aryloxy
tightening
##sign
RLC
expander
##sense
6.1
##7.7
##Mg
358
97%
6.2
paragraphs
aaa
responding
##trifluoro
downloading
##machine
allyl
276
##du
cradle
dispersant
slab
shipment
Immuno
##GV
##176
RP
listening
notice
artifacts
##ram
Blue
(1989)
restoring
viability
freezing
523
##rating
approved
kinetic
##ari
0.16
loudspeaker
##mut
alteration
Event
##ply
adversely
##1)+(
incremented
##switch
##pair
##omycin
screened
##azo
Product
keeps
##reflective
cytokines
##index
##ute
simplify
confer
##filter
##bol
##compound
##VR
##ibility
weighing
##enic
pivotal
##tggg
[0002]
[0008]
companies
striking
sinusoidal
tokens
##counterclockwise
enriched
##circular
##VT
##ccag
digest
##3°
you
[0005]
deleting
waist
digestion
metallization
considerations
##126
populations
paraffin
6.3
##112
##TX
AB
vortex
##020
ABC
competitive
designates
384
orifices
Detailed
##taaa
voids
509
##QA
##elecommunication
dispatch
HO
Gu
endless
manufacturers
7.2
anchors
twist
##hilst
##tron
##ographic
achieves
statistically
CQI
polygon
##atur
effluent
Disease
hexagonal
5.6
publisher
##ccc
02
extractor
codec
##coded
Size
heartbeat
##=1,
diaper
embedding
increments
shortened
##long
##idin
##SY
##pyrrolidine
##indazole
179
European
[0007]
Activity
lesser
digitized
5.7
##)/(
DQ
dicarboxylic
##gran
MU
negatively
##touch
816
quantification
expert
##004
Agent
##/5
5×10
broader
Electronic
Fi
woven
Ka
lifted
observe
278
##available
breathing
##pp
##molded
##YS
concurrent
ER
##134
[0003]
discount
513
Col
##ani
372
##sensing
tickets
ended
FFT
##RNTI
##carbonate
##oxopiperidin
##conazole
229
##ai
phosphatase
##gcg
na
averaged
irrespective
characterised
kPa
##7.9
embryo
sugars
hitch
##/(
Formulation
never
simulate
##aluminum
##MeO
VN
271
##shi
combinatorial
##-36
cooperation
Min
retinal
analogue
calcd
##inch
##1-3
##9.3
binders
corpus
weapon
canal
Tissue
##5.8
smoothing
arrive
caa
residence
Fab
##MOS
untreated
##ek
1410
1112
##proof
##][
[0017]
elevator
numeric
(1990)
dashboard
##cur
Virtual
IO
Function
bet
diamine
acc
##when
accepts
Op
2000,
comp
approval
phosphorylation
cracks
##pine
Mon
plays
dimer
implanting
300°
##)).
1-10
##rid
cart
potentials
##Invitrogen
[0016]
chromosomal
webpage
dopants
Nat
Found
364
CDMA
aging
1700
hardened
##new
##structure
hammer
synthesizing
laminating
Unlike
(2001)
##gal
cleaved
HIP
##dihydroxy
##alk
CASS
[0011]
talc
terminus
##030
##emp
reversible
##scanning
711
linkages
dissolve
1402
tens
5.4
Amino
##ination
Therapeutic
anomaly
pollen
##:7
rd
##solvent
let
transparency
unchanged
wants
diabetic
##quinolin
##ink
#1
invitation
##edge
toothed
decrypt
What
##pore
##UP
yielding
sulfo
residing
Manual
Cross
cardiovascular
sa
sat
70%,
multifunction
foods
conservative
CNT
##Ac
##mat
ggg
718
##uch
##str
instrumentation
##(0)
[0006]
[0015]
drone
##transmitting
374
##beta
accelerate
Volume
905
[0009]
commence
venue
misalignment
palm
fired
SMS
##naphthalene
##6.9
nonionic
##bound
incline
logically
shields
[0010]
graphically
##frames
gct
interleaved
opioid
##bl
Division
462
frequent
served
##2-1
##ko
prolonged
IQ
exclusion
##124
Coating
2,2-
].
285
##tumor
Host
##520
induces
terminator
Consider
##halo
van
blends
8.8
osteo
2006,
##gta
WAN
##UI
arsenic
fabrics
funds
par
suggests
arises
op
##5]
[0004]
Support
Background
##file
cached
hosted
##computer
##Dimethyl
##rn
limiter
##tip
latched
##blocking
+/−
##ju
knot
##ases
##8.3
statements
orally
occasion
Culture
[0021]
versatile
photoconductor
##oth
Provider
gat
tcc
TT
intersect
perhaps
diet
65%
readers
unstable
##Hydroxy
photographic
##arily
uppermost
##ACE
surge
Cold
[0013]
reasonable
yes
##specified
nervous
Selection
Soc
perfusion
decides
444
##4′-
##bits
##cel
Response
##750
Tg
Briefly
discriminant
##ocytes
stabilizers
mother
456
##loc
##9.4
382
[0018]
serious
telemetry
overload
planned
powdered
biotin
deflecting
ESD
Semiconductor
##acting
##rea
333
[0022]
RI
Auto
fluctuation
##9.6
overhang
pinch
##ccaa
##curable
##rays
convergence
monocyclic
payout
workspace
##lysis
administrative
Chip
MI
rocker
Bus
cyclopropyl
##TB
cassettes
assessing
wearing
ij
divisional
imbalance
seller
earphone
alerts
tat
motif
malignant
##lute
hydrate
##mid
##[1,2-
occupancy
strategies
pop
##PK
HB
disconnection
undergoes
PDSCH
##aaa
##dioxo
##izes
gathered
##ture
archive
##etic
Ko
##turn
##release
##lon
traits
##diamine
bridges
[0019]
splicing
footwear
trough
680
##emia
tct
siloxane
macroblock
##Hz
numbered
ISO
extensive
##pyrrole
initialized
Acids
1212
Technologies
ophthalmic
pockets
##136
LEU
##close
##tga
GT
mod
outflow
##electric
##://
progenitor
murine
farther
1989
paid
pivotably
##-108
##VP
##amin
##GM
[0014]
relevance
reversing
shaking
##choline
##NV
1130
##325
Patient
##event
##ik
impregnated
Sen
##shell
##atter
Deposit
[0012]
[0023]
dissociation
ganaxolone
hypothetical
squares
mal
combustor
##ESS
##sk
626
anneal
##blast
RNAs
3.7
perceived
##pan
##ATE
##ASIC
hinged
##effective
##ery
taught
glycoprotein
stir
heteroalkyl
##ker
##yt
##7°
milli
-(
Carbon
##var
energized
glycine
Vin
##charged
ferroelectric
##chlor
radiated
cac
Gaussian
egg
##trop
abut
formaldehyde
##permeable
transcriptional
(2×
popular
optoelectronic
cycling
blanket
8.7
##caga
[0020]
femur
2005,
##×1
markup
FL
EGR
tac
QoS
##isclosed
culturing
meniscus
stub
bundles
Dial
guidewire
lymphocytes
##pl
##men
cornea
locks
[0024]
ocular
hrs
retractable
annealed
##20°
lengthwise
##now
##ote
##omb
##Type
RX
##har
commit
subassembly
sports
##rol
##116
intersects
gc
[0025]
twelve
translating
deionized
stained
costly
roles
0.17
FA
Wide
Electrical
traverse
##rb
correlating
cultivar
##ctcc
284
imposed
##emission
zooming
##des
##diamino
Value
##thermal
Growth
coherence
mutagenesis
mimic
evolved
influenced
DO
ski
##LCD
##IK
BP
##naturally
pointers
Mean
microprocessors
##sheet
[0030]
depletion
loci
methylation
##inal
adjoining
##cgg
MSC
##25°
464
alkylthio
Harbor
Packet
glycosylation
CK
reminder
submit
##demand
##jAZ
refraction
bores
Hydro
Steps
classifying
demands
suffering
TGF
451
ram
##ATT
fills
##gtc
priming
(−
##tur
sulfonate
##Method
(3-
##MV
##ulating
1991
str
adjuvant
constantly
arrives
integrate
anisotropy
collaborative
gastric
malfunction
Biology
vaccines
mesa
COM
inject
shim
pretreatment
reactivity
attenuated
##volume
subpixel
##114
resolve
bitmap
##mus
stronger
##CVD
cca
replaceable
##SU
552
divides
[0028]
casino
inferior
Blood
inform
1990
03
##butene
cuts
permissions
cyclohexane
manifest
BD
##ctct
##oral
agricultural
compensator
Int
pipette
Position
conditioner
##amid
gca
##onate
##dec
reserve
##media
=(
Open
##metry
friends
dip
##video
[0029]
cartilage
Western
rheumatoid
stamping
96%
Ver
footprint
##stamp
##bio
##osing
swinging
listener
watermark
##silicate
Between
WTRU
plugged
##information
Generation
polycyclic
##To
resection
percentages
1×
healing
fence
Va
625
GFP
Celsius
obesity
synergistic
##some
ACT
clad
##als
##mination
##174
##saccharide
tones
1/2
VS
Logic
=1
1992
##gag
##260
banner
complementarity
recipe
lining
fabricate
STI
succession
Card
grasp
barium
##IE
invasive
amp
##cro
diffused
iterative
##6.6
trifluoromethyl
[0026]
accessories
##isoquinolin
liposomes
snow
letters
Long
breath
reacts
Universal
##transmission
##DVD
295
oxynitride
envisioned
tune
Fr
##6.3
mutants
607
drinking
##SiH
2007,
manners
##upper
##neu
CAC
banking
savings
Sh
Hf
##amyl
labor
##period
##press
##sodium
accompanied
chute
bioactive
##-1-(
##triazine
##quant
bromo
shells
##para
##5,000
bare
##003
isolates
##phospho
##optionally
mitigate
vertices
shrinkage
2:1
##SIG
##006
fibroblasts
IE
INV
mp
##crystalline
Summary
aforesaid
collapsible
obstruction
2,3-
scintillator
characterizing
##480
corona
Ln
structurally
##sn
##DG
##135
aluminium
inhalation
filing
lag
LV
(4-
disengage
##bus
wick
producer
ccc
##imino
proximally
validate
(11)
halves
(2002)
WS
##197
iii
attaches
bounded
polyols
arrayed
2011,
##PET
Institute
ever
Mask
9.0
ovarian
supplementary
diffractive
polyisocyanate
mud
compiled
4,4′-
##162
##255
splice
microstructure
phthalate
clicking
SYSTEM
framing
Electrode
inspecting
halogenated
##mine
tca
slid
##011
##raw
photographed
##eration
##silicon
plain
descriptive
examining
navigate
sponge
skirt
FB
SNP
##GPS
##lateral
additions
##)-2-(
pusher
LP
scrap
7.1
##FPGA
##wavelength
pancreatic
turbocharger
dump
speaking
##TK
##TGGT
mu
##Arg
pico
translational
secreted
##standard
biochemical
startup
spike
perforations
##spherical
hardly
stranded
su
SU
EA
alkylamino
##planar
##polarized
1206
spreadsheet
##GK
(0)
960
GS
##cagg
glycols
##more
feasible
observing
holders
##299
##condition
gg
##=8.4
##“
shielded
CU
##RELATED
companion
sapphire
decay
hopping
gga
##scan
EN
Element
uni
aids
##critical
ply
##gastrointestinal
##unt
10-20
(2-
##mono
supplier
multiplex
SG
GP
##ech
##1°
##Bio
##tail
Gd
infant
(°
stringent
##ctgc
retardant
circles
##MU
luminescence
##223
explicit
plots
intensive
##CV
silyl
deviations
incorrect
##hol
##del
##alo
adapters
suppressor
ttg
8%
pyr
##Pa
rinsed
##made
posted
reuse
toggle
##third
##hill
##-2,4-
##myc
##/100
mV
stain
##)—,
polymerized
##thiazepino
erroneous
blur
[0027]
magenta
burden
col
agarose
truss
AGC
anywhere
##122
##-9-
DT
##AAT
715
vibrator
coagulation
dressing
insurance
tomography
−7
soldering
Region
firmly
tunneling
##pent
##ctgg
depths
##nu
(12)
deactivation
trading
payee
settlement
##ula
SER
##here
199
sh
coaxially
##DSP
id
thyristor
venous
##TCC
hardening
##slot
webs
late
##133
##REF
##imidazo
belts
combiner
exert
Pb
##relative
0.33
remained
##.,"1
Hu
##:30
##cer
##CCTG
##Max
##YY
##trade
learned
pyruvate
##setting
803
Communications
##gcag
inflow
##shaft
currency
ferrule
datum
##:8
##variate
##DD
##Sn
gland
contention
dealer
fishing
##Trans
##transfer
arterial
reformer
##]-2′(1′
redox
Report
flags
##mass
##rp
rad
LSB
##drop
hypervisor
1024
##PDU
##glycine
gac
minimizes
822
DATA
subband
cookie
reactors
2,6-
inertia
BB
proportions
broker
geometries
coronary
##oxadiazol
##WS
818
##288
IJ
##Pt
1108
avoids
glycerin
##Te
rot
Str
##380
Substrate
familiar
reversal
refractory
monoxide
##ography
##vascular
##octahydro
Fluid
diffracted
Array
bristles
proliferative
(100)
flood
##3]
ESI
##]-4-
diethylene
waits
0.95
thousands
methionine
##forward
##pixels
281
##RV
Experimental
slices
eject
vaginal
##butadiene
##drug
SSD
restrictions
##323
286
threading
phen
Calc
SoPEC
constellation
irrigation
rinsing
storm
jitter
##caca
bottles
##pyrazole
totally
datasets
##atory
microparticle
##940
descriptors
##microcrystalline
Delivery
[0032]
legal
GR
cations
1502
brewing
##aR
1005
##ulin
subfield
##ser
##=10
##195
628
1404
##960
##6]
##propoxy
Identification
shading
interfacing
##thiol
##OUT
embodying
investigated
ARG
MV
##005
Release
##ments
stud
sorbent
gp
Effects
mist
##TAC
319
decodes
##she
##Wi
sal
##lipid
flexure
##265
##coupling
confirming
##cgc
##340
##138
##ttca
hybridize
Error
##3′
1040
uploaded
lightweight
##thia
contributes
##bp
quadrant
transdermal
Medium
##ulate
##injection
LF
##HR
counterpart
##gat
Post
ME
[0001]
##local
##168
scientific
ventricle
rope
##GGGG
wideband
##HPLC
sleeves
replay
##Butyl
##5.7
economic
turbo
birefringent
deficiency
stripping
##application
multimeric
##ern
##registered
stitching
hereinbelow
##ttaa
sloped
3-(
##8.9
assemble
MAT
sw
stirrer
carboxylate
degrade
##202
wordline
saliva
##morpholino
etchant
##lam
offering
requestor
facsimile
Silicon
##ema
confined
fl
##PN
deflected
hip
manipulator
dia
##7-1
824
##PB
penetrates
##aat
PX
##agca
pit
##TER
[0031]
erasable
hologram
eddy
luminous
sulphate
goals
rice
cyclone
monolayer
gating
##aatg
Etch
##760
##Data
fungi
antioxidants
##wn
debug
hafnium
Solvent
foreground
microscopic
##BU
##ij
2014,
##aata
GI
294
##tgtt
exploit
##virus
buy
##ara
##ATA
thermostat
##agag
(1988)
##mb
depleted
inspected
com
TF
struts
Work
fingerprints
##emi
PLC
My
##fi
maximal
shrink
Command
Nevertheless
preclude
playlist
##tilde
Database
customization
coincides
island
shaker
Dr
##CCA
Location
##wa
##PU
##acca
##6°
1610
##hop
##ense
cleared
tgc
OMe
##VII
##Bi
TFTs
1014
SEL
##)+
##situ
kiosk
0.19
idea
##UGU
##encoded
##organic
##GTG
invoke
##33,
##uth
finely
Computing
sorbitan
valuable
pyrolysis
correlate
decompression
stepping
##text
learn
780
455
stringency
##sequence
##(2′
microarray
##9.9
hundreds
imparted
##illa
cct
Binding
auditory
recommendations
903
##pad
##RB
##RN
photon
##plastic
##nis
telescoping
gasoline
##853
thermocouple
xylene
allele
288
NOS
vertebrae
characterize
##4]
plasticizer
Common
responder
repetitive
rectifying
##VIII
attacks
predominantly
spanning
generalized
Stage
##glycerol
##imide
(1.5
PVC
##enol
##lis
##En
##war
disperse
##HF
burning
Problem
533
agar
##chrom
Ink
##rush
potato
hermetically
pest
country
Core
##Con
taps
examine
arginine
##din
##6.4
6%
##Bromo
comment
0.2%
##DSL
Edition
imidazole
##oxycarbonyl
mostly
##avi
advancement
##11,
##closed
##Yes
(60
##hal
169
Sol
resuspended
summing
Initial
##cylinder
##5.9
jaws
alleles
Components
##rous
rests
articulated
hazard
Property
[0033]
leverage
##AY
degrading
barcoded
##butanol
##enter
Ref
##stop
Catalyst
helium
knitted
sccm
DV
##present
STEP
##ound
approaching
##)-1-((
imp
investigation
silencing
vasculature
CI
Small
##YN
Sigma
353
##KG
cal
##elastic
##ering
TRP
scored
##carbami
##999
##bro
bridging
crystallinity
restoration
urine
problematic
##WT
##oster
Gate
(12
##DMA
Top
HV
##ough
feeling
NOx
2-3
intestinal
##oh
##GY
coordinator
enclosing
interpolated
##fc
##kke
revolution
specially
##bridge
##date
digested
telephones
65°
photodiodes
microlens
Regarding
alleviate
probabilistic
ingot
oxo
##60°
##nium
##icide
##cttt
Integrated
ionization
bags
alicyclic
claw
##ked
Lett
##conducting
[0034]
adipose
pivots
##ACTC
tax
##Per
##supply
##exp
concerned
528
##ark
##ina
shares
##wide
Global
recycle
Sensor
##gaga
CAPTCHA
ladder
inflator
##benzonitrile
##uk
homopolymer
##GUI
DSC
realizing
flaps
symmetrically
##DN
prophylactic
##;0
extender
187
abdominal
##verse
agg
inlets
##lines
dissipating
9.5
##ood
##-3-(
##506
##(2)
Center
NV
SCR
sulfoxide
##720
microneedle
pectin
differentiated
##err
clonotypes
##306
pi
327
isomer
##cf
590
determiner
DFN
##taa
##USB
Chemistry
conceivable
Cloning
glove
spoken
##330
##Ser
##multi
##GAC
423
##etal
unlock
associates
RAGE
comparatively
##8.8
offline
intramuscular
Plasma
choosing
deciding
##peak
hatch
=0
##211
sentence
owned
##white
##growth
##interface
regenerated
##methacrylate
Condition
##tho
##aligned
fulfill
try
viable
digitally
##550
drink
267
##butylene
clinician
became
##CoA
HVAC
antibacterial
fans
1304
HR
##pla
##lia
screwed
##NY
occupy
##shift
0.40
##)+(
diol
impressions
pressurizing
Apo
unevenness
Syn
##az
##+1).
##polymerization
pathogen
535
ship
##SSC
Dynamic
##amido
##rose
##tctg
##hetero
dilute
Hi
)+
rh
nucleoside
Vehicle
recycling
Enzyme
##225
peel
##shot
296
##580
finds
histidine
doll
airway
##methylthio
lauryl
##12,
##cerebral
dimming
translucent
radioactive
##transparent
SV
##round
##prot
Smith
[0038]
staff
##take
##145
geometrical
Tap
##van
250°
Amount
##460
clonotype
PUSCH
View
Artificial
consensus
camshaft
wheat
##molar
twin
loan
##agtg
##Sb
##EtOAc
##detection
##ken
dihydro
airplane
##tgcc
##PH
fragmentation
transforms
converge
ple
contoured
Chinese
Concentration
HLA
##xx
hybridoma
flyer
MODE
conserved
##dose
subsurface
##propenyl
##IST
##direct
unidirectional
MMP
##oss
##:15
hydrogenation
##ria
[0035]
tandem
##228
pricing
emerge
assayed
University
##carbamate
polysaccharides
##235
myo
contaminated
##lib
adenovirus
##650
##rated
brazing
quasi
sulfopolyester
tailored
biosensor
comonomer
##www
Mi
##BF
366
Comparison
##adhesive
##storage
##147
##560
##bb
addressable
##hept
gtc
Ratio
sandwich
##pic
ratings
therefor
auction
protects
ed
##activity
##eekd
hue
photos
##840
##gtt
##208
##Key
##receiver
##wherein
##agat
CCP
probabilities
tournament
syntax
DTMF
blown
sitting
Initially
clearing
##ware
375
attempted
##lev
##:20
song
drilled
##199
##ied
##ppm
diagnosing
rectification
##ddddddddd
Though
##(2,4-
adduct
nested
proceeding
sockets
348
##8.7
tanks
##AGE
##even
##rot
condensing
septum
modifies
OCH
OLT
##ros
Par
##212
tgt
starter
##material
##RAN
deposits
Chi
configures
peri
##COR
0-3
superconduct
distant
anatomical
##quality
Path
##oot
##logical
##natural
##isobutyl
PPG
##rip
##atic
EGM
##640
##propionate
JPEG
##8.4
UDP
##miss
amplitudes
PIN
Mycobacterium
fragrance
POP
(2003)
811
732
##reg
##mes
##ges
accounting
##WG
CAD
##GQ
##tract
##:9
Black
##destructive
attendant
ctt
##feed
Gram
kV
fork
##hel
##nes
housings
##eh
##ili
##phor
maneuver
##acet
Vo
Du
Tra
##lactam
##284
Administration
[0040]
obtainable
Tb
modulates
midpoint
##Bu
##dried
##rab
##PCI
##carbazole
##CDR
##549
integrator
plaque
sclerosis
tumour
wrapping
stimulated
##-28
wireline
gestures
##opening
##WO
##pulse
mux
moreover
##class
ears
CCA
##190
assisting
Staphylococcus
eNodeB
##tggc
perception
houses
reconstituted
##ggcc
consume
invoked
##144
##infrared
##convex
exon
MIC
firm
cerevisiae
elicit
transduction
specimens
10%,
##chem
attacker
##azole
today
##740
stylet
##cyclin
##TFT
CTP
Go
challenges
mild
##-3,4-
isopropanol
##tech
fusing
##213
comparisons
EV
RAR
##ending
tolerances
##tcg
##9.7
Aspergillus
[0037]
[0041]
mannitol
Virus
padding
[1]
turntable
EI
##agct
File
urged
##tac
preserve
##amic
junctions
##192
SiN
[0036]
choices
nitrite
bicyclic
resonators
##hard
##coating
skip
922
##sampling
##DK
361
attributed
Free
##diene
carcass
forecast
##focus
wastewater
Mc
lacking
##PAGE
##-5-(
1900
plank
##luminescence
##assembled
##ART
Alternative
##149
luciferase
##py
##11)
1003
##115
1050
##gggg
##acrylamide
interlock
##pot
##visible
##UUU
##cid
##DV
##HE
##butoxycarbonyl
deeper
263
milliseconds
##ttga
sulfonyl
##bicyclo
desorption
Advanced
##metallic
45%
convolution
438
##-27
epitopes
converging
heparin
utterance
##lc
Disc
travelling
##below
##AGC
##mobile
##stack
SDRAM
−0.5
##LM
##tre
##electronic
identifiable
morphological
redemption
owing
##lectromechanical
##chemotherapeutic
##(8
##independent
tack
0.44
deflect
tetrakis
Call
microcapsules
0.007
absorbs
temporally
Wa
##pho
−8
##tis
merged
##cillin
##sight
##decyl
Details
enlargement
desires
##epi
slotted
##atable
behalf
tga
##cyclopentyl
facets
613
stiff
TN
##cle
12.5
##centric
Ion
2008,
247
##Ala
crimp
##gatg
relaxation
memo
videos
App
nutritional
suit
##BB
occurrences
hermetic
Numerous
Connection
dislocation
1,2
eluent
lap
##nap
##JP
458
crosses
##oxi
##ylated
000
7.6
##-[2-(
prokaryotic
fading
##xy
diverse
IB
phenolic
gains
##ggtg
##segment
MN
##zo
knows
##inate
##(6-
embryos
##yr
editor
numbering
##FET
Energy
lottery
terrain
reservoirs
trimethyl
##196
##RC
##TN
axon
TEM
modifiers
IGF
inbound
##receive
##cum
supervisor
embryonic
##decane
interleaving
##phenylphosphine
##atg
##trimethylsilyl
(&
##cellulose
##eNB
miss
protruded
bean
packs
Ethyl
purchasing
Contact
##308
##-5-(2-
##XXX
Users
gift
##cha
##307
472
aim
cyclopentyl
1208
1230
cascade
MgO
##orf
##agcc
VAL
Fast
##lating
##propanediol
##bore
##processed
pathogens
replaces
kill
##358
860
##215
916
Head
##WA
652
##ime
triplet
[0039]
interrogator
succinic
##165
indentation
demographic
forwardly
impaired
433
MHC
##systems
##121
##rk
##pen
shake
sounding
enclose
##920
##benzofuran
##4,5-
##157
exhausted
Case
LSI
encapsulant
regards
pr
Germany
##[2
##els
membership
##Ag
##piperazine
longest
##atta
accumulate
aesthetic
##TY
scrolling
##ttcc
leadframe
##benzophenone
Van
dither
methacrylic
confirms
disrupt
deteriorated
underlayer
Vref
##cttc
Currently
enantiomers
##real
##osine
##score
##olic
##274
char
##XI
##AAA
Transform
Gel
##tcaa
trocar
##TWAMP
##238
##quinoline
colonies
entireties
mappings
drawback
##tex
injectable
##acac
##fuse
##30%
##live
propagates
##located
##DRAM
##313
##tant
ET
##×100
##PBS
purged
cervical
hemming
dispersions
earpiece
##num
##-3)
##tel
RPM
##10,
##GCAG
chroma
##object
##vertical
##gcaa
##lane
Tween
##factor
preservatives
Normal
headers
PDN
boiler
UA
attractive
happen
##fil
PDCP
##topic
cups
retina
promotional
obliquely
2003,
ROI
##green
##VK
aq
##ometric
##175
horse
aerodynamic
syrup
intestine
Antibody
Guide
vibrate
hydrolyzed
pile
##fill
##nia
##flag
accord
posting
##pyrrolidone
Express
stands
##tellectual
authenticating
0.24
flowcharts
##GGC
stone
##244
sump
DW
unified
Real
DUT
keto
0.66
ceramics
368
RL
hexyl
100,000
##204
interleukin
occlusion
−78°
admission
neutron
##=8.0
Dialog
subtracted
##156
Hybrid
suggestion
validated
##selection
benz
Log
chapter
White
awareness
refinement
Bu
##aff
##153
gather
##(2,6-
##somal
Sy
##420
##540
CCL
wings
##atom
##620
##conjugated
Write
##CGAC
amyloid
[0042]
2-((3
auger
##;10
##ship
decrypted
##237
##analog
##370
##inden
genotype
depressions
inks
scales
257
##376
city
codebook
Drive
##50%
##grams
faults
cl
2.00
pane
helix
1150
(1),
1988
##KD
electroplating
evacuation
acknowledgment
eleventh
##sulfo
ionomer
##vin
0.32
Chemicals
translates
ascertain
1140
##5-1
##wood
##chloride
##=6
417
tr
undergoing
##aka
functionalized
##mar
parental
perfect
alginate
disabling
unreacted
varieties
inductors
##FN
##icin
1510
##008
reconstruct
ongoing
VIII
2200
##-4,6-
##contiguous
walk
##315
chlor
##vol
##atct
grease
oxidative
electrolysis
##rank
##TTTT
##gtct
decoupling
Page
##directly
feedthrough
##=0.0
quenching
##aud
##1).
##GAG
armor
##reducing
hereafter
##231
dirt
Ill
Transport
interchangeable
##680
Services
aag
Em
hereof
##024
##014
alia
jam
##STA
##regulation
VOL
##Cell
arylalkyl
##total
physiologically
rotator
##ribo
durable
font
##hether
##20%
runner
##216
GND
ducts
behaviors
##ny
completes
AlN
BSA
##248
##controller
Modified
##feature
##invasive
FEC
##shielding
##8.6
platelet
chelate
photocatalytic
why
Thermal
465
1250
##siloxane
TG
Mil
naphthalene
ft
attachable
retro
##conversion
##leg
reproduce
KOH
gtt
dent
hexanes
PDF
##70°
expresses
##main
##206
Down
##-26
adequately
CPE
1201
##ras
analogues
##Ab
##eq
pulleys
international
damaging
Super
taste
coordinated
##503
273
simpler
phenoxy
PID
5°
##HO
##154
##rail
##silica
##cooled
pyro
##254
##apping
Clostridia
immunity
FIGURES
IX
##PRLR
clipping
##30°
avoidance
distinguishing
leader
##pal
2′
##thiophen
##powered
##assembly
##retin
##targeting
CDRs
##242
dioxane
gypsum
##succinimide
discontinuity
##store
##CTTT
##deca
overlaid
##aldehyde
conjugation
##this
MAP
strengths
##concentration
##trifluoromethoxy
##GCCG
rupture
sludge
inhaler
##318
gloss
forcing
multiplexers
189
diisopropyl
Four
incomplete
tractor
##get
##OMe
Id
promotion
##imine
formic
0.65
propeller
##thiadiazol
##-3,
##296
government
##”&
mammals
synchronously
##ight
infra
subsidiary
susceptor
95°
volt
keeper
##:11
##flam
##diethyl
Sha
polyesters
pools
##catt
signalling
predictor
retard
##976
##Gly
Equipment
IGBT
inferred
virtualized
##CAC
impression
phosphite
##,000,000
constitutive
thinning
634
##producing
CV
##content
##yer
piezo
______
ligament
##activation
##389
##AUC
##129
relaxed
##ggca
1987
##oxospiro
LN
differentiate
##olin
friend
##removable
fluctuations
##660
##bin
conveyer
fr
mercury
simulating
Assuming
inference
2400
##cct
##lide
trauma
weighed
Gen
##tca
cur
ethylenically
##239
0.22
TAG
##loid
diphenyl
Escherichia
melanoma
qualified
flexural
445
Pen
Status
exchanges
anchored
##-80
drums
##275
##serv
Salt
Groups
##203
clamps
aggregates
scratch
713
mutated
flour
detachment
AUC
0.99
Thermo
NAT
##tile
536
##enti
answers
TCA
##ITE
##188
##sia
##418
helmet
necessity
defrost
Performance
middleware
(2004)
award
ISIS
win
##+00
modern
foamed
audit
preformed
Especially
colorectal
separable
Kr
granularity
devised
##ruc
##cryl
##MAX
parse
flakes
reciprocal
XOR
interpret
Rat
bioreactor
revenue
0.008
##146
boosted
promotes
##FM
regularly
##determining
##exposure
##substantially
releasable
carbocyclic
potency
##bond
##quinazolin
ignored
VEGF
fo
molds
##-01
primitives
##WR
PVA
assure
sine
multiply
##292
interested
Compared
Saccharomyces
ruthenium
quad
dosages
##isoindol
##benzotriazole
GG
lesions
purifying
##1-4
298
RH
SPS
##/20
##dT
glutamine
##cacc
discard
##052
##IVE
inducible
##coordinate
datacenter
##18,
##rt
ohmic
flattened
##ethylamine
schedules
fluidized
##uls
REs
##007
piercing
nanofibers
PCIe
##lysine
bevel
timeout
##DATA
Primary
oily
withdrawal
−10
unavailable
##azepin
influences
##AGA
beforehand
prize
##-[1-
nanostructures
##itt
RU
##241
##otoxin
##]-1′
##defining
Proteins
iterations
55%
##9]
AL
1022
pedestrian
bait
##evi
##arrow
##-2,5-
Recently
tapping
##switched
RAN
switchable
spam
++
checkpoint
decline
failures
conclusion
headrest
intermittently
##ney
##TCP
du
hosting
(0.3
##icing
1504
rub
offsets
##IO
##117
efforts
##driving
(150
##stable
SAR
gantry
##285
ICs
getting
AMP
##×(
demodulated
resetting
##ogram
1114
Anal
371
##hat
dice
monomeric
trees
##ya
unicast
liter
(2005)
aortic
unloading
##233
##clk
refined
##303
815
##catc
AX
tta
interpolymer
##thr
FN
##rigid
Cre
291
sudden
##glycol
##regulated
luminaire
efficiencies
lubrication
magnified
preparative
IBM
subnet
PEP
##MENT
1602
##268
##ataa
highlight
chromatic
levers
##230
##walled
machinery
##UGG
Tm
CTE
http
AU
446
Arabidopsis
[0044]
possibilities
asserted
tautomer
dodecyl
##amylase
hepatitis
biomarker
##rick
artifact
elemental
cycloalkenyl
besides
extendable
##ylene
depress
##304
carbamate
##142
##214
fuels
##fluid
##method
collaboration
communicator
sterilization
umbrella
hematopoietic
##ifiable
##vid
##040
##177
declared
0.85
taa
halides
Del
solidified
neutralized
##atga
##apart
545
##GCC
##310
##155
twisting
##UUC
##ves
##hoc
pause
deactivate
Personal
##cancer
downwards
carboxymethyl
##GCTC
376
eligible
laundry
degassing
Panel
##don
trials
##tris
RM
##678
intermediates
##lactide
##elo
developers
contexts
##GGCA
compromise
CAM
dys
Association
Health
throat
investment
##276
flexion
spun
puck
widthwise
##trichloro
dysfunction
870
caster
##selective
621
(13)
##pyrrol
##clock
[0043]
electroporation
velocities
incentive
##322
transplantation
##program
adsorb
##formation
##four
##ico
##ccac
##transport
##ki
##Human
##MIMO
##accessible
##spec
##half
altitude
ox
##/6
photomask
bandgap
Laser
centrifuge
inherently
imparting
hosel
##gca
##configured
##alcohol
##consuming
##window
##tccc
Regardless
conductance
##ACA
gearbox
unmodified
baking
##ethylhexyl
Ann
Sons
##ylamine
rigidly
vials
guaranteed
PDP
°
accommodates
composites
##reinforced
listen
List
Industries
[0047]
fulcrum
proppant
surveillance
##-35
Often
##motor
##bonded
Adv
PSI
Techniques
##90°
spur
synthesize
##GQG
##COOH
##broad
562
onboard
721
polyamine
##Lys
[0045]
concentrator
explosive
penalty
strike
##-29
BF
##berg
##312
simulations
soap
stents
headlight
FETs
##mix
##expression
Pi
##ident
##16,
ligated
stool
bowel
400°
override
##thin
##ethanolamine
##(2-((
diluents
##ccg
##hexa
fibril
##rink
##response
##KR
##-1,2,4-
Usually
proviso
Infect
restraining
Peptide
##cyclopropane
##TACT
##=8.2
##266
Mat
electrochromic
occupies
chemokine
cipher
(1987)
##electro
Alternately
##;0.05
amides
corneal
##UTRAN
##272
enteric
##143
##urs
##ja
##ris
SPA
##)-2
##90%
##ccct
Gal
pendulum
pillow
neurological
Project
tibial
analytes
breaks
Glass
electromagnet
96-
##ench
##actin
discharges
##166
1,1-
##END
##ators
alkane
##thiazole
##pack
Side
##caag
##catalyst
homolog
##carrying
##VQ
##contained
chelating
sought
##KV
##Po
expired
degeneration
##indicated
##tinib
measurable
commerce
##aminomethyl
diagnosed
−9
lb
##ett
##lactic
##trophic
cleave
helper
911
##combination
##016
##Sigma
##horizontal
##script
telescopic
Determining
Schottky
Unfortunately
[0046]
comprehensive
titania
Register
websites
octyl
Main
perfluoro
Coll
##608
##host
categorized
Pub
moulding
##yp
##around
migrate
licensed
cab
Sm
Extract
##ocyte
##QE
restaurant
telematics
trifluoroacetic
UP
crosstalk
##string
##tube
PLS
##tap
crimping
##opathy
##iding
##heptyl
##Ia
suggesting
delaying
##408
##240,
##matrix
Pleas
##communication
##298
##phthal
insure
FS
neuron
weigh
##-428
##iation
##530
##-3′-
formate
##ition
##force
##ATGG
20%,
looks
##060
EF
Receptor
polyclonal
sled
##XX
NOR
##970
distorted
Wash
issuer
##243
Her
agree
##305
1420
saddle
PDZ
USER
revolutions
##GAA
interstitial
#2
subcomponent
##grade
tele
EG
##207
fittings
##RMS
642
appointment
summation
(1985)
subroutine
BI
crushing
LIST
spline
unlikely
approximated
acrylonitrile
herbicide
Rf
##172
##[4-(
##naphthalen
##WE
north
regime
##262
##QR
adopt
tangent
Language
vanadium
inquiry
Tumor
scintillation
##nano
putative
##expressing
carefully
knock
vibratory
##play
operands
[(
##tgat
##deliver
##CCAG
##uit
##amycin
subtract
##[(1
disappear
##nicotinamide
Individual
holography
arteries
continually
##photo
##mph
##east
recurrent
CON
FBS
XR
8.9
##agga
exposes
chamfer
##QAM
Basic
foundation
##react
##responsive
##730
##rav
VF
ballast
ISP
circularly
mar
##esters
batter
brings
##inger
Lab
expect
##CHR
##183
GLU
##alanine
siRNAs
##substrate
wrong
homogenous
enrichment
rearrangement
2,2′-
shard
##bands
Conventionally
originated
ONU
violation
diatom
466
PTP
5,000
1604
safely
Pigment
##-42
ranked
steroid
538
##after
##-[4-(
##AAAC
1105
nanocomposite
miRNA
motherboard
sunlight
percutaneous
##vir
ghost
##ido
Ig
LI
##025
##rup
spa
TDD
bleeding
##existing
pM
GE
##10%
##cost
fetch
##050
##illustrated
deuterium
extruding
interrogation
##phosphonomethyl
Imaging
##pump
vital
stall
preserving
23°
##cctt
afforded
##-5-(3-
barb
projectile
##CCCG
##1801
##both
squeeze
don
2300
##och
##COO
implies
portfolio
##icular
707
dictates
Conditions
##708
441
Functional
NK
##idene
##273
##connect
##Com
##10)
BLAST
actin
##spinous
##pect
biases
Den
Doppler
immunization
reconfiguration
rectal
##attached
SAM
ECM
##check
optimally
Primer
multicomponent
subgroup
##furyl
##stored
##spo
##conditioning
directive
POI
Yellow
##iva
scripts
##above
lbs
blockage
##Out
crucible
vapour
##client
Fourth
mounts
Beam
touches
lysis
mining
##atch
##loss
ggt
perforation
##ky
balancer
##steps
lubricants
##butanediol
upgrade
##amines
escalation
hypertension
##culture
indeed
##sphere
BT
coplanar
Rotation
##cccc
preselected
EMI
hydroxyalkyl
##copy
##158
charts
asthma
##410
condyle
practicing
oleic
##281
2′-
broadest
evacuated
fax
##than
##880
rust
forty
##QD
##NIC
##393,
30%,
##tending
WST
swirl
arcing
markings
##allow
abundance
metallocene
reductase
relies
##cooling
##protected
unstructured
imager
cutaway
##219
##605
difficulties
##phy
alkoxycarbonyl
##080
3,4-
##lb
55°
Magnetic
##ECT
1080
metathesis
intermittent
muscles
Determination
[0048]
[0049]
hysteresis
chemotherapy
strobe
##inhibited
##refractive
##approximately
Protocols
##butenyl
##carbonylamino
##peer
##ttc
mated
##AAATT
rearwardly
bear
Ki
##ites
##224,
##magnetoresistive
(%
##dichlorophenyl
Young
[0050]
terrestrial
traversing
divergence
antifungal
Ku
shin
carbonaceous
WDM
viewable
##oate
609
##013
##fast
##caac
USP
tell
##pattern
##tus
##245
##′′,
pyrimidinyl
##phthalic
##GCGG
alternator
budget
collide
nanoemulsion
sixteen
helpful
##RW
)]
Identifier
##palladium
possesses
deployable
3-5
##onal
##driver
buildings
blocker
##181
literal
complications
Sal
##oz
convention
sizing
clo
Voltage
analgesic
discrimination
microstrip
##rom
##WD
##ford
##0.1%
powerful
populated
comply
##ccat
##single
1216
backend
##429
preserved
##cycl
folds
##209
glycidyl
shoot
obscure
pulverized
pulls
##scopic
Continuing
respiration
felt
writer
prone
printheads
TIC
##-[2-
sequenced
matters
hybridizes
343
PVD
##148
Sta
Reg
hybridized
##syn
merchandise
mention
##omic
1.50
##KP
##THF
accumulating
disposal
fumaric
reductant
emitters
BWP
analytic
##(2,4,6-
##GGA
##phosphine
554
##CCAC
FP
Properties
idler
Particle
nuts
##Tm
introduces
##)-9
classify
##AW
APs
##zone
succinate
##physical
demonstrating
elbow
embossing
cooperating
##EST
##standing
##series
herpesvirus
##GEN
proposes
##536
##UG
##AAGG
##-2-(2
##ire
refluxed
##178
medications
Station
##194
desaturase
opinion
emulation
parsing
lipophilic
MSB
##decoding
exchangers
equiv
visited
##850
pace
boosting
##scope
##td
CONT
Hyper
##-2′-
PDL
##GFP
buck
photographs
neighborhood
microspheres
intrusion
teaches
knit
(2006)
collectors
##405
whom
FT
mapper
##TCAG
##coagul
75°
##uron
Dy
CTLA
##bot
dock
Sw
##271
##CGA
##mul
[0052]
aggregator
Lin
convergent
##ALL
##329
##Ge
##ski
discover
microcapsule
iodo
##-32
##-[(
suspend
##tact
TDP
Architecture
agitator
evaluates
##246
phosphorous
##vel
##cata
Body
touched
##710
shearing
biomolecule
##locking
##heptane
690
##286
rounds
##301
big
##lite
283
##vinylpyrrolidone
LM
##tory
allergic
garbage
opportunities
retry
liquor
##programmed
##plicat
horn
differentially
ankle
##CON
1011
##-[(3
##pur
logo
gathering
##aaac
Elements
##dioxane
ZnO
ALA
##specifically
mAb
##tRNA
##MAP
Fla
XY
##lus
Genet
ACA
cryo
##connection
##496
brevity
evaporative
merging
ver
##mirror
pale
##1336
Action
##gttt
encounter
##ugh
##SEM
2×
##Name
textured
username
##quin
##CCAA
Ultra
conforms
Formulations
reels
Battery
Pattern
pK
##470
##overlapping
tightened
destinations
##nucleic
braided
##fitting
##converted
sparse
1620
##141
##HI
retracting
rewards
Acc
##1083
556
##-417
5-10
bodily
Notably
OK
azide
##oxazol
concentrically
726
assignments
Dia
==
broth
##molding
tea
Pharmacol
MK
diene
poll
##gaag
##331
##tar
germ
##dc
##309
##between
Inhibition
arriving
autoclave
freight
multipole
##-500
−0.6
##common
##encoding
nanostructure
##ligand
##mixed
calc
inefficient
##logy
##TTAA
World
Speed
0.55
##nce
##ATAT
subunits
##wake
##sylate
Transistor
scrambling
anonymiz
genre
sampler
tau
proven
story
##receptor
##valued
LL
debit
1240
pistons
dichroic
##dip
fluor
AAA
titer
Means
renders
1702
Ly
corrects
opto
##CAGT
attenuator
browsing
pharmacokinetic
refrigerated
draft
##291
outlier
Throughout
##Aldrich
##758
SAN
cellulosic
formatting
flue
flake
amongst
IA
wagering
abovementioned
##159
##570
##bacter
##eter
WEBRTC
intelligence
titanate
fraud
alphanumeric
Particular
dialkyl
polyarylene
0&
##aac
##TAT
Vb
1710
##=[
##518
##182
setpoint
##95%
erased
Yb
weekly
gradual
accident
Hep
Synthetic
pertinent
Gateway
##−1,
##[(
##-2,2-
breakage
1406
ACC
lipo
##ette
##gly
##cctc
##PON
##borate
##cgcc
warmed
##emic
bell
recharge
##776
7%
(0.6
Variable
clasp
racemic
braid
##model
torsional
drape
oxidizer
##333
##mel
mil
spikes
encrypting
##QL
##226
govern
motions
##matic
convection
vehicular
alphabet
##332
crushed
oligomeric
spout
##friction
##maleimide
##fluoride
gateways
thoroughly
##314
dichloro
##stick
triethyl
Operations
interleaver
##221
Mu
##=8.5
viewers
butadiene
Collection
continuity
practitioner
unfolded
Modification
fur
##insulating
##ones
flower
##4,6-
2,5-
##drying
FAD
##serving
masked
deploying
Applicant
##-70
##588
##352
##ita
GST
enhancers
##LN
##=−
##Port
##fusion
energies
orthodontic
parabolic
miR
##186
Fu
crossed
RSSI
transcribed
##pc
PPAR
##440
##TGAT
fibroblast
visualized
threonine
##CTGA
##ground
##crease
suturing
corporate
##iga
##gap
##CTAC
##404
##tension
##plant
PPDU
Physiol
##tagged
Ber
pig
propane
##tation
METHOD
##Do
##Leu
##-11-
461
##151
dates
bile
stepper
##galactosidase
staggered
nothing
##ush
swash
##178,
##charging
miles
nitrile
110°
##reproducing
negligible
subspace
swell
##fur
555
##RU
POC
Flu
##dibenzo
##:13
##che
(80
misfold
psig
##methylcellulose
##rist
##CMV
trouble
caregiver
commodity
cytometry
##297
sgl
Short
##platin
Hydrogen
PLA
tracer
##uridine
##430
Tu
initializing
personality
ALD
normalization
##INT
Bur
timeslot
##TGGG
##:12
nuclei
##nan
0.006
phytase
steep
uncompressed
MgCl
##burg
##LYF
maker
##ides
experiences
##atca
uncoated
provisioned
##track
Let
0.025
colony
benzoate
querying
##230,
findings
EO
2700
steer
PSA
##pipe
Update
pentyl
##drive
0.90
##ATAA
(+)
##tatg
transmembrane
Complex
Oxide
##328
prototype
269
Alert
##/15
Alice
compiler
##366
Mw
glide
1214
##tata
##haul
##858
##GCU
##ancy
##uma
assistants
##ream
contributing
##otropic
graded
##gent
(15)
##tgc
EUV
##nin
4−
bandage
OA
wipe
##ulo
##CCGG
scrub
sarcoma
[0054]
furniture
premature
susceptibility
flicker
immunological
silk
DRB
spec
Prop
Food
##oxazole
##vertebral
Er
##431
reflow
AI
Genes
hemo
##031
##lick
Dow
recipients
caches
##251
##AGCA
##cine
##(2,3-
##trimethoxysilane
Streptococcus
necrosis
nevertheless
coincident
creep
oc
basin
fragmentary
glycosyl
##acat
azabicyclo
isotropic
thrombin
##sur
517
lysate
compete
mW
servicing
diastereomers
Development
encoders
##-6-(
compresses
##mount
organizations
##-[4-
##Zr
##wer
##antenna
##small
gal
older
pathological
##675
requester
Ham
notation
gaze
aliquot
depart
oppositely
Start
12%
##morpholine
##.5%,
tar
##PQ
redeem
##azetidin
Curr
waxes
##373
mPa
##height
##294
##217
equi
##blocks
associations
##975
##flight
##itic
##rep
tied
##311
unexpected
932
[0051]
[0055]
ointment
crane
Resistance
valence
Score
##=8.1
Check
fairly
##MeOH
photoconductive
carbohydrates
decomposed
HCMV
##CCG
##287
symptom
##193
##;100
##comprises
clause
##854
corrective
##eller
beef
attenuate
##236
##GTGT
imagery
##oul
Pin
SiH
[0053]
lignin
stepwise
EtOH
##565
trivalent
raceway
Lower
subtraction
BR
motorcycle
lugs
##MEM
beveled
##curing
cow
##ff
##statin
##tree
##supported
CAS
pooled
MPU
##pyridazin
talk
multiphase
augment
motifs
##=8.8
##train
planet
milled
Hy
1016
twelfth
wobble
##rev
radiographic
Game
##glass
##-1000
MEM
conferencing
##eight
##+06
##677
(75
##167
FE
##panel
##NET
##GTGA
SLM
##ala
##-(6-
##FDMA
rabbit
Clinical
PTC
##ride
diagnose
##[2-
##808
##Cys
backcross
Vd
##pel
Attach
aneurysm
bullet
1802
##943,
descending
##)-4-(
##mate
MET
##)&
##person
##tactic
Space
chromosomes
##pyrid
crystallized
##TTCA
BET
##164
##hex
##received
##tological
##906
venting
spontaneous
##]-1
##RAT
Carrier
caliper
maternal
stearic
Analog
cerium
Engineering
German
Firstly
2102
DID
##going
drip
stimuli
checksum
##PAR
725
(2.5
##resist
##;=
olefins
##-6,7-
centimeters
Row
##Node
##strict
##adr
##454
azo
Clause
destruction
nacelle
homozygous
geofence
replenishment
arising
national
##/8
##173
##683
powering
peeled
stoichiometric
hinges
##isotope
##disp
Products
Dispersion
Scientific
toughness
endoscopic
reflectivity
electrophoretic
borate
North
polyphenylene
##nut
listings
##idase
##191
##adjusting
rejected
foaming
PAL
prodrugs
contaminant
##resin
##acg
##SEL
2-5
##Methoxy
GaAs
##LDPE
##ethenyl
probably
rectified
school
superposed
nurse
##rex
918
seeded
PTA
##generator
Cat
cef
imprint
##aria
##936
spiro
Vout
##fall
IMS
catalyze
##nit
tapes
##ovi
##950
amplifies
recurring
Relative
##psi
payments
macrophages
Map
##pentafluoro
BY
aceto
3,5-
1306
##Id
##-90
##caat
7.3
##uent
Temp
reflections
##810
92%
injections
poorly
carb
hits
spans
##GCTG
##flat
##cyte
exaggerated
reputation
melamine
drier
conceal
##mixing
comfortable
##anic
prices
##NHR
531
##carbodiimide
##mission
anodes
gender
exerts
publicly
gradients
329
fund
GF
##borne
##conductor
##321
##409
bismuth
thermistor
genus
Xaa
Silica
antiviral
##phosphoryl
Large
Mice
##958
marketed
mind
ketones
roofing
##acts
##′′′
QAM
sell
intron
flavoring
lumens
3:1
Run
determinations
##preventive
##atcc
##uracil
overlaying
bobbin
unlicensed
##valid
residential
fibrinogen
##[0]
cords
##pull
comments
##EAD
Para
##stroke
##780
ascorbic
GPCR
Features
##CGTT
##258
##SiC
Wall
##302
617
Immun
##PSK
attraction
1.5%
Authentication
attenuating
relieve
mitochondrial
##456
warming
beats
##Eu
##[6-
##505
polyalkylene
streptavidin
##therapy
Crystal
dynamics
Apple
##422
##ception
##ohm
##(2):
##316
6000
Mit
photonic
##267
NOT
##pyridinyl
hereto
##epa
iridium
inoculated
##rus
##exchange
divert
##ku
##702
cAMP
##aze
iteratively
##Sub
paclitaxel
Mouse
bends
stitch
##8]
##finger
##(+)
##EQ
conformation
##berry
##rh
NAS
GAG
##carriers
intranet
agc
conforming
1224
Maximum
something
stimulator
##mu
chewing
##cover
##TGCA
RO
##1199
selling
##247
##944
3-10
##diazepin
##163
##283
##ima
massage
##mag
SQL
734
linkers
##rotation
##globulin
[0057]
concentrating
displacing
epitaxy
latitude
refueling
impermeable
Domain
dietary
##UR
mainframe
MAX
−20°
##phal
formations
Full
##mean
shaded
##actuator
south
fibrin
924
##home
##0&
chalcogenide
##CAGG
Vector
inconsistent
solvates
##fixed
##unk
##512
0.70
##/16
STAT
##heating
##026
##circ
##iti
##EW
[0056]
prescription
DGAT
purging
##334
Peak
oxidase
1601
Strain
NIC
Search
reconfigurable
##ACG
shutdown
LAT
##olytic
Secondary
neutralizing
suspected
FPC
stretchable
unloaded
electroless
plans
aberrations
600°
monomethyl
##methanesulfonyl
restrain
computations
import
Sambrook
##olysis
392
esterification
##GGTA
##768
Specification
Applied
##ipping
##safe
##407
MF
MCP
spectacle
790
annotated
spill
##QP
Range
##406
##physi
##atomic
informed
sinus
hashing
##methylpiperidin
restrained
##cot
experimentation
##338
##860
##1108
##parameter
passageways
970
##803
##his
##TTGA
##5.00
hormones
Assembly
episode
sophisticated
spleen
biotinylated
supercritical
Upper
redistribution
Audio
leaching
##cpu
##fr
GenBank
metered
EB
RES
##world
ARC
timings
##009
unrelated
Rec
##375
##win
suite
CRM
Forming
##096
minerals
femto
378
##panoramic
flexibly
fixtures
multifunctional
##dispersible
##elli
##295
rotations
brew
Wherein
tub
Rot
workpieces
##lop
regenerative
dextran
glutathione
admixture
Life
beacons
##-33
ramped
0.60
##urin
##vector
##+(
##=8.6
##We
##atin
regulates
tenant
##cyanate
##caine
##IQ
fibres
Neu
Illustrative
##lav
##arch
##CMP
aptamer
sTTI
spider
utilis
##strain
iv
##sulfur
topography
Cyclo
1-(4-
##9°
proto
##IgG
grasping
##GaN
##416
Sun
Print
##GGGT
landmark
Char
##ties
linearity
headphone
##born
##cytidine
##casRNA
Recombinant
[0059]
Operating
##-3,6-
robustness
##-34
darkness
##390
##aceae
allocates
##acct
##345
couplers
##+3
##-300
##hybrid
##252
##glut
brass
##728
##ami
possessing
##525
Internal
##pole
##229
Central
Biotechnol
##AND
1122
overcomes
illustratively
[0058]
ischemic
transitional
10:1
##XII
474
##015
Hand
orbit
299
stake
130°
EPDCCH
##185
lac
parsed
labelled
decompress
STAs
glyceryl
##rill
##SIS
EQ
cease
Cho
lacks
20,000
aroma
##ales
flowers
##ball
Gl
aspiration
metrology
vaporiser
sublayer
gratings
##profen
1-(
decoupled
correlates
448
##dynamic
##black
contours
##limus
phthalocyanine
##-31
refine
##loading
##temp
##676
##AQ
heptane
happens
Laboratories
competition
dopamine
flywheel
sterilized
Dry
mediate
lys
compass
cosine
##gtcc
##atc
##+05
CASSL
##ift
##assigned
Vc
##227
(0,
##sealing
##myocardial
277
##hold
##tegra
##774
##rium
erosion
Wis
##guanine
prints
VSS
Ten
##CGU
impinge
##mole
##guan
chitosan
bursts
##319
Rep
##rib
##rat
##AUG
practically
APIs
MBS
##toxin
##enoic
1804
LIF
articulating
calibrating
Structural
bolus
−/−
thermoset
##URE
UMTS
screenshot
baffles
[03
##ophy
##482
0.009
##QI
##sig
##programmable
0.28
##amer
##Th
park
##261
Meth
1103
##985
##CCCT
Can
##SIM
##pn
FO
modal
##965
locker
##folded
emulsifying
turbulence
nonce
certificates
1330
##disc
##249
Mac
##resistive
##(10)
mercapto
##ova
##expressed
income
bold
ph
##phosphino
##TTGG
##962
tramadol
verifies
##/30
permeate
##Cas
Blend
surprisingly
putting
glutamic
##race
LR
standpoint
##425
##version
##mask
##2006/0
passengers
bulky
##rie
minimally
##vapor
752
##leu
[0060]
stowed
mediator
##solv
meso
##=7.8
##EPROM
##]=
##CAAA
##enable
lipase
collisions
##362
1.75
2,000
offload
focuses
infiltration
##415
##017
heavily
stapling
missile
studio
##carbaldehyde
NAD
”)
##scribe
##LB
foils
progresses
adenocarcinoma
bezel
##APP
##tub
##980
##PLA
##xxx
##ively
##itch
supporter
##413
##=7.6
##Man
meshing
##any
##GTGC
##bias
Subsequent
carotid
smoking
##GTTG
##189
dimmer
equalization
displaceable
544
##ame
Profile
##igu
##414
##MW
##short
##ketone
##benzotriazol
##TCTA
##azone
DSL
##methylamino
DCT
FIR
2110
canopy
sweetener
Diode
steerable
(1:1
##organizing
Instruments
attracted
HDAC
##ches
##387
##2.20
##occurring
##extending
##908
Matrix
butt
hexafluoro
aligns
lesion
(0.8
##Block
deforming
CCR
##AGAT
affirmative
permissible
qualitative
##399
##inol
abstraction
##proliferative
invite
##278
##particle
rodent
##erman
##tional
##reading
##gagc
##mercapto
anxiety
1,1
##biotic
##=8.3
inversely
##2′
spheres
##methoxybenzyl
##aki
##705
gta
cohort
adherence
fibrillation
dramatically
sperm
LTBP
##sulphonyl
alanine
##forgery
##344
0.23
##972
aimed
##xml
hex
islands
##obi
##GUA
1.0%
##draw
Particles
rel
##902
lighter
381
shoulders
catheters
##GTC
Quality
accelerating
myeloma
resolving
##cyclohex
##16.1
Well
##508
grey
##282
##043
Feed
##ynyl
1340
##990
Programmable
aiming
##224
Mono
##ison
##New
##326
diffusing
##=7
busy
##169
wounds
##sulfinyl
##benz
##4333
encourage
niobium
##033
##090
##384
SAP
annotations
##FQ
CRL
##fiber
140°
emphasis
1301
##His
##ira
0.48
inboard
##9783
Either
anaerobic
applicability
debt
Terminal
standalone
##cac
##365
narrowband
saccharide
embed
rhythm
1111
##posit
Mini
##cular
##820
ADF
strict
prompted
adjuvants
Via
blanks
tires
980
+2
##×3
##VN
tibia
##abilities
encloses
Clostridium
interfacial
oscillate
##901
##ale
sclera
sonic
##alloy
##317
dicing
DIU
nutrient
##fully
443
##930
publishing
##science
##MIN
##1-6
realization
den
cutters
trifluoro
lose
tamper
##seed
liters
0.98
destroy
13.5
##402
##2′′
relations
##station
##171
Evolution
thiosulfate
irregularities
Shown
promoted
launching
prove
MCS
trapezoidal
##verb
##056
purchases
##021
##onium
wellsite
##reflection
Cyto
##fix
##34000
##laser
microliters
ignore
##765
##698
genomes
##arn
##zy
Des
##indenyl
##troph
[0061]
hydration
imidazolyl
363
kinases
bird
##805
##ivities
Ring
(14)
DF
cre
##−08
0.34
##=6.8
##saving
##visual
GPC
##mide
Gre
##itter
diagnostics
##263
##537
2-(4-
565
DEVICE
Fibre
journey
loyalty
unnecessarily
lectin
cars
476
##lumina
unacceptable
##inner
##CCTC
##talk
bispecific
circulated
1-7
1205
Scan
inactivated
##CAS
##218
warp
##week
##CCGC
##tooth
##Asp
##856
##cil
permutations
lapse
CSP
settling
singly
Subject
rubbing
##how
(20)
nanocrystal
##012
##,4′
##SCH
thienyl
flying
Session
##ttac
##methanesulfonate
##fine
trypsin
subsection
##324
##630
##-150
racks
album
##RAS
Experiment
##mill
##ike
##sulfanylidene
agitating
swept
##omy
##inositol
immunized
##501
deduced
envisaged
742
adaptable
perfectly
TRPM
cta
repressor
5]
Wave
CRT
cent
ascertained
##504
249
##AGGG
clustered
##355
Vcc
##voice
##349
replicate
Home
SLA
favor
##benzenesulfonyl
##dicarboxylic
Fo
##gra
(250
Ingredient
elevating
evaporating
obscuring
Biotechnology
35°
##ISA
effecting
##′(
stalk
##179
##478
subjective
##184
mover
pea
##atgc
##Tri
crossbar
##dimension
##GCCT
Phys
##division
leaks
##289
##inducing
##modal
##161
signing
farm
export
exponential
##GAGC
achievable
centroid
metastatic
profit
##-1(2
DDR
analysed
##497
cytosine
buildup
saves
##585
##511
##INE
maybe
##hexanes
##Equation
ILE
RAS
Pan
adapting
equipments
##527
WR
Har
elastomers
##peptidase
INDUSTRI
resemble
satisfaction
probing
animated
primate
Transaction
Smart
##606
0.42
##vent
orienting
OCF
halt
93%
prompts
cyst
Beta
##ATC
##424
##modulated
##gravity
##basic
##roid
lowermost
##lac
connective
##363
##-5′
709
installer
liposome
##cher
amplicon
deficiencies
neuropathy
assignee
antireflection
##Set
##19598
##oids
nanocrystals
##048
##lith
Change
gyro
5:1
lab
carton
suppliers
EMR
##screw
redirected
Reader
LPS
Cha
15°
##nel
##without
2.5%
DRA
##995
##ava
patella
settle
scribe
DOC
##ADC
##glyceride
detrimental
epoxide
alkoxide
shipped
NMDA
revision
Enhanced
diskette
unbalanced
guidelines
##187
Monitoring
nutrients
##968
leaking
OL
##calc
##463
##374
##CGT
gated
BIOS
##394
prisms
728
##mRNA
##thienyl
quin
superheat
##eeding
##button
##859
##875
##ggtt
##QC
biomarkers
##structured
Order
3.75
flowed
##holder
education
APP
Microbiol
curtain
joystick
mitigation
slack
Segment
pyrazolyl
derivation
stripped
##amb
Master
Chain
subcutaneously
draws
mon
Bal
##quire
SNPs
##carbo
##graft
##sulfide
cams
##DCM
419
pant
argument
##quinazoline
Analytical
[0062]
radiotherapy
##QK
TSV
##257
##-(4-((
1.05
##operated
0.80
##(3)
batches
moments
thiazolyl
495
##594
Rb
635
Opti
##Tyr
informs
##kinase
##028
Security
dangerous
ownership
insight
##sections
##add
mixers
hereinbefore
BLK
SLP
ESP
##/&
##derm
##etch
VLP
880
##ada
259
TiN
##glycolic
hybrids
##ifer
CALL
##onitrile
3-8
##making
##barcoding
methylcellulose
##anger
(0.4
##625
plaster
SiGe
LUN
Seal
##ddd
whereupon
##flops
softening
HL
cyclodextrin
##assert
##Dichloro
cleavable
##produced
##antibody
##259
##hom
##ono
engageable
##509
##(1):
traveled
blanking
##855
654
crops
metabolite
kilo
destined
radiant
isotonic
##-3-(3-
##tax
chromatographed
HDR
hanging
##,3′-
parser
teller
##TCCT
Disk
bandpass
shorten
##ui
secures
##910
0.3%
##MK
##CGCG
##]-1-
##-1-(2-
##469
SK
##892
0.96
BW
transplant
##naphtho
##ien
octa
FOV
1520
2220
seamless
##032
economical
0.36
persist
ordinarily
profiling
victim
Camera
rake
##MN
consisted
copyright
##-3-(4-
evaluations
DMEM
##CSI
vertebra
##quat
##0001
barriers
Series
##logist
##346
killing
brushes
ideally
94%
Format
##(1,3-
##strength
##7-2
##identified
##OFDM
##rec
##diff
regulations
1.20
##371
granulation
iSCSI
locomotion
radiopaque
spectroscopic
##guanidine
External
knitting
trackball
##459
summed
##tgac
quantizer
engineer
cooperatively
Formation
##MAN
EEG
##ometry
##439
##magnet
SCell
##-48
Result
##uar
reused
##500°
##semiconductor
##603
##liter
##(4
##277
##cutaneous
##973
##GATC
illuminator
observable
Injection
intimate
Mixture
##tire
##lead
lieu
neuronal
1:2
##wind
coder
plasticizers
##TNF
##ctaa
4:1
intersections
conveys
##ttat
##dom
##regulating
##gata
##purin
##035
##cate
TDM
der
##KF
##Phe
##coil
##905
interesting
Electronics
##770
dogs
distributes
##382
nucleation
qualities
ripple
sensation
innovation
department
shaken
attachments
priorities
##ophi
##pentane
biphenyl
Sciences
MEA
##aster
SUB
##entry
##AGTA
##return
mountable
quantify
CNS
##974
##flex
##095
cyclobutyl
develops
PTT
Leishmania
Visual
Percent
angularly
Angle
##756
eff
0.010
lobe
##stein
vest
##036
CPS
##778
##IMS
##485
EPS
traverses
##=7.5
embrace
##rach
ug
dwell
thousand
##octane
Spectrum
bulge
proteolytic
pathogenic
##616
phosphonate
wand
Review
tee
##723
##ching
colorants
##TGTT
##eff
attract
pigs
1312
Hold
##ancing
3.00
DRAWING
impose
)-(
Care
Parkinson
anomalies
denatured
selenium
infinite
differentiating
CARRY
electrosurgical
intravascular
Reverse
shop
tall
suppresses
acknowledge
2004/0
compaction
DIS
10000
tartaric
administer
##hir
partners
shader
judge
##acetone
##027
##uv
##ACAA
##viral
vitamins
##tcac
(1.2
crease
frustule
Figure
CFU
multitude
skull
worst
##butyric
##paraben
depot
polyacrylamide
##imate
##spartic
underlined
pinhole
Macro
REM
hint
564
compromised
RNAi
##MIC
##cDNA
289
fi
undercoat
337
##TAAA
##contacting
dig
##generally
##acryloyl
dt
##TCTG
##curve
##CCU
##amount
##GGCT
compressors
sever
Agents
##earth
Docket
families
roaming
##furcation
tagging
transferase
disengagement
polytetrafluoro
##290
##GATT
underground
dipping
neutralization
0.37
Rho
Starting
##(3):
capsid
1810
worth
##pop
precharge
##lium
##MIS
##Flag
abbreviated
##aminocarbonyl
peripherals
Lock
evaporate
##robin
##assa
##100%
##outer
655
irreversible
penicillin
Cycle
Word
Biological
thickener
##610
##516
cgg
##502
scanners
##445
##sulfanyl
Combinations
microchannel
securement
1512
##design
hooking
##fraction
duplication
##fault
##akhr
MALDI
##correlation
##Gene
##CCCC
SFC
0-2
cy
##rust
val
##UGA
##978
HEPES
Reduction
ancillary
behaviour
squeezing
glutamate
ascending
gently
Conductive
thermometer
Bragg
derives
PRB
##phos
liners
alkenylene
##itate
Gold
peroxidase
##mini
##-[3-(
gaskets
nonaqueous
yielded
##ister
##222
VB
##mounting
##complex
##mond
##2008
##337
regulators
##thal
##nar
Plasmid
Providing
aggregating
binaural
reversibly
wrench
sharpening
##784
undergone
1308
Place
##ITO
##self
##Benzyl
##escent
Taq
shortening
##octadecyl
toxins
unlocking
##sync
fasten
##translational
beverages
calibrate
crosslinker
##514
##supporting
collective
##ggtc
distract
dementia
fracturing
submerged
0.53
279
overlie
##vii
##may
weakened
nuclease
##830
separators
upstanding
IgE
##679
##+4
##lution
##022
(−)
##Methods
##FU
##Phos
grind
reviewing
##iff
##CGGC
ACD
scenes
##LAR
Geo
##call
##703
##fn
##25%
##hexene
Remote
[0064]
compositing
irritation
telescope
DSRC
keV
enumerated
813
##gluc
##GCGC
##COOR
elect
mils
##938
dispersible
##compensated
piperidine
till
bottleneck
##ALD
omnidirectional
rectilinear
alkene
organometallic
dsRNA
##ectin
thickening
Torr
collimated
director
915
equalizer
relax
##ucle
planarized
##sulfate
##nitrophenyl
tethered
##lization
100.0
##patient
faulty
##Seq
##aminopropyl
##Pd
##672
conc
##VO
##Sec
ethoxylated
##576
SSL
##AUAU
Ethanol
emanating
Reagent
delegat
##054
heap
##ISP
regenerator
magnetometer
2005/0
##BCMA
##plex
##794
Electron
##845
##aminoethyl
randomized
acrylamide
##bel
hear
##impl
##432
##moving
narrowed
angio
##EGF
##impedance
floc
0.0001
##detector
modeler
ellipse
warehouse
##trus
Mycoplasma
[0063]
dependencies
zigzag
anatomy
EGFR
0.52
##benzaldehyde
calf
alarms
multicarrier
##590
Intel
##delta
##agta
rightward
##ald
dihydroxy
##cluding
pyrimidine
##CAM
roots
−12
##awa
##span
##946
##954
##269
fluorescein
##enriched
Eur
PGC
curl
##524
##Based
Amp
##oin
sediment
mortality
rescue
Template
##hexamethylene
##arin
Fuel
armrest
##chol
(2007)
##426
barley
strictly
multipath
##992
##′=
Seed
incrementally
##671
Site
1116
##methylpyridin
##uri
EPROM
##Ru
475
##670
2600
fen
##CRR
##701
Text
##793
hy
##curr
Fusarium
botulinum
unmanned
Assume
BSS
##904
20.0
consistently
##775
##629
##compatible
##336
harvest
##075
##imp
FACS
##taag
Sk
commutat
##guide
Tool
##CTAT
behave
##063
)−
systematic
##violet
##break
deteriorate
hydrazine
arrest
us
Society
Thickness
celebrity
fossil
quadrupole
serpentine
young
stuck
neo
##997
assists
347
##PER
656
Lee
##673
magnetized
CHF
2440
##points
##acrylonitrile
##pet
spar
Valve
##virtual
(5-
##Hf
HEK
##tsu
##AAGA
##yro
##TGTA
##453
Peripheral
habit
##GATA
temple
moist
Final
##403
1018
bosses
Manufacturing
##:16
1.30
1408
##trifluoroacetate
Assays
##edit
##glycolide
##444
##List
##DDR
##488
Patients
##hydroxypropyl
resisting
##:25
551
(16)
##bonding
Agrobacterium
Membrane
microtiter
orchestrator
pressurization
sterility
##[1,2,4]
AlGaN
variously
radii
trends
logistic
##601
##swellable
succeeding
##stim
##pter
##-10-
quantitatively
##activate
##Cyano
chromatographic
EPO
adaptively
##596
##potential
complexing
empirical
1501
[0066]
capacities
Overall
Vth
##mouse
##fluoromethyl
##704
##yes
##TiO
373
insects
832
##CAAG
##510
##acta
0.38
substitutes
backcrossing
fumarate
5.00
##354
##535
sulfone
##pentan
##stock
##1.25
##character
bears
hema
Hum
implicit
##TQ
##meta
##tics
ampicillin
equidistant
microbubbles
phenomena
geolocation
acetal
mouthpiece
transformations
Charge
##ICE
##oxid
sucked
2.50
pouches
##637
##game
##has
##PCB
##[1]
Forward
COR
MTC
##736
detach
disconnecting
##multiple
##SNR
##HER
Off
##364
positioner
dissipate
magnitudes
decrement
1550
prolong
##053
##)-2-((
##nicotinic
[0065]
follicle
recitation
VIEWS
INDEX
Except
glyco
##eve
′′′
##-4,5-
electrolytes
intravenously
##far
surroundings
logarithmic
##junction
arrived
##446
gasification
623
##motion
##vac
(0.02
tryptophan
##477
stays
##engaging
Testing
##475
Ben
##scarring
insertions
##Attorney
Positive
SEVER
Soybean
discriminating
incubating
sprinkler
Identity
concert
##AAGT
revised
phospholipid
Mod
deoxy
##join
Pol
scFv
##372
Public
consecutively
soy
##naphth
hydrates
##chloromethyl
##varying
microfibers
350°
##327
capacitances
acidified
psoriasis
stencil
miniature
hydrostatic
##ogenesis
0.26
##719
##ACGC
##printed
jointly
##For
zirconia
appeared
SEQUENCE
##agonist
sideband
##oxazolidin
Bob
##ility
##TGCT
1986
Switching
2302
ATC
0.46
##example
adenine
##-55
##AMP
domestic
ornament
##dicyclohexyl
rearranged
stripes
##dimensionally
customary
Label
advertised
##ylidene
odds
IgM
##1.00
##lex
##=9
##GCG
##cyclopenta
cytoplasmic
##player
scar
thigh
##CHF
GLP
##023
##struct
##wash
keratin
##assisted
##finished
##472
##GTCG
##foot
mirroring
##Val
ash
Lewis
silence
strontium
##40°
confinement
Bis
polyhedron
fringe
##cyclopentadienyl
polyvinylidene
##phenylalanine
##KY
clicks
##propynyl
pinning
##589
##iter
##ope
##ectomy
##618
##odi
##sampled
##AATG
summer
##PEN
##982
recommend
##801
carbo
##electron
HVR
484
##823
RG
##guiding
##TTTC
##ubi
##455
contributions
carbonates
##3-4
Importantly
Pseudomonas
[0068]
chicken
emerging
faucet
wholly
(1986)
2,4,6-
touchpad
##CACG
roadway
serviced
supposed
Mal
##(−
##398
##4,000
##dimethylphenyl
##house
##DVR
##ott
diseased
##propyloxy
##eta
##624
agency
##.00%
385
##945
0.27
def
##CNT
##releasing
##MgSO
##measured
lit
1218
##eous
##plan
telepresence
VGB
Earth
##339
concatenated
##034
PVDF
disturbing
##11(8
##499
2017,
Intra
lacing
##error
##cgt
Epi
##acetoxy
bitline
##ifies
##/25
SCN
referencing
##423
##clockwise
risks
##Embodiment
##955
prohibit
nest
##tear
##438
confidential
##vul
0.91
CHLOR
Teflon
Density
attendee
stiffener
Loop
idling
preamplifier
Chen
##CACCA
MBMS
##591
prepreg
PRE
##555
grinder
LDD
754
##includes
##aut
phosphatidyl
Dose
nerves
4-6
##tine
autonomously
topically
##Mw
launched
3-(4-
287
##Device
oligosaccharide
##Luc
NHCH
##EGFP
##714
thyroid
fifty
##norbornene
[0067]
Alpha
composing
covariance
reflectors
enrollment
photocatalyst
##0.25
educational
##OFORM
omit
permutation
3-4
geological
sex
9.1
##ida
##Car
##die
##DAC
##635
##998
THR
arg
##(1−
raises
85°
##Comp
##Rad
Fire
catalyzed
meaningful
##639
##602
Screen
##balancing
stamped
##Part
##567
##clamp
breach
bale
##(4):
Repeat
intense
publish
Obtained
consumes
COMP
##655
##OW
##874
##522
(0.7
##STAT
aims
methylated
546
##/2)
##sterol
polymerizing
##health
vendors
(13
##thickness
##serial
##established
participation
ribozyme
subterranean
tuft
##917
transcriptase
worse
anticancer
##=1.8
restrictor
vast
toll
circumstance
##614
##mapping
infer
1985
SCSI
##AIN
633
flatness
##item
db
##usable
ATR
phr
##0.05
##chamber
7.7
##packet
##×50
synonym
##electrostrictive
APPLICABILITY
Algorithm
[0069]
metallized
macular
dollar
##parts
##eur
Clear
employees
##kt
##ACAC
##Mar
##Benzo
0.29
pn
(0.01
demanded
pyrrolidinyl
##Poly
##837
##×5
privilege
Dev
0.94
##erry
crossover
drained
PCs
positionable
##computing
##018
insertable
clinically
[3
accumulates
predictions
chlorinated
lecithin
yttrium
cryptography
##style
macroscopic
torso
bridged
pursuant
Below
manhole
conformity
##def
pierce
##radio
sutures
Deposition
JIS
1060
men
gluco
phosphates
##612
##-37
CCs
800°
##embl
##Ir
##insoluble
MOSFETs
##ATGC
##279
##587
##057
Values
GAS
##−01
##-2.5
adheres
Pyr
CW
##TSP
phospholipids
##taac
kinetics
antimony
psycho
##Fragment
Steel
entrained
##mimetic
cultivation
Overview
##threaded
##50)
lay
abnormalities
submission
femtocell
1505
heteroarylalkyl
conceptually
pentaerythritol
##804
##chloropyridin
##343
BEST
##formyl
vaporized
##659
unnatural
biomolecules
propionate
##866
0.49
##806
purify
decompose
##itz
##838
##repellent
##465
##performance
initiators
phosphine
triac
##heated
Powder
negotiate
pronounced
sponsor
headlamp
##][2,7]
ischemia
(1984)
##619
##727
backrest
reamer
microchip
cardio
goat
segmenting
triglycerides
classical
HDL
bins
##969
skills
benzoic
386
opt
##×4
azimuthal
compacted
##495
##bodies
357
##similar
##particularly
VMM
polyurethanes
##929
##CELL
picks
WI
[0071]
identities
swipe
olive
##:17
LPC
widened
cytotoxicity
##507
getter
646
##458
transformers
##DET
MMI
##aliphatic
smoothed
10.5
##5-2
##6-1
grows
2020
##idium
##epoxy
##UGCU
microelectro
punching
##491
##086
Strength
atherosclerosis
intranasal
cesium
trimming
##isocyanato
##Non
longitude
##STEP
##lec
Provided
##795
Biophys
blotting
finer
ulcer
(5′
cooperates
##448
lamina
##665
Store
resiliently
##772
mega
brakes
##organism
##517
##-[1,2′]
Louis
pendant
##sulfamoyl
hardmask
##636
biology
riding
##481
##,9,10,11,12,1
groupings
microfiber
parked
##=7.4
capped
##378
##UUA
Toner
##Tr
##ococcus
##nine
merchants
flanking
meshes
Interconnect
##461
castor
##377
##748
##phosphonic
lightly
##cam
leucine
SHA
##colored
##elin
##terminated
##initial
##696
##oxidation
enjoy
procedural
trolley
oxalic
Motor
hemostatic
eds
monochrome
chooses
##TGTC
##Not
(0.00
##752
unselected
##Red
##467
spreader
##lined
Formulae
formamide
ethane
##rob
##ACGG
Calcd
636
Electric
prefer
coupons
INT
##695
488
##058
##715
##electrical
Endo
##473
##lean
##adjacent
##ius
Queue
pollution
requisite
shelves
transversal
Study
epoch
##)-1-(2,6-
controllably
shortcomings
glitch
topoisomerase
##RFID
lime
reasonably
airtight
453
estate
##888
impede
ddd
sprayer
picker
##604
631
APDU
leveling
##TTAC
##544
Same
workstations
AAT
9.3
##succin
##gtgc
##duplex
##reduction
##acceptable
##-7-[(
CMV
antennae
energizing
inadequate
jewelry
kinematic
remarkably
hoop
Therapy
malware
quiescent
confocal
parcel
capital
##435
squared
2800
bra
##fence
##528
finishes
validating
fixes
##CHO
edition
solidification
##926
crimped
3,000
SEP
##scribed
##548
##442
PHA
Band
##ATTT
MRSA
##VOL
##648
##dissolved
Addition
##gamma
Retention
cancelled
dibasic
notably
directivity
##872
##GTGG
VEGFR
##633
0.21
##High
delimiter
reducer
##fluoroethylene
aspheric
297
cookies
##GAAT
##oxygen
bladders
##STR
actor
##alumina
##745
MAb
##876
##tagg
##=7.7
##variant
EPG
blunt
fuselage
implied
leather
##locate
Academic
translocation
##ACAT
9.6
##597
##474
heterocyclo
pager
eyelet
##teen
LYS
diacrylate
aperiodic
gallon
forceps
solute
Useful
Pur
SATT
RAW
subbands
venturi
##807
redirecting
731
##TIC
LMP
abuse
##articular
##mil
adjoin
investigate
Lane
##75%
##dio
##capturing
##latency
PSTN
kD
##441
asphalt
visitor
heretofore
slew
pyramid
specular
piperidinyl
##539
Delay
vents
tiers
Direction
precoding
stray
##TEM
##515
TLR
##996
HI
##912
Positioning
##3.80
Park
worked
##tetrazol
##BSS
CAN
contracted
##994
##OLED
aorta
pyridinyl
dispose
cigarette
##DQ
slant
butter
##absorbent
Spin
Inner
826
##433
challenging
TRAIL
##polypeptide
##sealed
Hol
premix
SDN
withdrawing
##368
dough
carboxamide
Mechanical
RACH
finder
GPRS
repaired
##aagc
sure
##2%)
##436
##support
blister
transitioning
##writing
SMA
1.11
interrupts
Exon
reconfigure
##REQ
##FLAG
detergents
##ENG
##aker
##continuous
Boolean
knuckle
subtilis
Vertical
##vest
0.63
CSS
catalytically
kick
##kill
##019
isoform
##533
hoc
ul
Wang
##DRV
##599
bitrate
##lens
Sequences
flushed
##methylethyl
##five
6.9
BHA
CNTs
##configuration
##070
##queue
##712
Continuation
intuitive
metastasis
reciprocate
voucher
##CAAAG
1980
confusion
##466
##LAS
halftone
danger
eyepiece
##nitroso
airborne
oleate
##VY
granule
Whereas
phenylalanine
##holding
ferment
HRMS
##042
menus
WN
BMP
diagonally
COOH
##micron
##TCGA
1203
##modules
Count
##arabin
overcoat
##agent
##632
excite
##ogy
395
##cker
Tube
um
##cort
joins
##OAc
cgc
kW
incapable
##igen
##ARP
##iated
EMC
Advantageous
##route
bush
books
lifter
biologic
indentations
Aqueous
Potassium
Subscriber
degassed
heuristic
##/40
807
eyeball
##rop
=2
thinned
BNA
Stability
1.45
##IY
##342
CCEs
+++
##397
breakpoint
prep
owners
reconfigured
2018
slopes
Complete
deter
traversed
GPa
Box
##treating
polish
retarder
modems
##SRAM
dam
Date
traps
precede
##802
##strand
##AST
##phosphonate
anemia
handshake
##propanoic
Cloud
##697
asked
##hot
roster
##716
−0.7
##monomer
##sulfonium
slanted
responsiveness
##SSD
##361
bench
explanations
watching
1401
##:18
stereoisomers
businesses
trains
jar
##vinylidene
485
fractures
1.65
cooperative
STYLE
Viscosity
dendritic
questionnaire
##guanosine
Business
macromolecule
cetyl
VOB
##DPS
flattening
whitening
##tetrafluoro
originate
hunt
##INTER
distillate
##lap
Option
outage
539
##porous
occupying
##392
tendon
msec
1350
##RIE
contactless
clicked
expires
Stream
##487
erasure
tetracycline
uterine
Purified
Construction
Front
infarction
Oligonucleotide
IPA
##uli
##CGGA
##angiogenic
1-20
Animal
laying
##LTF
##plug
802.1
Problems
##2004
##Chrom
Meta
English
masses
##483
##GAAA
Play
##ensis
##771
##ERS
##412
coater
##hydroxyl
##matching
##668
##polymers
Zone
Double
Member
[0070]
[0073]
dehydrated
hamster
impregnation
Housing
Sheet
##ude
Tex
announcement
CaCl
##Read
12.0
##sky
STB
##TRP
prohibited
regional
platelets
FG
fluorophore
##059
plush
##azobis
##2010/0
planting
6-10
##0-100%
2.25
0.97
codewords
DCCH
hydroxyethyl
2-8
deviates
##GUC
##706
##chin
##pyrano
##wired
##kine
##oxan
prompting
customize
##=0.5
809
Known
Salmonella
[0072]
[0075]
determinant
proposal
Copper
microporous
##upon
08/
declaration
railcar
baked
Cover
##575
teacher
##335
detaching
powertrain
##soft
Batch
572
##=8.7
multilayered
##ERT
cps
##932
TOF
0-1
##dodecyl
Corn
maximized
##′-(
demodulate
##move
9.4
clot
##antigen
##725
##modulation
##adv
##production
##tocotrienol
Commun
attributable
excimer
explosion
proprietor
recurrence
surrogate
architectural
mucus
Version
disengaging
cleat
favorably
zipper
gNB
encapsulate
##PSMA
TAL
##maker
##084
##584
planarizing
reviewed
9.8
##559
##498
Setting
disrupted
##922
awarded
oxime
multipliers
intercepted
2017
##788
Genetics
pat
ATA
soldered
compose
looped
##253
##aq
nets
conducts
hemi
645
##filling
hexagon
Parameter
sweet
##parent
##increasing
cumbersome
louver
seizure
Southern
(2.0
ohms
##051
##reverse
countries
907
instantiated
##RES
##ISO
grants
hybridizing
Hard
divinyl
routinely
8000
##gacc
polymerisation
##072
emulsifiers
LID
##0.35
flare
##1−
##UU
##2012
##TCCTG
bay
quest
1.15
0.39
##BER
##globin
bioabsorbable
Automatic
##adhering
Biochemistry
edema
1920
immunogenicity
##still
intentionally
##055
Mark
##-4-(3-
##System
ranks
starches
##643
##triazolo
hinder
736
##681
frit
##graphic
##wear
COS
timeline
formal
##scattering
markedly
FU
##gaagg
##464
##AACA
affiliate
anomalous
interferometric
recognizable
sloping
serotype
translator
scrambled
pyrazinyl
Diego
##capacitor
##distance
breadth
##ville
##fourth
Leg
haze
worksheet
##WI
skeletal
##added
762
##URL
interpreter
deg
##GGGA
pleat
waypoint
##825
##thione
##TTCG
sera
anesthetic
##integrated
populate
NY
##966
repairing
##773
anonymous
experiencing
plasmon
trajectories
uncertainty
algae
Detector
whatever
subdivided
##833
##eric
##recorded
##mia
grill
##767
##571
PK
662
landmarks
ser
infect
preservative
##gtca
##phosphonium
your
shoes
##lacing
East
suffers
##ASE
aldehydes
Changes
##fluorene
##TING
distinctive
SUP
##789
MAS
644
MCU
##956
trimethylol
##627
Bloom
lanthanide
PRACH
##977
##especially
Coding
##5.0%
ICP
agitated
482
##CAAGC
CMC
FCC
##linker
carbamoyl
##593
destroyed
##galacto
extensively
##road
##656
derivatized
##[1-
478
##PVD
##km
##ATGA
picking
Boc
hydraulically
##-50%
Match
Hetero
##digit
subscribe
##PBMC
lands
frontal
accession
fuser
##ratio
##alkoxysilane
##activating
Oxygen
Surfactant
Vitamin
Kalman
##compression
bioavailability
##443
##stearate
##phenylamino
##529
##capacity
##CCACC
##inder
1704
##whether
##limited
##routing
##EEPROM
FRT
0.62
inspect
##put
Touch
##flux
Get
##angling
LQ
dampers
polyamides
##gttc
Applicants
##479
##xylene
##sink
##mold
##984
Force
##401
HSS
##925
##CONR
radiate
##2013
vm
Roll
ATG
##dehydr
GAA
##dioxaborolan
[0076]
women
dehydration
inhalant
Claim
gentle
marketplace
harder
hem
##Ethyl
##ASICs
##operable
namespace
##latch
impacts
##TTAT
##824
0.88
DAG
##dimethylsiloxane
##shifted
##785
##2-[(
micelles
IBR
##5,6-
##638
stems
statuses
##YT
##peptides
##difluorophenyl
benzoyl
0.68
##839
adaptations
##572
PLD
##dithio
##homo
[0074]
aggressive
CXCR
##propanoate
indolyl
##827
##961
##759
Linear
Every
##luc
##Inter
realistic
microcode
744
OE
##Im
##azepam
##ICAL
##848
1:10
keying
##vic
##Min
Bot
##ANT
parents
chloroplast
##BV
##CGAG
SAW
ignit
##GTAA
plastically
638
restricts
2×10
##PAN
strokes
##thread
conclude
##641
##diethylamino
##Tech
5-7
orient
##711
##rative
##:23
##butyrate
582
##SSL
discontinu
##dry
##solution
##598
[0079]
muscular
fair
polylactic
##alignment
##req
momentum
Waters
91%
crest
beaker
##dent
Used
diverter
##ota
TYR
setter
bat
##oxoethyl
##CCTT
hyperlink
Opening
##573
##SLS
##CW
##TGCTG
OTP
[2]
preload
Topic
##PLL
##733
##ACS
##rest
Aldrich
demultiplexer
388
##lingual
664
##044
Industry
REMARK
delamination
osmotic
wheelchair
germination
WITH
semiconducting
dichloride
downloads
##GGTT
circulate
##066
Flex
spectrophotomet
LAG
##succinate
##claim
QR
PCU
##037
(#
0.31
##cgtg
studs
Dual
identically
##ONE
muco
9.2
##trap
##657
##crossing
##phr
##615
discriminate
impair
punctured
ASA
##dh
SPD
retractor
ammunition
birefringence
extrudate
injuries
surplus
noisy
Shift
Isolation
losing
intermetallic
Networks
metabolites
##GGAG
0.67
##inium
##burn
OM
##15%
handpiece
##arylene
##341
arylene
dpi
##crack
##UAA
##arg
##nonyl
##oper
##filtered
DMD
rocking
##BMY
##ZnO
##Dy
experimentally
Dai
traditionally
1902
timepiece
##592
##tance
Natural
DRP
thumbnails
1430
organize
Increasing
exciting
lupus
subscribing
shackle
silent
##carbonitrile
deduplication
Scale
gasses
unbound
##HTML
tolerated
1506
##alis
##rings
obstacles
##genous
correlations
alkylation
tetramethyl
##5000
##label
##=7.0
ineffective
##722
enhancements
sharer
##pyrimidinyl
crypto
##356
packer
Difference
Discussion
brittle
certification
ellipsoid
industries
influencing
liquefied
perfume
refrigerating
HGPR
RTP
clotting
Clone
##significant
##AAAGA
##AACTG
##azido
asymmetrical
enforcer
changeable
##FK
decompressed
72°
##cence
##opt
##PORT
nanostructured
accelerometers
##oidal
##converter
##serine
restarted
##569
clocked
##gatc
Net
##acy
##zole
EDC
Characteristics
821
##062
URLs
Rel
##yno
inappropriate
##40%
##428
7.25
improper
CAT
Candida
[0077]
amphoteric
pancreas
polysorbate
pyrrolyl
ortholog
enforcement
parasite
acetylene
arguments
quota
##cyan
##)-1-(4-
##tier
dictated
339
undoped
0.015
##cleaning
relays
piperazinyl
##074
Signals
−1.0
rounding
LLC
##468
somatic
indole
chipset
2566
##937
laminar
sputter
GUID
automobiles
##images
##AGCG
enlarge
##CAGAA
##gated
##ould
##GATG
throw
Appropriate
discomfort
military
oxalate
invented
headache
spurious
Conversion
heteroaromatic
skipped
laminates
##GSM
##neutral
##three
staples
GCC
##isolated
aspirated
abort
interlaced
952
Units
Standards
cantilevered
trying
1.33
gearset
##434
##379
##azol
##shifting
adhesiveness
Driver
Gap
incompatible
##accept
2104
diminish
##607
##884
15.0
##395
trainer
anesthesia
Edge
##Control
Additive
homogeneity
illuminance
incubator
legitimate
dewatering
Mbps
##PTS
##Prep
##nuclear
##rotating
interrupting
repellent
1211
1640
##489
adopting
##:40
##870
motorized
##385
##557
PDI
925
##353
##790
computationally
1820
##corr
##http
##979
lactone
##989
##acil
CIR
failing
ultimate
stereoisomer
##2+
intraperitoneal
##casPN
compilation
deviating
dextrose
fiducial
simplification
survive
Nucleotide
delineate
##crystallization
streamed
##[3-(
0.47
YUV
##fly
##sofar
topics
##GaAs
shorting
##864
##TOF
##filtration
##-2(3
anions
prong
3500
1,6-
##[(2-
tuberculosis
##VH
Pure
CUR
authorize
##PRE
##YR
##ished
regimens
Opin
−20
##uate
##896
##pil
##hem
rational
##TCTT
##LOC
##hepta
##674
reinforce
##667
TFE
obviate
1015
horizon
Antenna
glucagon
cellulase
##Met
##ttttg
04
50,000
##titanium
##etting
##886
##atum
expenses
fever
##internal
##ION
elementary
Plants
loosely
##543
deficient
SCID
anhydrides
topmost
735
##566
##AAAA
terpolymer
harm
disadvantageous
Ox
99.9
##iron
##[(3
##graphy
##885
1222
1118
##tatc
##,6,8,9-
##sirolimus
diluting
lanthanum
refining
EMBO
suitability
##Process
##represented
##along
planner
##siRNA
##comb
##particles
mixes
##tide
polymorphism
undercut
pyrrolidone
##motive
##salt
GRE
##451
proline
##647
##UCU
##tetrahydrofuran
estrogen
brick
macroblocks
##691
(17)
pipelines
##AGGT
Fischer
caught
hygiene
furnish
vocal
##526
favorite
##682
##684
deviate
##sealable
##mustine
##Mut
##SION
##038
0.92
##post
##cia
1440
7.20
clutches
##ADD
##rosis
ionized
#3
##TCTC
AFM
TAC
##Thr
##uo
hide
##476
PFET
harmonics
##lut
ISA
Above
Library
bacteriophage
BASF
luer
Clock
anything
VOBU
##914
fiberglass
(18)
##513
##software
anchorage
overdrive
##=6.6
##igh
##cggc
##hereafter
1.42
reconstructing
dimple
robots
##azin
##Low
##Line
##TCCAG
seeding
##749
quinone
##methoxyethyl
##fluoropyridin
baseplate
Parameters
##]-6-
-10
Ear
##sea
##BSA
##427
##template
Publishing
RESEARCH
Studies
ameliorate
naked
dissimilar
spokes
Self
Ethylene
##=7.2
/2
##providing
##Group
desk
##ital
##polycondensation
##thick
##isomer
##cert
##iser
Equations
682
VHT
dosed
0.64
Lac
##phthalate
##553
##PLD
##chemiluminescent
Minimum
correlator
extensible
shredding
explore
neopentyl
crankcase
scalp
##styryl
TRI
oxazolyl
##volt
TMR
TU
##Characterization
##aid
##076
##688
Normally
tolerant
##447
##etching
actuates
ionizing
##rio
##579
7.50
##ATP
##490
triphenyl
##nitride
1.10
##seal
##351
##=7.3
changeover
##TCTTC
##CAAC
##542
##itting
passively
##-4)
lots
##532
##10°
##EY
##bipyrazinyl
INFORMATION
indefinite
vault
hotspot
nucleophilic
##fucose
mTOR
Gbps
microseconds
hypervariable
biosynthesis
##oic
Select
##PRIORITY
##SET
##ATG
lumped
implicitly
##fat
##TURE
##bone
dissipated
##)-1,3-
##-2(1
468
MUX
##AAV
##versa
##calculated
decrypting
heme
##369
CAR
distinction
neighbors
append
##task
##815
transcripts
elapses
America
##tune
##7.5%
UU
##4,4′-
##zer
##GET
[0081]
##381
Motion
##oxin
hotel
##VDD
##uter
dishes
SID
##417
##-5,6-
##calcium
##bromide
km
commanded
Near
quantifying
##903
##click
##valve
##leaf
pneumoniae
deletes
1.02
nanofiber
##709
##AGAAG
##CTCT
injectors
solves
isotype
##RX
##amo
##GSG
##cep
##TGGC
##654
##′)—
##757
##symmetric
cycloaliphatic
##SRP
##GGCCA
grass
##capsul
Pipe
##631
(0.05
##oxal
842
spend
##17)
soot
Route
##ficiency
PAN
##methicone
Obviously
Peltier
telomere
wrinkle
Indicator
##AAAAA
fundus
borderless
peelable
##pyranyl
##724
##963
replenishing
−0.8
CTG
dampening
butanol
##Preparation
##collectively
##taking
##883
concluded
##796
strengthening
##endo
converged
lysates
##935
MIP
counteract
typing
##onyl
##581
##Bis
1.35
##383
##glyco
eggs
NaH
0.43
marginal
GCG
proteases
1.24
672
##melt
394
polymorph
##744
##ficial
##652
##534
##LUT
Automated
quotient
utensil
inflating
##)-4-((
secretory
##rub
##.1.0]
##bacteria
wedges
perturbation
##071
##741
grafted
silic
##734
1-9
##polymerizable
subregion
##835
##[4,5-
##452
sleeping
CAP
Wnt
##ctcct
751
##75°
Negative
VOD
lungs
##923
docetaxel
(10%
canine
integrates
triangles
1-12
##COM
##AACG
Gradient
Plastic
##RHPHFPTR
##triethoxysilane
STATEMENT
simplifies
terephthalic
Brown
Customer
lethal
misaligned
capsular
polarities
##CCTA
##correction
##reduced
##zen
inserter
Annu
Loss
##097
##iet
Ester
##-3,5-
##2.00
##chrome
discarding
##fail
##TLS
1′-
##1,1,
inactivation
##door
##ITY
##Spec
herbicides
##osi
##dibromo
gcg
##Media
micrograph
dc
colloid
##6.25
##1-8
Uni
Wire
##thiourea
##progesterone
[0080]
dishwasher
urinary
ligase
baby
triangulation
Fusion
Pump
contone
NW
sidewalk
cue
Spray
##pox
##aro
##-[(4-
##precipitation
synonymous
##347
##glucan
stearyl
##563
War
0.016
possessed
qubit
checker
sits
11.5
Phenyl
TBF
ErbB
##full
##phenylthio
1.55
##+01
uploading
##828
##692
spores
##628
daisy
Pluronic
concomitant
splash
DHCP
epidermal
RNase
superficial
##951
CPRI
distraction
Publishe
isoxazolyl
hGH
##359
ITS
Transformation
prioritized
##refresh
##discussed
##patent
##stand
deviated
flexing
pho
IOM
##861
TSA
##1/2
##cock
innermost
fluoropolymer
##707
##void
##Sch
##865
negotiation
5-6
##olol
471
##tosis
discern
ARM
##TFA
##862
privileges
##964
427
triazole
##glucosidase
Adhesive
Consumer
glazing
undertaken
pacemaker
forearm
492
##991
ELP
vibrational
##GGCG
reveals
160°
##decoder
##vastatin
##fitted
##882
566
##669
##push
micrometer
##nucleotides
OFDMA
##957
##KEY
med
encounters
##UGUU
Vdd
builder
##891
##ellar
useable
SSR
##pentenyl
##itude
##939
##554
##thymidine
Continuous
pliable
scalar
Hardware
omega
colitis
monohydrate
histone
popularity
##437
##phan
betaine
tapering
##Internet
##HTTP
##UUG
##792
##0.75
9%
bitplane
##matched
1530
crosslink
monthly
##CID
Person
14.0
1260
Pixel
6-8
PHE
wi
1.01
##ARM
##thus
1.90
##CGTC
##=12
multichannel
##595
##726
TTC
##Up
##-((2
Gro
EMG
##-1,3,2-
Faraday
[0078]
[0083]
queried
##ferrocene
mower
ultrafine
recruitment
##issue
##Dispers
consultation
Extraction
##gro
ribosome
Graph
neoplasms
vote
Cooling
##NIT
##737
Height
##-(8
herewith
##oscope
##delay
##4-[(
1.48
Daltons
##urt
##zol
##971
approx
+3
borders
flasks
##SEN
extinguish
consult
hoist
consequences
KCl
hemoglobin
##-10%
##CUU
##arian
compensates
##755
##099
preferential
[0082]
dermatitis
gusset
methotrexate
potentiometer
renewable
retinopathy
optimis
benign
conferring
uncured
mailbox
frustules
lips
##(((
hall
ontology
##VID
supernatants
##constant
##transmissive
##fluorobenzyl
##064
##IDE
CTL
Stop
IU
3100
##melting
trucks
##545
deforms
Pass
comparators
##041
##Mode
orbital
##=7.1
##succinimidyl
chopped
excised
thaliana
Variant
Dosage
hemisphere
Shore
Genome
##Hexane
##ureido
triethanolamine
Cellular
##993
##gaaga
##879
Mus
##immuno
##isopropoxy
LBA
##_001
emphasized
##Pep
swirler
##primary
##ANCE
oilfield
sash
rabbits
##naphthyridine
him
1508
backwards
simplifying
LDL
sac
enforce
Along
nonmagnetic
##star
designations
##]-5-
##562
7.40
pyrazolo
##393
pharmacy
chilled
pills
trimmed
syngas
Described
edible
Periodic
##ETM
##=2.4
Priority
verbal
##QT
##GGAGA
##ordinate
“2”
##PIC
repositioning
organizational
##046
1984
##provided
##blue
##aph
##832
reed
##941
inductively
##GAAGA
##814
##CAGGC
alerting
leaflet
oxygenated
lotion
PFA
amido
Diff
##871
##817
519
ads
##IIIc
##pril
backed
##779
##sulfonamido
Introduction
chronological
percussion
resonating
scalability
rhodium
1450
hydrodynamic
electromotive
##diisopropyl
##buffer
##928
##YAG
1394
##cylindrical
##registration
xy
##4+
eo
##484
##ulus
##aba
##586
##YP
##916
##462
backflow
obviously
tick
##acetylamino
VCC
monkey
principally
disturbances
##FG
##2014
##cinna
##Byte
2210
flowpath
HSP
##LIC
fog
degradable
gall
browse
##lab
valine
##linolenic
astigmatism
epidermis
excursion
garage
multiplies
puncturing
zebrafish
Broadcast
cooked
ventilator
Curve
birth
modality
litter
##449
##Edit
NFET
##(7)
KHz
##fluoren
UHF
##718
##aya
morpholinyl
sail
callback
Biotech
shingles
scaffolds
1124
##747
plateau
##493
mats
##iph
protons
1720
##DEL
##zz
##competent
DES
##8,000
##981
##switching
2-10
##umab
##061
##ATM
##ethoxymethyl
926
##ji
##739
##methylsulfonyl
##754
PSR
Org
##aking
##367
##99%
##porphyrin
Mechanism
Removal
alkyd
exothermic
traversal
volatility
monocytes
plugging
reproducible
LFSR
bivalent
##;0.001
##ophor
chin
backpack
1910
##Chlorophenyl
##658
wraps
##request
##repeat
##cresol
##ovirus
NCC
fragmented
##idone
##=1.5
traveler
##8%)
##846
##783
##ody
transactional
##077
locates
##863
##tec
vari
sigma
##keto
##LSI
568
##Hex
##SON
circulator
##PCS
fifteen
Statistical
chromophore
hydroperoxide
toothbrush
HMGB
Receiver
Linux
Wavelength
variably
Account
Balance
coordinating
coenzyme
##olefins
##acryl
Needle
TLB
dash
diols
cP
##capacitance
##changing
##adjusted
2310
noun
##implant
JTAG
interpreting
GIC
##best
##60%
##GGTG
PTL
scraping
centimeter
Feature
(0.03
##Promega
##547
##2011/0
764
##ATCG
##791
prongs
glow
2410
##halogen
shed
##infected
##CCGCC
instability
890
astragal
migrating
osteoporosis
pictorial
invoking
nematic
xanthan
Protection
decade
stair
##lyzed
##glycan
##897
##option
consultant
399
##laid
##propelled
##Select
##come
##groove
XX
Processes
leftward
##handed
mates
##047
Lot
##oti
Mount
DTT
XI
##trimethylphenyl
TGT
##rov
##ibly
0.78
##plus
##396
enantiomer
##zyme
Arm
slats
##769
##EAE
Package
austenite
collimating
sanitary
HDPE
Invest
failover
softer
##watt
magnetron
lure
relocation
##enhanced
##measuring
##prepared
##GTTA
##temporal
##Micro
##ulli
##biological
LNA
##genesis
##Image
##UTRA
##fluor
lend
adhesively
##diagrammatically
glued
##927
##952
##ATAG
polymethyl
##rule
Eye
##traumatic
##CGCC
1606
students
##;0.01
##CDRs
##869
##357
Signature
monetary
endotracheal
Accept
457
##2005
dilation
nitr
447
=−
sucking
PIT
gelling
arresting
##Operation
##uric
asparagine
igniter
4-5
relayed
1070
##ORF
##dienyl
##781
##isco
purchaser
##liqu
##trityl
##CTAA
692
##rack
MPS
Tetra
852
##531
phy
Het
##tuple
##NTR
##039
tempo
##ssoc
##ugg
##isoquinoline
sequencer
Google
calcined
synthetase
phenotypic
reconstitution
straightforward
dilutions
sonication
##DSC
biaxially
##tilt
##imi
88%
UTR
##saturated
chamfered
##bank
##leucine
##645
##457
##POS
##577
corrosive
CSR
##689
##triazole
pitches
##826
##OCF
##80%
0.56
##referenced
##wk
##798
##834
authenticity
borohydride
fructose
starvation
Ideally
##rheological
peanut
Implant
Diagnostic
encircle
##cactg
carbene
preservation
Lead
##spaced
Gar
About
##lem
##TCGC
dipropylene
Rhod
sky
FVIII
##TCTGG
sulphur
##729
##category
narrowing
##045
She
##FFF
Thin
quench
Modifications
recombinantly
stapler
##-5-(4-
radiofrequency
##693
Hot
0.125
##large
##lift
WF
Player
refract
regenerate
Fn
641
831
##scramble
##TAGT
##852
##miscible
APN
[0085]
polyadenylation
sepsis
solubilizing
probable
Downlink
PCM
surely
##661
caul
##branch
##chondr
mJ
Measurements
##Sulfo
##ECU
simplest
reproducibility
CTC
SDF
##stained
##Count
phoneme
##MUL
indent
##inorganic
burned
##enzyme
0.41
unusual
##MX
##1-5
cues
0.012
2×2
mission
##-221
condense
##efficient
Glyco
##919
Die
##hexanediol
##hotolithographic
confluence
structuring
septic
climate
Letters
##717
sulfa
Mold
##959
SSID
##writer
383
canonical
##ACU
Stem
##049
##PMMA
CID
dibutyl
PUFA
1.44
##balance
violet
834
##synthetic
##result
##sometimes
Vectors
alkylated
##although
mica
377
##PRT
naphtha
##collecting
##+03
seeking
splines
##—[(
underwater
##wr
##aim
dispersants
Previous
cortical
ergonomic
Entity
hemispherical
banknote
eyewear
EST
825
##aAf
biogenic
SIS
ClO
detents
##BW
##AGCAG
##namely
jumper
VREF
ADD
##dicated
winglet
pUC
pests
Secure
clauses
PPV
millions
backoff
##cont
Five
##pentene
Polymers
738
expel
##521
alters
Containing
##690
1.22
canceling
##895
Corresponding
##ridge
keyed
fees
Approximately
deleterious
Genomic
HIGH
Scanning
Board
diametrically
disinfecting
subscript
sealingly
consolidated
sticking
##CLL
##−03
delimited
Dye
PVP
EPC
pretreated
orthogonally
##inhibiting
##running
mathematically
##551
##consisting
preprocessing
##corrected
##VIS
bristle
activators
polymorphisms
##secure
Mach
phosphorylated
##prol
developmental
insulate
##(1+
catching
alkylaryl
0.050
11.0
##915
##6,000
Distribution
Significant
biomedical
prognosis
chiller
naming
bilateral
chlorite
rewritable
##Pharmacia
weakness
##.0×10
391
deny
striker
mosaic
Recording
##613
Perform
##Quant
Pain
##limit
emboli
CAG
wallet
atomizing
##threonine
##nickel
##population
##capture
grasped
supplements
##-1,2,3,4-
##[2-(2-
##CUC
EDA
##ograph
##offset
plow
651
##]+
alkanoyl
tocopherol
##ABS
Effective
isoforms
impacting
##[2-(
retrofit
##[1,3]
pic
##GAAAA
##878
574
predicate
Find
Amplification
Fifth
Industrial
Syndrome
albicans
buccal
epithelium
qualification
allocator
Nitrogen
nipple
##)-3,4,5,6-
MGAT
wrapper
photosensor
ROMP
1025
##GPG
##2009
##conjugate
##988
##ordered
2304
##First
##Vo
wirebond
##premise
##designated
##ELL
##=5.0
##ASA
Probes
##decan
##biased
##User
648
##grained
##super
##811
##089
##388
1.06
##924
##609
##tcaaa
##GLP
recursive
anodic
CNN
recruit
alkylsulfonyl
pharmaco
Ausubel
Tensile
mandatory
concavo
ovary
verifier
grammar
##quinoxalin
Voice
dipped
widespread
VFB
tapers
sharpness
slowing
draining
noticeable
shortcut
913
refracting
expectation
homopolymers
##642
2402
Pharm
NTP
documentation
7.22
##germanium
##lapse
Outer
Solutions
##1,000
##3-[(
0.023
##deposited
7.35
dealing
sealable
##means
DAP
fil
349
##probe
(19)
Virol
##icle
queued
PAR
Schedule
arabinose
carburetor
outrigger
xylitol
Aluminum
fluctuate
trachea
Chapter
##[3.2.1]
Activation
neg
##crystallographic
##Merck
Interaction
netlist
##-3,3′-
fluoroalkyl
##organosiloxane
Bond
brushless
smoothness
pouring
##626
Definitions
fetched
##PLP
##713
##wireless
##538
exerting
TDMA
##tein
##EAR
##update
##079
Lens
30,000
##volving
Serum
##format
Tw
1.03
formulating
emulsifier
##include
06
486
##spective
7.05
##411
##thoracic
[0084]
triplicate
Triton
##urate
encompassing
##lary
1314
7.24
0.001%
necessitate
fade
379
##799
##GAAAG
conductively
##ctac
TEA
##double
##addition
##glucose
##audio
normalizing
9.7
aliquots
##profile
##mplified
##CGGT
##069
##065
monkeys
##=9.0
##info
workability
##aware
electromagnets
butoxy
conserve
contracts
2.16
##699
##imid
##fertility
landscape
issuance
heterodimer
retroviral
JavaScript
combustible
Diameter
Calcium
imide
devoid
(0.25
##elements
Differential
nanoscale
swap
##esterification
PXE
alongside
##6,7,8,9-
##-222
##CACAG
pathology
pha
##ifi
##dihydropyridin
##glycidyl
##taga
##acetonitrile
##complementary
SDU
##+04
##groups
Enable
##873
360°
2.40
##851
withdraw
sit
violations
##imethylacetamide
pencil
##cyclopentane
##983
##Offset
##DBMS
##thrin
##cache
##RTS
##622
##hit
[0088]
abscissa
electrified
inconvenience
maximizing
##thieno
##dithiocarbamate
blob
Calculation
sewer
disassembled
roughened
fidelity
straw
Cost
##078
PNAS
##ffer
Ball
knowing
##+5
CDU
##nodes
explains
Vitro
Wt
##zinc
##wet
##clad
##646
ubiquitin
Very
Flav
##butylphenyl
##-212
Take
##AGAA
##sensitizer
freezer
ETA
imidazo
1.28
931
##uUf
Oral
##QW
ATO
##742
##34+
##762
558
##CCATC
##561
1403
##oxazin
Inhibitors
Kernel
Policy
cavitation
impregnating
prominent
suffice
operability
dilator
galactose
Interval
aminoalkyl
Genetic
hairpin
deactivating
Record
photocurable
specialty
benzimidazole
##Europe
HPMC
##EDTA
Pos
RMC
Mel
hydrophobicity
##MRI
poses
deoxyribo
UK
##icosa
##thiazepin
##GCACC
##acoustic
##molecule
##Item
##message
polyacrylate
##radiation
weaker
##AGGA
ln
Probe
TMS
hydrated
##wishing
1540
1.40
##ACGT
##wrap
##7.17
propoxy
surveying
HRG
##search
##564
crucial
homogenized
martensite
miniaturization
prioritization
vocabulary
pronunciation
##Cont
thirteenth
Stock
ferrous
##ucleating
##Detect
Variations
0.73
##sale
##552
hindered
##948
dew
##523
inherited
##isocyanate
##753
sorption
##Output
##plasma
ablat
##GPU
##azocin
prefetch
0.4%
##XML
Soft
##Info
##easy
1115
descend
veins
##092
##lau
##731
##-(2-(
##fire
##419
Aspect
VOC
Separation
desiccant
endothermic
##Qiagen
(1983)
Graphics
concavity
Shared
immunotherapy
##763
affixing
##QQG
##GRP
severely
vaporization
##ologies
UDD
degrades
921
##Multi
##IEEE
disrupting
##methoxymethyl
initialize
piperazine
942
trader
##029
##morphic
MGC
COOR
cytoplasm
flooring
Arch
gained
##REA
##azi
DPP
blender
transcrib
handoff
enroll
0.61
##apoptotic
Conjugate
medicinal
perovskite
Width
cortex
Nanobodies
##iminodiacet
roughening
bitlines
recrystallized
##nex
subtype
Pulse
SIB
effectuate
Enter
KL
acne
934
songs
7.45
1983
gage
3200
836
extinguisher
16%
[3]
##CRT
adenosine
##087
##-96
##649
FAS
737
DEP
##492
##-(2′-
1412
Round
##amble
##phenylethyl
LBT
flavors
watermarks
##chel
700°
Cld
##644
##viii
##UCUU
mannose
OCS
##CMOS
speak
VMs
sul
##+/−
Adjust
www
PRIOR
Luc
3300
Bifidobacterium
Government
Lastly
Nippon
assurance
caustic
demodulating
disparate
lignocellulos
mammary
obturator
pedicle
sailboat
unintentional
Associated
GNSS
alkyne
adipic
##tivation
lease
customizable
deprotection
mucosal
degenerate
##CAAGG
##foam
##831
subsequence
##halide
demultiplexing
multiprocessor
##987
predicts
tensioned
dealt
paperboard
##782
##0.45
437
##ethylamino
##082
##PTFE
##obtained
propose
0.93
dermal
##-6)
##662
##Par
##winding
##exchanged
PPS
##cagtg
7.38
##(6):
##Formula
diffract
3.25
(0.04
##stressed
##iki
##uclease
##eurodegenerative
cochlea
fouling
lumbar
mellitus
oxytoca
GmbH
sheep
sublimation
admixed
Biosystems
##benzoxazol
unsecure
altogether
occasionally
##890
(2008)
neighbouring
Transmit
CEP
diminished
1981
##tetramethylene
##uation
Screening
0.87
##ABC
coke
Fine
ALL
##685
##pregna
MFR
##DEF
chrome
Polypeptides
##QY
−15
##DLL
##erin
discuss
categorize
##mesh
##usually
##convert
##weighted
suck
##ostatin
##Str
GTP
##radical
stringer
##mapped
##dextrin
Biosciences
VMRECORD
alleviating
cytochrome
fungus
hypotheses
pepper
Practical
##786
Reset
collet
1.43
##541
##GCTTC
Instructions
RST
##oxyl
##818
##348
appending
1303
extinction
cardboard
##=15
##uniformity
bug
temp
oxidize
Circ
##Solv
subtractor
succeed
vesicles
##div
emulator
insufflation
beamformer
##pvm
choke
Mutation
trash
CpG
skipping
Rules
##octene
revolving
sixty
disodium
persulfate
##764
##-1,5-
Yeast
cyber
##oxime
photoactive
##ganopolysiloxane
folders
0.69
##difluoromethyl
fairing
Fractions
Sensors
##chron
synchronizer
offsetting
##viruses
##ury
dimethylamino
##-7)
##clutch
alias
##quinone
CIE
Higher
##reaction
3.0%
##onia
triethylene
airline
##686
##look
##bury
corrector
hooked
##therapeutic
##Period
##Un
##Vth
##797
[0086]
discriminator
harmonization
maturation
embossed
sketch
Branch
ultrathin
Elementary
pelvi
##Nitro
Exchange
##TCTCC
preheating
oocyte
exons
Eng
ethylenediamine
##687
Stack
##[(2
##GAAG
Attribute
navigational
zip
##discernible
##911
BER
Right
##TATTT
GTK
##dioxolane
##−05
##spring
##751
##ander
7.00
##CSCF
Peptides
##953
##olate
##nitrogen
distinguishable
##=100
ethoxylate
##WV
uL
##GAGAG
ZrO
dyeing
INC
##peritoneal
##streptomycin
Fluorescence
damascene
emissive
enlarging
snippet
himself
polyolefins
complimentary
collation
mmHg
##cipate
reactance
purine
reminding
fastest
YP
##-2-(4-
##Bottom
7.11
2550
proved
##REG
7.29
vented
AGT
##elen
##caprolactone
Copolymer
##[4-(2-
##CCCCC
actinic
neutralize
Fill
##849
##Iso
##TAAG
sulfonates
Context
CONR
xylose
affix
##CCTTC
7.14
encapsulates
##MY
multilevel
sacrific
##Gen
LOS
##gctga
##986
##+):
Existing
Lignin
ampoule
cocktail
technological
undesirably
Together
inoculation
dNTP
endoglucanase
heterozygous
dorsal
VCSEL
Handbook
compost
Actual
fruits
submitting
hardwired
Correspondingly
SYNC
1.95
GGG
Experiments
##AGTTT
acoustical
##583
lymphocyte
EXP
Pri
7.12
IKK
7.32
friendly
##Carboxy
##inverting
##cathode
367
##glycoside
##663
##transformed
##nil
constrain
shingle
##0.33
##ethanone
##3000
575
##BASE
0.86
glyc
originates
Signaling
##634
##terpene
neutrons
deteriorates
2.15
##olo
##cranial
competitor
abandoned
garnet
nicotine
protoplast
suppository
grading
Northern
poppet
isoleucine
Lipid
Cluster
South
hazardous
396
MeCN
(2009)
empirically
665
##borane
##CGTG
##,5′
visits
despread
ext
##covalent
##protection
Acta
##neoplastic
SFU
##amming
##oxidant
##oscopy
parametric
##guided
##091
union
embody
##666
##Anti
##rhodamine
Determine
FEDERALLY
Glucose
Medicine
abundant
approximating
receptive
restenosis
##floxacin
agglomerated
humidification
mistake
carpet
chromaticity
##aries
Controlled
respondent
hitting
enzymatically
drivetrain
##653
1.68
##gency
claws
Show
washes
##+1]
gutter
cycloalkylalkyl
pyrrole
visualize
##816
##tia
−0.9
##liability
##967
##circuited
##straight
##cluster
##automatic
TAT
##TCAT
##paper
##detecting
complexed
employer
##)=(
##printing
##TTTAT
Combination
Heating
RAD
rapamycin
##CCD
coloration
##Connect
##vey
##IND
SAD
Silver
[0090]
coconut
lambda
fetus
contig
1.04
sweat
##sending
##wait
microlenses
##931
##829
##amate
##732
##iro
BIO
0.58
##CCR
COX
adjunct
1.13
highlighting
androgen
LSP
##bf
##cavity
##indicating
##ttttc
##subject
##polarization
OSC
##compress
##949
##lee
##TIS
##GACGC
massive
##diethoxy
clinic
Entry
hydroxyapatite
permittivity
veterinary
reordering
infinity
wristwatch
streak
jog
citation
garden
##odging
##working
England
##slip
meshed
strongest
##Emitting
thruster
##cidal
##IFN
##ABLE
##zine
359
concentrates
##XIII
hepta
snapshots
##trapping
##reflecting
SPE
Kar
MCF
##-((1
immunoassay
##sulfone
0.72
airport
morpholine
Animals
##bell
##578
perceive
Shi
##sequential
##NMe
herpes
reproduces
Advantages
Emulsion
[0091]
myristate
perceptual
presumed
tassel
##renewal
swath
stiffening
WiMAX
appendage
ninety
##-1,6-
Copy
fare
mAh
transformants
##TIN
##068
multivalent
outstanding
##simul
puff
Counter
##494
headphones
Che
##LON
painting
1032
reticul
##rect
7.23
##microbial
Working
Mix
deterministic
RSS
##Pigment
1.70
##retaining
4×4
##081
ITU
penetrated
527
##pain
LTD
##phyl
##(5)
0-5
10.00
##)((1
4′-
##ribofuranosyl
accidental
##sourcing
Cartesian
Chamber
economy
engraving
##html
podcast
shopper
##butyrylamino
upside
strapping
clothes
acyloxy
##-[2-(4-
##843
halted
##ello
Fv
examines
cadmium
755
##Ref
sandwiching
##MOSFET
emb
PIC
##coll
##transfected
##applying
##provisional
##glutamine
##(4)
Special
2,6-(
##authentic
glycoside
##disk
##841
##777
##methoxycarbonyl
multimer
9.9
decyl
solubilize
Male
##0.30
Lip
HomeGift
cerebro
dystrophy
interpolating
navigating
nomenclature
testosterone
FinFET
##ciliary
Separate
blurred
alkylcarbonyl
labile
Paper
##nov
##synchronous
FDD
##−04
##asp
Lines
##Base
sorter
redirection
depressing
##735
camptothecin
Pool
0.25%
##073
diver
Kim
##SiMe
artificially
##WLAN
GLN
##rolling
adopts
protuberance
micelle
835
##)-2-(4-
##OCO
##.2;
##809
##clone
##621
##933
2.45
Bro
##GGAGG
393
Derivative
embroidery
equivalence
lacquer
linoleic
pulsation
utilities
oblong
Miller
instantly
clogging
contest
##het
9:1
##CTTA
##574
cutouts
incorrectly
tries
SoC
traced
##3.5%
Sound
##787
##chromatic
##depth
##vacuum
##travel
Env
leaflets
##monitoring
##vivo
dialkylamino
##match
##native
strikes
##088
##transporting
thrombo
butyrate
physiologic
[0089]
athlete
charcoal
enclave
energetic
galvanic
pregnancy
porcine
##LQPPT
gallery
microbes
decoy
Spectra
##dark
monostearate
undue
retransmitted
##WY
##decanoyl
##ACCAA
predictable
lysed
##Systems
RPS
GLY
migrated
artist
symbolic
metro
##822
GGA
##558
7.16
##magnesium
##CGAGG
##CAAAA
##SLT
oppose
GTC
UCI
conformational
actionable
fibro
##mitted
0.79
##ttgct
PLGA
capacitively
1.27
ulcers
##819
##otin
##Vision
polygons
ferro
##contaminating
Conference
Diabetes
Improved
conceived
girder
ottoman
acacia
##BLOCK
##xanth
unbranched
loud
##Multiplexing
Alkyl
rewritten
copending
##Act
##PPh
whiteboard
aged
1.18
##tetrazole
recall
576
##iasis
phosphodiester
assured
Noise
fractionation
##=0.1
##bubble
##fifth
##operating
##761
##sorbent
##2007
fermenter
contemplate
geographically
##TACA
##recording
Bad
##519
neutrophils
ordinate
wheeled
##894
##=7.9
##842
935
7.27
scaffolding
SPONSORED
Tokyo
polyhydric
attestation
uniaxial
discontinuities
IMAGE
payroll
Abstract
toroidal
1034
SET
paver
crawler
Drop
towing
reposition
globally
##471
1.47
REFERENCES
##Link
##proteinaceous
##CAACA
##rix
##quo
furanyl
Attributes
deduct
##idae
wellhead
1305
titers
##918
##variable
##equivalent
##histidine
1706
##Gln
##suring
##phosph
West
Refer
cryogenic
printable
1.60
harden
operationally
##907
Blu
REG
NIR
prioritize
##45°
##nonan
polyoxyalkylene
copier
cuvette
fungicide
palmitate
##Custom
666
EAB
−0.01
wooden
kilogram
soaking
##gtac
topological
CAAC
##FGF
Eudragit
##766
wasted
URI
TPM
##different
##separated
##establishment
##focal
OEM
##purity
##MET
SSC
##568
evidenced
mental
##721
dissolves
QPSK
694
contributed
##omni
##ferential
1.38
Threshold
bronchi
Drosophila
cohesive
follicular
parallelepiped
revocation
satisfactorily
scooter
##RANTES
forefoot
Distance
persistence
monocrystalline
##RDING
tabular
##PLE
##ado
Polymerization
##′—
1.39
thiazole
disturbed
Mich
awards
economically
fermented
##alter
SCP
recordable
##comprise
0.83
stripper
##boron
DRX
0.71
7000
iterate
##MDI
SGD
##steroid
excludes
1.85
##insulator
##Second
##=20
##fastener
exerciser
##public
##ocytosis
##3.27
##ocating
##phenethyl
BAN
##2,12
0.82
##near
##urn
##aver
polyfunctional
strengthen
cope
7.06
##cycloalkenyl
844
tighten
7.28
##664
Portions
mosquito
##boost
Alignment
AvPAL
Monoclonal
[0087]
[0092]
extremity
remediation
essence
smear
veneer
##optric
denier
##pu
1904
Simultaneously
##085
Arrow
lobes
parallelogram
##calib
##3.18
##TGGAA
uM
592
##119(
multimode
BMS
##rgic
characterizes
certainty
##70%
##dermal
Less
##dioxan
7.75
##Size
##(−)
##623
##GST
cushioning
##fabric
##carbazol
##TGACC
##powder
##central
soften
visiting
Persons
##gccg
##421
##dioxol
TTT
##State
Shape
##SDS
0.020
##indolin
Lithium
ambiguity
antifouling
heavier
impractical
kneading
unaffected
gross
##phenylenediamine
hydroquinone
Vivo
##stimulatory
fourteenth
tradename
sideways
unequal
##=1.0
##-[1-(4-
superposition
##MER
bimetal
##reb
##0.5%
##armed
quencher
alkoxyl
##NW
METHODS
4.00
0.075
##equal
##arginine
neoplastic
##-1′-
Delta
resinous
dimples
GMR
frontend
##diu
##VSB
Alter
##-[7-
##izo
importantly
chemo
##cold
Phosphor
definite
morphine
humidifier
cascode
coincidence
Plug
recirculating
cofactor
begun
##stimulation
miter
employment
Neo
##Form
##CRC
##GCAAC
tetrahydropyran
FPU
accessibility
Sync
##fluorescence
rarely
PER
flowrate
nominally
##engine
##prior
##initiated
##fluorinated
##thrombin
##exclusive
170°
##moles
projectiles
monoethyl
MIN
March
##typing
nanometer
##Ufu
7.21
7.31
##formate
2.54
inflate
nth
##Path
abrupt
distinctly
##pac
##cyclobutyl
##-(4,4,5,5-
Corynebacterium
[0097]
fraudulent
fuzzy
maturity
senescence
turret
unsuccessful
western
Zhang
ligating
pyridazinyl
stratum
584
liable
jackpot
turbidity
Antisense
informative
diglycidyl
norm
truncation
tapped
##tggtg
##0.15
nebulizer
##=16
allergen
##AIL
99.5%
[033
##filamentary
Mann
##lid
equivalently
##prene
dispatched
##glycero
##written
##067
2.88
OCT
##DTPA
LSS
##thion
##symbol
##maximum
##optimal
0.89
##slave
##linkable
HBA
##bert
##methylpiperazin
bake
0-6
thr
1316
CDK
##medullary
Chromatography
Pichia
associative
elaborate
expenditure
hydrofluoric
messenger
olfactory
invasion
chirp
violate
diaryl
abutted
Definition
momentary
circulatory
##doubt
##ured
clipboard
##sulphonate
##benzylidene
##NAME
fillet
retrovirus
Hei
##went
filename
##SAP
##VPN
relaying
fulfilled
##881
1.08
seem
##dentate
1,5-
manifestation
##decenyl
##threshold
##encapsulated
##administration
##microphone
##isoprene
##naphthyridin
booting
overcoming
2.75
##-1-((
##alkylamino
##lier
##(2,5-
dialing
boring
##921
(24)
CIN
TIA
##FWHM
Coupling
Fresnel
Platform
Streptomyces
[0095]
[0096]
doxorubicin
homogenizer
trehalose
dovetail
Trends
crowd
French
Owing
Unique
treadmill
expelled
lipoprotein
knockdown
knockout
bicomponent
494
haloalkoxy
Skin
95:5
flashlight
3.40
CVT
instantaneously
entails
dispatcher
LOW
##liver
##pharm
##877
##FIT
EU
##diisocyanate
frictionally
828
##Lu
summarizes
##oelectric
Fnd
disturb
792
stuff
resumed
##hematic
##TEG
##[1,4]
genotypes
Compression
aromatization
dendrimer
hepatic
lancet
turbulent
debugging
Routing
photoinitiator
bidding
watts
photosensitizer
##889
impingement
fluorocarbon
##heater
semiconductive
IPTV
corrupted
submount
##clusive
microplate
entail
grab
TYPE
betting
##899
0.02%
119(
0.74
2112
cascaded
subtypes
7.36
2106
eating
##2,000
##trifluoroethyl
Star
PED
distill
2.08
##947
MMS
##package
##aceous
##867
##spiratory
##FER
Optional
##Tropsch
##saccharification
Impact
Movement
[0099]
prophylaxis
speckle
stenosis
watercraft
shuffle
contradict
salicylate
Propylene
nucleobase
palmitic
pits
RTS
##polyethylene
heterostructure
##546
Window
##dichloroethane
##-(4′-
AWG
UBM
##RRC
PRT
##before
##owl
##Cyc
##cott
##934
##concave
##trunk
##Phenyl
sweeping
incrementing
##cord
carbodiimide
##Dot
##CGCT
##ONT
##fibro
SRC
##methylstyrene
7.39
Alternate
excavat
##ophilic
denaturation
evaluator
neuropathic
##Agilent
SiNWs
flagged
BaTiO
casket
horsepower
Hybridization
alkyloxy
inadvertently
2,2,2-
##GYG
mismatches
descent
loses
658
powdery
stitched
##SSS
Printing
octane
COF
##due
pentane
weakly
467
4.25
##immune
##essential
##killed
−11
1.80
##keeping
909
##compatibility
VIN
##mmu
suppose
##oides
##2.5%
surprising
##have
portrait
competing
defibrillator
dicumyl
acetaldehyde
aerobic
Ligand
Moving
forcibly
grape
truth
Modulation
Instance
Extended
(2010)
tomato
Insert
CTA
Polar
Selected
2.82
thioester
transplanted
##821
Bridge
imported
diverted
theoretically
lawn
Organ
photography
equalized
Mid
1992)
atrium
premise
##RGB
1.09
BAD
##cysteine
##physiological
##engage
IgA
##thiazolidin
ILD
triglyceride
##=2.5
1.41
##tgcct
disintegrant
migraine
[0098]
advice
arsenide
daughter
immobilization
inaccurate
unintended
7.18
retinoid
humidified
bigger
tappet
tiling
paintball
Execution
##486
humor
Task
Button
Markup
bulkhead
vigorously
##cyanin
Thio
RPMI
subclass
##nitrooxy
NCO
##icon
##formaldehyde
Thread
overexpression
##-1,1-
seems
esophageal
alfa
HIS
##OVER
##BMP
spliced
##GAGAA
##define
LPF
##GACGA
##dissipating
##migration
##heterocyclic
freshly
1.14
bread
##fol
3.20
compile
##AAAAT
##[2]
tensioner
PECVD
##Pre
##FAB
##split
payer
PLMN
Prote
653
##inus
Practice
Proceedings
Remington
compiling
gravitational
mycoides
haemo
##mpinging
SGSN
modalities
worldwide
prefabricated
decimat
1806
deflectable
DSM
0.59
diverge
7.19
1.58
Mounting
Implementations
ANC
TRANS
6.76
Ray
1405
##cutting
##difference
##resolved
##zirconium
Zinc
##projection
##butylammonium
Track
##corn
##cardia
impacted
##MPa
Fraction
Monitor
believe
emulate
##caaga
quiesce
Principle
Traffic
[0093]
endometriosis
craft
##ELEMENT
Alcohol
equator
interrogate
calcination
##STF
sewn
Expert
HDTV
segregation
obstructive
alkoxylated
recirculated
7.37
6.85
erected
vaporizer
Taking
7.47
0.76
Plane
##LOS
##BLE
##perfluoro
##WF
##anchor
tailing
Law
##AGGTG
RIE
2.60
unload
##allocated
##dimethylpropyl
leach
fluidity
##ialic
zircon
tearing
7.34
carousel
decomposing
glaucoma
impervious
##phosphorothioate
Inventive
microrelief
cycloheptyl
neat
Leaf
RDLs
##(5):
717
##crRNA
Brain
cinema
voxels
##ctgct
extendible
parenterally
190°
##IEC
lossless
OTU
1.49
##thiazolyl
##anal
7.44
##tended
dimensionally
##dap
##Codon
##agttt
Bank
2.14
##pressing
##closure
##-2-(3-
##document
##freezing
##Value
##stimulated
##interval
1.72
acted
##bacterial
payline
##installed
−13
##poli
##098
gelation
1712
##2.85
##VSS
Implementation
##)-6,7,8
##2.95
distort
DFA
##857
##uminous
CRISPR
CaMKII
grommet
diverging
sewing
NULL
##fibrate
hemihydrate
Timing
wiping
Shiga
slipping
searchable
7.51
interchange
928
vertebrate
revert
##FLEX
asynchronously
##556
HRP
2.05
Environment
paused
0.8%
##mega
746
refreshing
nick
##FETs
##AAAAG
Melt
##Access
##emitter
##AGAC
##pool
##query
86%
##connector
##dimethoxyphenyl
logon
blockchain
EPA
##estradiol
##propionamide
certified
conservation
consolidation
farthest
immersing
paradigm
pellicle
rudder
ocean
##Amersham
cereal
equity
##trimethylsilanyl
monochromatic
HeLa
staging
Simple
##0.01
perfluoroalkyl
replicating
malic
adjustably
granulated
antistatic
burr
Antigen
PBX
prospective
pleated
mood
consequent
##sensitization
##AACCA
##donor
waxy
steric
deriv
synthetically
SLT
##strom
##Point
##743
##sulfonyloxy
cocoa
Crop
##CAGAG
shortly
##velocity
##spectrum
##floor
duplicated
alkanes
##suspend
1.37
interprets
##traction
##15°
##,4,4
##spira
glare
##hexan
##=2.0
interceptor
##rmochromic
Electrolyte
[0100]
decimal
encased
juvenile
orthopedic
promising
Scalable
jelly
shirt
Programming
Dissolve
Increased
isotopes
AIDS
sedimentation
##2006
##CONH
normalize
datastore
environmentally
##quinolyl
6.95
embraced
REGA
taxi
legend
exo
##leave
##rey
subcircuit
##TGGAG
##sorption
##×20
##isothiazol
Fisher
578
qubits
##imido
##SAN
##scFv
##vitamin
##agaat
7.41
##386
##pitch
##ethylenediamine
crush
##VEGF
downmix
dyn
##FLP
recordation
##847
ISDN
##CCTCA
pri
Discovery
Madison
Radix
WiGig
eosinophil
butterfly
tariff
ASN
taxane
cleansing
electroacoustic
eyelid
salicylic
##entity
##ASP
winner
micrograms
bedding
##capable
##scattered
intends
##LLI
maleate
localize
aramid
ORF
##extra
##CoFe
##hexadecyl
0.57
Solar
##decanol
atomized
microblog
##dichroic
##transistor
##periodicity
CIF
fluorophores
solver
counterfeit
##RESET
overcurrent
adipate
−1.2
POSS
##Gu
##propylamine
##stilbene
autologous
homogenate
inevitably
irreversibly
phosgene
Cotton
pluggable
billet
##sulfuron
##rigin
pier
placebo
spontaneously
lineage
Tracking
Portable
anthra
##−09
sinking
DSS
mute
formulate
##counter
protuberances
2040
ILO
1.63
##SQL
trialkyl
0.013
##PWM
hearth
##exhaustive
##background
##Water
7.46
CCE
##zu
7.56
##worth
##oshi
##arry
CBB
##erating
##Text
##6,7,8
Promoter
emulsified
implicated
vulnerable
asperities
hyaluroni
phosphorescent
IGFBP
Multimedia
guardrail
Toxic
Resist
##CGCCC
topologies
pour
##hair
1.26
replicates
##cagga
sporting
Header
sport
87%
moderately
##MEA
opposes
ABI
diazo
##App
NMP
fluidically
archived
##collect
CPW
##olone
##ubbing
##(2,2-
towel
##sleep
##worm
dictate
copoly
circulates
##617
##fetch
##tenant
595
6.90
##868
##mycin
##TTCTT
##hedral
Fabric
##[1,2,3]
Comprising
EXEMPLARY
Lactobacillus
Magnesium
[0094]
adiabatic
definitive
earliest
histories
remodeling
unwound
cumene
nexus
viscoelastic
##Query
##hexanoic
ingestible
##marked
preheated
##sensitivity
sacrificed
##spread
raft
achievement
SIR
SSP
Whenever
fear
Methanol
sharply
DIN
flooding
##GGGAA
##chlorobenzyl
1.000
nearer
##oleoyl
lockout
##Dimethoxy
##compartment
##diffusion
##embedded
##Blue
##labelled
eIF
1.12
##GGACA
##′-(3-
1.16
##hyper
DIMM
##ldh
3.30
Excess
[0103]
clarified
compromising
decarboxylase
supercharger
suppositories
cognate
midsole
sulfite
Capture
##acetamido
ingestion
pushbutton
##chro
Marker
Define
##obacterium
DPA
##MEMS
SINR
stabiliser
earcon
crystallite
7.30
Naturally
##adine
##UCAA
cds
##093
Fold
##tank
HEW
divergent
emergence
7.60
##887
##indan
##risk
apple
PRI
tint
##pyrrolidinyl
epitaxially
2.24
WCD
##GenBank
##John
##cyclodextrin
SMP
##0.20
##smart
##4-(2,4-
##letter
teach
Carbo
1630
Instrument
Semi
ISIGP
baculovirus
bisulfite
mesenchymal
shredder
FLASH
mortar
uterus
PWB
irradiates
Uplink
tennis
(2011)
Extension
thioether
Stress
##Predict
##chlorobiphenyl
liberat
##3.19
450°
dirty
##746
7.33
suddenly
epsilon
##decene
CONH
cyclically
repeatable
isoprene
1.19
1.98
Instruction
##TAATT
##Succ
##omi
##synthesis
##yield
##luminance
obstruct
pneumonia
##crosslinked
##database
ZnS
##furanyl
##Fluor
BGP
##tgagg
##conductivity
envelop
1995)
Hole
##=9.2
mucosa
##mura
##conditioned
Composite
Fundamental
PREPARATION
Potential
[0101]
crotch
eigenmode
miniaturized
pyogenes
morning
PIFA
exploration
opcode
tetrachloride
fulfillment
##SIL
PPP
feedforward
TDC
overwritten
monosubstituted
[4]
##942
interchanged
##connecting
solubilized
SAS
missed
Handle
##alkane
##establish
initializes
2.30
##construct
##582
##throughput
DFT
sock
##pressed
##tacc
##083
Kan
3.50
thru
Heart
##transact
idiom
1.07
Acetonitrile
Assistant
Reserved
Utilizing
deficit
efficacious
frustum
glyphosate
inconvenient
innovative
licensing
recreational
tartrate
vulnerability
WWW
reboot
biocide
denoting
buckling
snare
##transform
semicircular
filamentous
biochip
TTL
passband
hung
##acin
##−02
turnover
1225
##phobic
##UGC
##VGA
exploited
PMT
##GATGA
##-((4-
PPM
##CTGCC
##GUUG
7.70
phenanthr
449
GCA
Slot
##611
##butyldimethylsil
##hydrocarbyl
bricks
##unsaturated
##0.08
##synchronization
##TCTGC
1.69
##methylbenzyl
spell
##LTI
inadvertent
##auto
Residue
Fatty
PEComa
feather
sunflower
spheroid
Robert
dihydrochloride
purple
homologue
cancerous
uncovered
authorities
broadcasted
PHICH
generically
##found
prevalent
##-3-(6-
##Day
Pharma
tiltable
immunoassays
Preference
MES
##very
##UTR
##=6.9
Hub
##094
##command
##oligonucleotide
##ranging
demultiplex
##RST
##stearyl
##idyl
##yan
##penetr
technically
Bell
Explorer
cirrhosis
##immunodeficiency
##tracking
Crohn
auditorium
flaw
queuing
solicit
tragacanth
transposon
Risk
clarify
Chloride
disaster
prismatic
omitting
LIPA
SIRT
Partial
mere
involvement
##00000
repositioned
2510
interlace
##IFT
7.52
##rth
equol
##893
FAM
FIC
Roche
##CUGA
switchover
defocus
##deficient
##fragment
##efficiency
##haloalkyl
##Print
##tissue
##olactone
##0.36
bleach
##10000
766
##phenylsulfonyl
predominant
CEM
Applicable
Titanium
Williams
[0105]
abdomen
aberrant
flotation
gemstone
squamous
tangibly
soaked
##Gibco
disintegration
guess
##hexanoate
Rapid
Uniform
concatenation
snapping
Cache
acetylation
imprinted
responsively
##tronic
SVC
##CAR
2.10
beneficially
##TTTTC
##reset
##install
GCT
##NAS
##surgical
##healing
##dependence
##corrosion
##orthogonal
##shared
##external
##phosphoric
3.88
##trace
##spray
##AGGAA
FCS
Hap
hydrazide
[034
lump
1.34
##writable
SMT
arrhythmia
frangible
hydrolysate
lyophilization
minimization
mitigating
osteoarthritis
supersonic
##COUNT
GPIO
clump
Left
NVRAM
seawater
shutting
intend
subtitle
Attachment
VPP
VDC
polyurea
originator
duplexes
retarding
##AGAAA
crusher
PVT
2.0%
1.92
0.9%
##GGAAG
spending
1.62
##while
##Comparative
##movement
##undecyl
##grid
##resource
##tacag
PHI
##patterned
##spinal
humid
##-1,3,4-
##INTERMEDIATE
COMPARATIVE
chrominance
diclofenac
liquefaction
ternary
obese
NanR
maltose
Cellulose
lifestyle
dialogue
reductive
##align
(2012)
counterweight
##PII
##EU
QP
zoomed
bounce
coagulate
##TCACC
##-[4-(4-
Poor
gluta
##butylphenol
##SUP
acknowledged
##except
similarities
##GCACA
##oxyethyl
1.78
##LAA
0.77
recognizer
pollutants
7.13
##dispersion
##phosphatidyl
##discharging
##purified
##flexible
##imaging
##-2-((
Logical
##Enable
##TGCCA
tiered
7.63
crawl
voxel
suspect
##macro
maxima
guar
##url
Improvement
Nozzle
agglomeration
dronedarone
featuring
quadratic
bentonite
pipettor
octet
premium
Anchor
milligrams
NaBH
##SiN
pyrophosphate
blurring
benchmark
bypassing
equilibrated
mountain
monodisperse
Cyan
##vision
##functionalized
##GGTGG
##symptomatic
punches
##0.10
preceded
governed
ceases
3.76
##2-(5,6-
##LAMP
##836
FAP
aftertreatment
##Transition
##anus
##IU
1.83
##dopa
April
1.46
##tyrosine
##Start
##bandwidth
##ocytic
##neck
##6.67
filars
pollination
##herein
##Treat
##hyp
Adapter
[0107]
dislodge
necklace
penetrator
unsuitable
CMYK
poison
Supply
##Requirement
patron
resonate
SELECT
coercivity
busses
paying
gameplay
Commercially
placenta
obstructed
EVA
polyacrylic
Math
waveplate
##AlN
##UCCU
##IZO
##benzenesulfonate
3.78
VIP
bendable
DMS
obscured
wad
##CATCA
##deposition
##PLC
Iron
STIM
2.38
qualify
Adding
##once
##modulator
##Level
##commerce
##catalyzed
##management
EAS
##priority
##enone
MIT
confine
##CACCG
##sys
##GCCCA
##913
Recent
##glitazone
Calibration
Receiving
[0102]
chondrocytes
emptied
immersive
juxtaposed
kitchen
myeloid
peptidomimetic
aspirator
dermis
Modulus
buoyancy
deferred
electret
atrophy
mesylate
HTLV
Coefficient
PROM
##Suppl
##pyrrolidinone
Polymerase
##CLAIM
##Pharmaceutically
bilayer
algal
##ARC
##NBR
rayon
##uronic
glycosylated
##−40°
omissions
CHCl
##assemble
##taatt
aligner
##technology
##adenosine
##categories
##denoted
##encode
##transition
##compare
7.55
##bromomethyl
##SOI
Secondly
Monomer
dissect
##Reflect
neoplasm
EIN
announce
##TRI
eleven
exponent
PSD
contemporaneous
##Hodgkin
##synaptic
OBJECT
[0110]
ameliorating
conducive
sesame
uncomfortable
volunteer
watchdog
wizard
##reperfusion
collapsing
celite
CODEC
denied
##philic
ultrafiltration
racetrack
Spectro
opposition
##arbitrate
Engineers
[%]
designator
wetted
exemplifying
jetting
influenzae
Retin
Container
organizer
hingedly
##uria
##HDD
Protective
1,500
##lung
##5,5-
##within
sulfonated
hydroxylamine
Polyethylene
##TGTTT
1.36
##azaspiro
abnormally
sulph
##conferencing
##conservative
##private
##7.25
##raz
HEV
##interest
0.84
##AAAAAAA
##898
calories
##0-400
##proline
##zel
Create
leukocytes
##TABLE
DEVELOPMENT
Poloxamer
Recognition
Responsive
Spatial
[0106]
cellulolytic
goggle
holster
larvae
recognise
responsibility
ribosomal
frustoconical
pDAB
operon
commission
Disclosure
##catechol
Transcription
Article
Quick
precious
shale
##SNP
existed
radioisotope
unprocessed
##olite
germline
recharging
##hose
massaging
Raw
Six
##tightness
##CTTCA
##NNN
How
fetching
##etter
LNG
##PVC
##ahead
##0.28
Sense
punched
hypertext
(21)
##fra
##morpholinyl
wine
##GACAG
##deploy
##attachable
PDMA
MICR
FIB
cga
hang
MOD
Ammonium
Department
Fahrenheit
Suppose
capillaries
caspase
exhaled
expedient
kaolin
pulsatile
resilience
thrombospondin
OTHER
suffix
broncho
##Receive
Oxford
(1981)
triazolyl
pegylated
equilibration
instantiation
Bulk
Rod
cattle
##opathies
fifteenth
matrixes
recombined
playfield
Proxy
unexpectedly
polymorphic
KLF
warping
subscribed
##perform
##review
##TTCTG
1.96
3.10
PTR
##FFT
##651
Job
##GACAA
7.07
##silicone
3.85
##authorisation
##affinity
##child
alkoxyalkyl
enrich
1.23
careful
##ERR
simplex
2-(((1
ensemble
##activatable
Safety
Surprisingly
bombardment
chemotaxis
conversely
erythematosus
eutectic
gravure
titration
##palmitoyl
1,2,4-
coagulant
##Verlag
dragging
Celite
shRNA
NVMe
accordion
bowlers
cleaving
accidentally
2.06
##dioxin
##exposed
##GAGCT
agreed
MOP
##cgag
##rise
7.42
6.75
##pure
##oxazine
##pub
##scheduled
##rough
##copper
##session
##timing
##lattice
##Input
##CTLA
##NDI
severed
##steroidal
##disubstituted
SAE
curvilinear
opacity
pluripotent
repertoire
Sulfate
Tetrahedron
cyclization
fullerene
rectum
8×8
##propargyl
aprotic
5:95
Polynucleotides
directories
HDMI
appeal
Dielectric
temper
penile
3-((
(2013)
prevailing
Surgical
Novel
hob
geometrically
circumscribe
##oda
##ager
##copolymerization
mismatched
SnO
signify
0.0000
1.56
7.49
##chemistry
BBS
##catalytic
##[5-(
##PUCCH
##extract
##phage
##price
1.82
##isoxazol
##AGACC
proportionally
4.11
responded
2.58
##aided
##egulatory
1.67
##Sepharose
##citabine
Approach
alginic
deuterated
exemplification
monolaurate
muffler
poloxamer
remarkable
scissor
tinnitus
Applying
deskew
Connector
##ahl
##joint
transduced
hardfacing
##CAACT
“3”
triphosphate
Making
labelling
solidifying
interview
Santa
interim
pierced
3×3
stacker
bundled
pmol
##=6.0
##rotor
iRNA
prefetcher
##CTCCC
##kawa
2.55
##capsule
##dioxa
##filament
##Element
##actuated
##maleic
##granular
##controlling
biopolymer
Engl
3.77
##icola
Limit
##imidazolidin
##Stratagene
Distributed
[0104]
cataract
cathodic
kappa
palette
##acetophenone
fumed
##imethylsulfoxide
Facebook
webbing
merit
Our
2.22
##FIB
shutoff
reflex
esterified
##738
FDA
strainer
(22)
hemp
baseball
maximally
standoff
##=0.4
flared
chromatograph
Oligomer
##FBS
##herself
##benzothiazol
##LNA
##ENE
pie
pinching
##End
##TCTCA
##GCGCC
##0.95
##blend
monofilament
##actual
PND
##stabilizing
IMU
##friendly
##ihydroquinazolin
6.98
weave
##batch
##benzothiophene
##uster
buoy
Capsule
Consistent
DuPont
Yarrowia
[0108]
[0109]
commensurate
integrin
serotonin
sterilizing
tentative
##pentanoic
(1982)
cisplatin
scrubber
Feedback
1.32
flipped
referral
Deep
Stir
transformant
Shell
crosslinkable
##0.42
src
decremented
tines
GID
Vapor
adeno
rewrite
Ether
upcoming
billion
Vcom
##Specific
##piperazinyl
0.030
autofocus
##clear
##cyclohexa
##butoxide
##GCAAA
##dipine
##TTATT
##TYPE
##medium
cemented
isomeric
##stretch
##panning
##methano
Variation
##wan
soda
##cured
6.94
CITATION
Simulation
diarrhea
furthest
hydrolyzable
ubiquitous
hepatocyte
virion
hexitol
Reducing
PUF
batting
visor
peroxy
copolyester
##9.5%
##correct
2.35
##atgct
ablating
VOUT
##CGCTG
fitment
coexist
##tested
##status
ascertaining
##triazin
usefulness
##kar
##TATTA
Wet
mop
##symmetrical
7.62
imb
(23)
delimit
##environment
##blind
##protecting
Solvin
##suppress
numerically
macrophage
carbocyclyl
bayonet
cheek
chromatogram
corrugation
novolak
xenograft
singulation
scoop
##Pierce
optoacoustic
Afterwards
(1980)
minimise
Bayer
Texas
unlimited
bifunctional
subordinate
cultivated
SMTP
Limited
##octadeca
pink
##butyryl
tampering
##:1:1
##0.41
auditing
Bound
mbar
6.97
UCC
2.89
##ethoxycarbonyl
Oligo
##hook
##=0.2
##fusing
##surfactant
##Only
##extended
##differential
##modifying
##composition
##tuning
1:100
##GGTTT
articulate
1.87
Constant
Utility
amphiphilic
categorization
elucidat
fleet
interpolator
photomultiplier
rhenium
sagittal
schizophrenia
umbilical
wool
precoder
plies
communities
Selectivity
##dimethylisoxazol
nitrocellulose
Encoding
Immediately
7.87
Bacteriol
idealized
climbing
##spotted
802.16
7.53
##AGTGG
overheating
fallen
##next
##omonas
2.12
##hexanol
commutator
imag
uncouple
Role
##TCATC
##carbonyloxy
7.04
##MUX
##844
##GGAT
Trace
##aminopyridine
##destination
##Molecular
##Number
##grown
##biotin
Rock
##detected
resolver
immunogen
##adamantyl
##lectrocardiogram
##silsesquioxane
Horizontal
Quantitative
gimbal
speculative
vulcanizing
fibronectin
varnish
nickname
pesticide
Enzymol
agglomerates
BRCA
coexistence
unsaturation
Bacterial
##pnea
evicted
TGA
uncontrolled
[5]
fractionated
hoisting
Mapping
##EDGE
Zero
Palm
##AGAGG
##toluenesulfonic
0.15%
##complete
Just
7.80
##donating
##tridecyl
1.17
1.64
##Cancel
##File
##electrolyte
##PDSCH
##extraction
2.04
##GAS
1.97
blog
##1,3,3-
##bupivacaine
APPARATUS
Destination
Infrared
Telephone
arbitrator
helicase
sulfhydryl
foodstuff
hydrolase
##EQYF
CXCL
FITC
answered
Half
gripped
dimethacrylate
UPLC
Nucl
pneumatically
trioxide
##EAP
emulated
TRPV
##Chem
portability
selectably
annual
##ductive
knocking
Martin
##neurostimulation
transiently
bisect
bedside
##adenyl
##omyces
##viridae
malt
##determine
##axes
7.68
Shin
##tolerant
Strip
##speech
##recognized
saturate
##RNG
##precipit
PRESENT
Interference
[0113]
lexicon
remedy
unreliable
1,2,3-
MBSFN
cottonseed
sweetening
Curie
asphaltene
Fabrication
lifecycle
##DPCCH
−10°
##Metric
##AACTA
slicer
4.75
Eight
##CAGGA
##ACATG
1.29
##3.00
Selective
MMA
projective
PDC
RPU
6.96
Rald
FTP
erect
##Advanced
##diabetic
##Digital
EBF
##Frame
constrict
scripting
##2,3,6-
Vaccine
audibly
cordierite
dispersibility
exercising
greeting
irrelevant
unsigned
Sugar
tornado
##fluoropolyether
soccer
Venturi
Should
specifier
partnership
intradermal
Android
##0.44
admitted
2.28
potting
aspirin
##dihydrospiro
scenery
##LAT
##emboss
PCG
kink
polyhydroxy
TBS
hydrophilicity
2.21
##lumen
regenerating
7.58
##bromophenyl
##CTGAG
Today
RXR
##methacrylamide
PCAT
##TACAA
##TTTGA
##Log
##acga
##ACGAA
3.29
##skeletal
##intermediate
##likelihood
##RSP
officer
##laminate
4:2:2
archiving
Kabat
entitlement
fertilizer
kanamycin
prostaglandin
cytosol
eluate
injured
borrow
amyloidosis
50:50
SRB
CIGS
urgent
##909
digitizer
LiPF
authorizing
proactive
3.81
flapper
recoil
dissociated
tempered
Clearly
adenoma
VAMP
overwriting
##DMF
MCM
##=0.9
Matching
sublist
##DEV
Drying
discovering
TACE
Neurosci
GOP
##unexposed
Root
##ACTION
QRS
partiality
arylthio
##web
##CODE
##rhythm
##primer
prospect
##numeric
##commercial
##epsilon
##ISCO
winch
dampen
spoke
##AAATC
##4.00
Actuator
[0115]
capsaicin
incandescent
jurisdiction
vaccination
##Orthogonal
Polyquaternium
phosphide
NSAID
heteroaralkyl
##mercaptan
tonicity
thrombosis
Focus
biomaterial
##hertz
Johnson
sonicated
##ZrO
camphor
##LTR
admit
CoMP
200,000
couch
lact
##auer
Plus
undo
OMA
densely
##oleate
##ATGAA
##rock
##VCO
wicking
##ccomplishing
2.19
##VALUE
Ringer
##asset
GPR
##Induced
##predict
##)−(
##build
##mosaic
Compact
##cationic
irradiate
##percent
pressurize
concatenat
##cnt
paw
##CUUU
##moto
illness
MRAM
Expansion
[0112]
extrinsic
inconsistency
##GlcNAc
rifle
Lymph
slag
##SCAN
alkaryl
Molec
Immunology
greenhouse
histological
orientated
Wild
transcoding
spinner
plumbing
pluralities
polybutadiene
percentile
election
7.43
##propionyl
1.86
##stitute
sputtered
##diphenylmethane
0.017
6.92
##GMP
WFS
6.87
3.70
checkout
##6′′-
##dodeca
Paste
##stabilized
Inhibitor
##scaling
##lactate
##measurement
##diazabicyclo
##0.38
##phosphite
##GPRS
reconstitut
##0.37
6.80
checkbit
##immobilizing
HELLO
Measuring
Partnership
gatekeeper
helicopter
kneaded
phospholipase
quadrilateral
sieving
spacecraft
vitronectin
##piperidyl
Cyclic
platoon
shampoo
Taylor
assertion
Detecting
NADPH
##immer
tolerable
biosynthetic
##4000
Markov
##carved
seventy
referential
−0.08
TGC
stride
seamlessly
exponentially
##0.48
Tablets
constraining
##Supplementary
##lein
nesting
statically
##necked
##ethylcellulose
squeezed
sticky
##COMP
inspector
3.90
##polymeric
##market
##ACACC
7.71
adsorber
attaining
##dimethylethyl
##-2,3,
1.71
RSV
##rdy
got
##introduce
##methionine
##Source
##yellow
##photon
##thro
##secondary
3.55
##corp
##ounce
##spora
bootstrap
##sebacate
[0111]
borosilicate
deteriorating
minocycline
reconciliation
relieving
Federal
gadolinium
EphA
dysplasia
Canada
##Script
carbocycle
sexual
ensu
##quinolinylmethyl
Foam
##GPTL
isothermal
Static
letting
##fired
##perfluorooctyl
##hydroxybenzyl
##butanone
7.02
##focusing
DLP
0.005%
##genetic
##0.50
dinucleotide
##sorted
erroneously
exported
Minn
7.01
keratinocyte
merchandiser
skier
Vss
esterase
##Critical
##PHY
interlocked
##6-[2-
3.24
6.93
Spot
##0.56
3.82
3.79
optimizer
IDCS
Fall
##lint
##ternal
##Delete
##ggctc
2.13
##immediate
##execution
##exemplary
##Status
evolve
elevate
##personal
Commercial
##dissolvable
DIPEA
Hepatitis
Vacuum
doubling
invocation
mitral
ranolazine
tortuous
##KGRFTISRDNAK
Fixed
Sleep
1.73
microsatellite
swapping
##DOWN
football
PTEN
##pentanol
polybutylene
subsea
3.39
##mixer
nmoles
diacid
Wood
atomizer
Allow
##LER
PAE
retransmit
##pectrophotometer
Pseudo
curb
darker
0.018
noticed
underflow
stimul
afore
##-4-(2-
##brom
proteinase
##(4,4-
PTK
##distribution
##compliant
##structural
approve
2.36
##alias
##Calc
##glucoside
##beat
##Ile
Excellent
[0114]
dispersal
repulsion
Efficiency
harsh
Presence
laurate
neovascular
##nforcing
harbor
Generating
loosening
reprogramming
##GTATT
disinfectant
Adjustment
Baseline
handlebar
Jones
##atus
mustard
7.61
##uber
##Allyl
##nitrile
##hara
##TCAAG
##CGGGC
##694
##=0.8
##LOW
##nitrobenzene
##trien
##cacg
advertise
4.20
##enberg
##LOG
##TGAAG
##activator
##encrypt
##knowledge
##Color
tolerate
BBB
##prost
##sensitized
Malignant
[0117]
[0118]
[0119]
esophagus
graduation
overburden
receivable
pulsing
gluing
##xylylene
Isolated
Nanobody
2.92
##buffered
corruption
CMTS
DOM
−0.03
clipped
ingested
subdivision
bFGF
##aspartate
huge
gastro
localised
pairwise
##dien
multistage
Listing
maneuvering
attend
7.72
##dialkyl
##cytosine
sighting
7.74
eighty
2.09
NPO
##created
##anci
##intensity
##mineral
##Server
decouple
##eluent
##methacrylic
##ttgca
MRP
##attorney
Capacitor
Conclusion
Heavy
Oxidation
Preferable
angstroms
colpotomy
cyclohexanone
escaping
exemplarily
indwelling
puzzle
stolen
superimposing
pastoris
intubation
Bearing
telephoto
populating
Producing
pretilt
sublingual
thrown
tradeoff
##PGK
##ccga
##;1&
obstructing
driveshaft
##ouch
Mixing
##gtcag
##often
##filed
widest
CYP
spinel
JDF
procure
##×30
##Oct
1.81
##=0.3
Magnet
Cool
##agnetoresistance
##AUAC
tropica
##divided
alcoholic
##interleaving
##extension
##7.50
##ridine
##compressed
educat
honey
Combined
Parallel
bifurcated
chopping
daltons
imiquimod
occupation
precipitating
pregnant
rheology
vaccinia
woman
zwitterionic
SYBR
referents
defense
avidin
Chlor
##aceto
meandering
##sulphonic
##fluorouracil
Indian
##TCATT
1.61
##Trp
##atttc
##SYNC
3.12
##)-2-[(
##AGCCA
governmental
SATA
##phenoxymethyl
VHF
##[3.5
##final
##ATTCT
##faceted
##dominated
##Kit
##register
2.27
##spectral
logarithm
granulate
##compensation
##adjustment
##partition
##decompression
vigorous
Compute
##undec
##diastereomer
Construct
##butyrolactone
Appendix
Carlsbad
Cartridge
MISFET
confining
convective
elderly
hydrocyclone
idiopathic
preliminarily
videoconference
wettability
EVQLVESGGGLVQ
revolve
Author
Thromb
advise
visco
−0.04
resorption
stitches
WPAN
##XVI
PIM
Portion
PAM
succeeded
3.94
dowel
##ZQ
##lowest
##-1-(4-
FRU
##pay
toolbar
##000×
Lipo
##centered
acylate
##=1.2
asks
fluxes
skewed
##TACAG
Luca
##goni
Printer
2.98
1.89
##2,2,2-
emphasize
##adjustable
##assemblies
##BIOS
##prednisolone
BamHI
UNIX
[0120]
gambling
linguistic
repelling
uninterrupted
embodies
incurred
teleost
Calculated
rubbed
Translation
Insulin
committed
##propionylamino
walkway
##oud
leukocyte
heteroalkylene
assistive
bark
##LIF
Commonly
Corning
HBV
homogeneously
QCL
FUM
1.57
READ
provisionally
[%
##tyr
##spreader
##URA
##AGUU
energize
automate
##saturation
##execute
##eliminating
##UMTS
Provision
strategic
##histochemistry
Recovery
communicably
dictionaries
faecal
illegal
interspersed
osmosis
presumably
scrubbing
singulated
shimming
glycemic
imperfections
nonafluoro
Fuji
##,5,7,8-
Modern
monooleate
Percentage
MIDI
Correction
electrodynamic
handwriting
−0.02
hCMV
##establishing
dihydrate
midway
##decanoic
clipper
triage
diminishing
completeness
0.03%
7.57
conflicting
spirally
heal
##fenac
warrant
neon
##attat
thermodynamic
##TGTCC
7.03
interpolate
##multiplexer
##progress
##Length
##administered
##applied
##frequent
recessive
##ILL
##TGGAT
parkin
deliberate
##Sensitive
Angstroms
Coupled
Descriptor
Intelligent
SIGNS
cheese
disintegrating
guinea
itaconic
pavement
snugly
resorcinol
Flexible
quiet
##bead
##(1,1-
##OLD
##PbTiO
##phospha
##glucanase
radioactivity
##ampere
##chloroform
##stitution
spelling
Union
7.54
##threading
conformable
Polyester
asymmetrically
Springer
##hur
(100%)
spore
Streaming
##0.47
headspace
−1.4
##TDD
##Watch
##chart
##0.46
0.040
##formula
##9,10
##Difluoro
1.74
7.66
##attribute
##retardant
##wafer
xenon
##chroma
##3.75
##reactivity
##]-5′-
Huffman
Penicillium
Resonance
analysing
chloramphenicol
denominator
osmium
pyrotechnic
decoration
subtasks
annexed
occluding
piezoresistive
congenital
drastically
revoked
Classification
isophthalic
Glycine
OSI
digitizing
lockbox
GEAR
plotting
Early
dope
ABX
parallelism
##validation
##glutamic
thiolate
##stral
##since
##cycloalkane
##benzodioxol
analogously
underfill
##config
(0.07
##roller
##true
8.05
7.15
##erived
[036
##cursor
Surg
##detach
##Description
##Life
##labile
##Roche
[...]
